#version: 0.2
Ġ t
h e
Ġt he
Ġ a
n d
Ġ s
Ġ o
i n
Ġ w
h a
r e
o u
Ġa nd
Ġo f
Ġ b
h i
e r
l l
Ġ m
e s
Ġ f
Ġ y
Ġt o
o r
i t
Ġy ou
Ġ c
o n
e n
e d
in g
Ġ d
Ġ he
Ġ hi
Ġ in
Ġ p
i s
a t
Ġ n
ha t
a n
a r
Ġ 1
Ġb e
o m
Ġ I
A nd
e l
Ġt hat
Ġ ha
Ġ l
Ġs ha
o t
Ġsha ll
a s
Ġ J
Ġ L
Ġ g
i d
u t
Ġs a
v e
u s
Ġ 2
Ġf or
l e
Ġ e
a m
o d
Ġhi s
l d
o w
Ġ G
Ġyou r
g h
a h
it h
a y
Ġhi m
he r
Ġo n
Ġthe y
Ġ is
v er
c h
Ġthe m
Ġn ot
Ġw ith
O R
OR D
ĠL ORD
i r
s e
en t
h o
r i
e t
Ġ k
c e
a l
Ġ it
r a
gh t
e re
Ġw i
Ġ E
Ġ S
Ġa ll
Ġsa id
Ġ P
k e
s t
Ġ A
Ġ re
Ġm e
Ġha ve
Ġm y
a d
o re
i on
Ġw as
Ġw hi
T he
r o
u r
Ġt h
Ġ h
Ġa n
Ġ M
i ah
or d
Ġwhi ch
a nd
Ġ u
Ġthe re
a in
ĠI s
t h
Ġa s
i c
Ġwi ll
l es
ĠG od
Ġ C
Ġf r
Ġ 3
Ġs e
v en
er s
Ġc om
Ġthe ir
ing s
ĠJ o
Ġs t
i l
Ġw he
Ġfr om
Ġm an
t s
Ġa re
am e
Ġs on
Ġg o
Ġt hi
f ore
i f
Ġb r
Ġ D
at ion
Ġs p
Ġk ing
es s
u d
Ġw ere
Ġo ut
s al
l y
t er
Ġ N
i m
Ġd ay
u m
Ġ 4
ra el
Ġa l
Ġu p
Ġp e
ĠIs rael
Ġ H
Ġb y
r on
p le
i ght
Ġwhe n
sal m
Ġsa y
an s
Ġd e
ĠP salm
Ġthi s
Ġb ut
Ġw e
Ġ B
Ġa g
es t
ĠC h
Ġh ou
re d
Ġc hi
a b
i ve
Ġag ain
i el
Ġha s
re n
e ar
Ġd o
t o
Ġhe ar
Ġhe r
Ġpe o
a c
a ke
Ġpeo ple
p t
u l
Ġc ame
Ġhou se
Ġ v
Ġof f
a k
a ll
Ġha d
Ġchi ld
Ġha nd
Ġin to
as t
â Ģ
âĢ Ļ
Ġ K
at her
e k
e v
s o
m iah
n t
o k
Ġcom e
s el
Ġon e
Ġa m
ĠS am
n ess
Ġchild ren
Ġc on
ron ic
ronic les
on e
Ġbe fore
F or
Ġe ver
um b
Ġl and
ou s
ĠCh ronicles
ot her
u el
a ce
o s
ho ld
a us
Ġm en
Ġ r
it y
Ġal so
Ġagain st
c k
Ġs h
ĠSam uel
Ġa f
Ġa t
Ġk n
Ġ R
Ġl i
as s
ĠE z
at t
Ġ 5
Ġa b
ou ld
e m
ow n
v es
Ġn o
Ġ us
aus e
ĠJ ud
en es
Ġp l
ĠK ings
ou r
ĠG enes
ĠGenes is
Ġs o
ĠJ ere
Ġn e
e ll
a iah
ĠJere miah
Ġ T
Ġw or
Ġs er
ad e
ur n
Ġ j
i es
B ut
Ġs he
o l
Ġf ather
ou nd
Ġt w
Ġw ho
Ġe ar
on g
Ġm ade
Ġ 7
Ġw ent
Ġ 6
re at
ar d
e p
is e
Ġsay ing
Ġ ri
The n
is t
Ġe ven
a v
an t
Ġp r
Ġp ro
ha n
re s
ĠIs aiah
g e
Ġs u
ou t
ou ght
Ġ O
umb ers
Ġ1 1
ĠN umbers
i ll
Ġ1 0
ĠEz ek
ĠEzek iel
Ġo r
Ġbe c
Ġo ver
c c
Ġ ho
ere d
Ġ And
u ke
i ce
Ġw ord
b s
ĠE x
ĠL ev
Ġoff er
Ġl o
Ġ 8
od us
ĠEx odus
Ġser v
m ent
Ġ 9
Ġo ur
at h
Ġcom m
Ġever y
Ġt r
Ġl et
Ġaf ter
t ed
h n
Ġg reat
Ġth ings
ĠLev it
ĠL uke
Ġ Z
e c
Ġm ay
ĠJo b
ĠJo hn
h u
Ġd own
1 0
Ġkn ow
o od
p p
ĠM att
Ġ if
1 1
Ġd id
he w
Ġson s
1 2
c ts
in e
ĠMatt hew
w ay
av id
o f
1 3
a le
Ġp ass
ĠL ord
ĠD avid
ot h
Ġm ake
ĠJ er
ou nt
Ġp ri
or n
1 4
Ġear th
id e
he s
ĠA cts
Ġbec ause
ar k
e b
Ġthe se
ĠJ es
Ġw h
l i
1 5
Ġ1 4
Ġ W
Ġ1 3
ou gh
ĠD e
er on
v ed
Ġ1 2
om y
ut eron
Ġbr other
ĠDe uteron
ĠDeuteron omy
1 6
Ġn ame
Ġl a
sel f
he d
ĠJo s
q u
Ġc o
it her
Ġp ut
ĠP ro
Ġa cc
g es
1 7
re e
ver bs
nd er
hu a
Ġy ear
Ġs w
Ġan y
ĠPro verbs
Ġs in
Ġf i
Ġri ght
Ġcomm and
Ġa way
Ġthere of
Ġam ong
Ġn or
Ġsh ould
ĠJes us
u ght
Ġfor th
in t
Ġd i
Ġwhe re
w ard
Ġw ay
a ve
Ġbr ought
1 8
Ġwor k
ĠJos hua
Y ou
Ġday s
Ġc ity
Ġc all
t her
os es
ic us
ĠLevit icus
Ġ The
Ġe at
ĠM oses
Ġtw o
r y
a ven
Ġgo od
Ġhear t
ation s
1 9
Ġw at
i ans
Ġsp o
Ġb u
Ġ1 5
ale m
ĠA b
e f
us alem
ĠJer usalem
ĠJud ah
2 0
Ġt im
Ġm ight
Ġg ive
Ġthere fore
Ġse e
ord ing
Ġthe n
Ġw hat
Ġne ither
n g
Ġb re
i g
2 1
an ts
ĠJ e
Ġacc ording
a ught
Ġn ow
u nd
Ġa r
g y
Ġbe hold
Ġto ok
v il
us t
Ġwh om
Ġb l
Ġj ud
Ġ1 6
l ed
an ce
Ġli ke
d om
Ġm ore
p h
gy pt
w n
Ġhe aven
w ell
ĠE gypt
Ġs et
Ġ1 8
Ġpl ace
Ġd well
Ġw r
les s
Ġt ake
Ġoffer ing
Ġl if
Ġd el
2 2
Ġ2 2
ĠA m
Ġsp e
u b
Ġf e
Ġbr ing
it t
ĠC or
Ġs ou
Ġs ent
is h
o ice
Ġg l
hi ans
int hians
ĠCor inthians
at e
Ġu nder
Ġth r
Ġ1 9
ĠM ark
s w
Ġ2 1
Ġc ha
Ġp er
Ġg i
Ġs m
Ġan sw
he n
Ġpro p
Ġ2 0
Ġf o
2 3
om e
ri b
Ġhear d
Ġre m
sel ves
Ġf ir
Ġu n
er n
Ġ en
Ġd es
Ġ ro
Ġe y
w s
u n
Ġab out
Ġh und
Ġcall ed
Ġhund red
i nd
t y
u e
Ġk e
ig n
Ġtim e
H e
Ġp re
Ġ2 3
Ġe vil
a ul
Ġt han
ĠJud ges
Ġo wn
Ġw om
Ġbe g
2 4
Ġthr ough
Ġfir st
a pt
u re
ri ed
e ous
c t
Ġe x
e hold
Ġspe ak
Ġspo ke
it es
Ġan g
Ġf l
Ġt urn
Ġ1 7
g et
r ist
Ġs c
in k
ir it
N ow
Ġth ous
Ġthous and
a re
Ġla w
2 5
a g
Ġm ount
Ġd aught
e ver
Ġ2 4
Ġd is
ĠCh rist
Ġth ree
Ġsa w
o b
Ġd one
Ġy et
it e
ck ed
Ġfi re
Ġpri est
Ġd est
it ies
Ġbrother s
The re
Ġright eous
Ġfather s
Ġword s
Ġo ther
Ġth ing
Ġyear s
Ġsou l
el s
Ġman y
m e
2 6
Ġc l
Ġgl or
ha m
Ġd r
Ġpr ay
Ġhim self
ho se
Ġb ur
Ġc ast
Ġf a
get her
Ġf our
Ġs l
Ġ2 6
ĠA s
ĠD an
Ġprop he
c i
2 7
Ġv oice
Ġf ound
Ġserv ant
Ġey es
p ar
al k
Ġt ab
Ġg ave
Ġgi ven
Ġ2 5
Ġe nd
Ġansw ered
Ġho st
S o
f e
Ġwi cked
Ġgo ld
a ch
Ġjud g
Ġc apt
Ġto gether
Ġhe ad
Ġw ould
h us
Ġserv ants
er c
Ġb o
v ing
Ġho ly
t ar
ĠP hi
Ġbre ad
2 8
ro y
Ġbl ood
Ġl e
Ġhand s
res s
Ġre t
Ġdest roy
i ed
Ġse ven
Ġa pp
ha b
Ġ2 7
Ġan other
Ġlif e
en ce
ow ed
Ġthi r
Ġc an
Ġc ities
Ġm ou
id d
Ġcommand ed
Ġt hose
ĠR om
Ġsw ord
ĠH eb
Ġke ep
t e
Ġt re
Ġs ide
ain s
ĠN e
Ġmou th
hi s
Ġp ar
ĠRom ans
Ġret urn
or s
ĠDan iel
a i
Ġt ak
ment s
Ġal tar
2 9
le an
Ġf am
o ck
h y
a p
Ġ2 8
r u
Ġf les
Ġfles h
m b
Ġm erc
Ġpe ace
Ġt rib
om on
ol omon
Ġhi gh
Ġwith out
Ġ ra
ĠS olomon
e y
ĠNe he
u ll
Ġf ace
Ġh ow
Ġp o
Ġg at
ĠS aul
Ġbe t
el ation
ĠNehe miah
r ow
os s
Ġ ent
es ts
There fore
Ġsp irit
ul t
Ġthem selves
Ġw alk
a z
Ġwi fe
Ġre p
f ul
u ch
ĠR ev
ĠRev elation
Ġ F
Ġwat er
or t
ri f
Ġse a
Ġglor y
Ġdr ink
Ġpr in
ĠP ha
Ġking dom
iel d
Ġpri ests
3 0
it s
Ġg ra
Ġo ld
idd le
Ġre st
Ġf ear
p en
ut h
c es
t ain
Ġb less
Ġm iddle
Ġen em
ĠJ ac
Ġre ce
ĠJac ob
g re
Ġf all
Ġde ath
et h
3 1
ent y
Ġde ad
Ġc ar
Ġs il
Ġ2 9
Ġcon gre
Ġcongre g
r an
nt il
Ġbur nt
Ġst and
Ġb ro
et er
Ġcongreg ation
Ġun c
Ġm ult
o se
Ġwom an
Ġre ign
ern ac
i ver
Ġc ount
Ġfa ith
Ġtab ernac
ar on
Ġ3 1
Ġb oth
is ed
Ġl ight
a red
Ġl ef
Ġcon s
ĠHeb re
Ġlef t
k en
n er
Ġf ield
ĠA aron
Ġ You
Ġwi ld
Ġu ntil
Ġyou ng
p s
Ġto ward
Ġn one
Ġde par
Ġlo ok
f f
Ġs le
ĠB ehold
o ve
Ġf ive
Ġst ood
itt en
e en
o nd
Ġg r
i le
Ġtak en
Ġsa c
Ġn ations
Ġsac rif
i qu
l on
Ġs ight
Ġg od
Ġ3 0
Ġin iqu
Ġf ell
Ġc ut
Ġsa me
Ġbe en
ac es
Ġ im
Ġp res
ow er
Ġk ings
3 2
e z
Ġc ause
is hed
i b
Ġm other
Ġm uch
Ġin c
Ġtabernac le
Ġn ight
as e
The y
att le
in es
Ġdaught er
ĠHebre ws
re t
ion s
Ġ3 2
Ġcom p
ren g
ill ed
Ġdi e
h ing
o h
Ġm o
i a
Ġ el
Ġt em
Ġr ound
Ġs i
Ġfr u
Ġst reng
ron g
Ġsil ver
Ġbe li
ĠP eter
c hes
ver y
ĠS he
Ġw ar
Ġb urn
Ġfam il
o in
Ġha r
Ġlo ve
our n
Ġw a
Ġm on
st and
Ġn ear
ar y
Ġin her
Ġmon th
Ġinher it
I f
Ġn umb
Ġdel iver
ot e
ĠEz ra
c hed
er ness
Ġrighteous ness
Ġme at
Ġwild erness
3 3
O D
ou d
Ġf ull
Ġcon t
Ġdel ive
as ts
I n
ar s
ĠG OD
Ġco ven
ent h
Ġhost s
y lon
ĠB ab
Ġc ou
ver s
Ġar m
Ġcoven ant
Ġo pen
Ġse ek
ĠBab ylon
he red
Ġre j
Ġchi ef
ĠPhi l
y ri
ac k
Ġjudg ment
Ġdelive red
Ġwor ld
Ġtw enty
Ġwat ers
W hen
Ġl ord
Ġ3 3
ĠPhil ist
Ġth us
Ġst ran
p e
Ġ qu
Ġsp ok
Ġp le
ic k
Ġs an
Ġturn ed
Ġspok en
on es
Ġse ed
a ge
Ġp oss
Ġmight y
Ġfo ll
Ġsh ow
Ġwho se
ec t
Ġin hab
ri ah
i ved
Ġto ld
it ud
Ġcom es
Ġdo es
Ġcon c
Ġinhab it
Ġla id
b er
Ġbe ing
Ġsi x
Ġse c
Ġiniqu ity
Ġse en
Ġst rong
Ġwr itten
s p
Ġp ower
Ġg ate
Ġdis ci
ĠPha ra
l ic
Ġwork s
Ġsan ct
3 4
Ġwe ll
Ġmerc y
e w
ĠW hat
ĠF ather
Ġt e
Ġa d
ou b
Ġp ra
Ġl am
ĠE li
Ġpar t
Ġposs ess
ĠPhara oh
c l
Ġf if
Ġ3 4
Ġprin ces
Ġenem ies
Ġk ind
Ġgat hered
Ġmult itud
T hat
p les
Ġoffer ings
ĠLevit es
Ġl ay
d en
Ġl ong
Ġs at
Ġunder stand
i ld
am es
Ġnot hing
et s
Ġsu b
Ġt en
Ġc ub
Ġ very
ĠB en
s es
Ġw all
ow s
Ġfe et
in s
ha riah
if ied
a il
Ġ3 6
ĠPhilist ines
m on
Ġp ur
Ġg en
ĠJe ws
B ehold
Ġsu re
Ġdaught ers
Ġhi d
ra ham
Ġwho le
ĠZ ec
ĠZec hariah
ĠJo se
w een
Ġw ine
Ġl ive
ĠAb raham
Ġbet ween
ĠJose ph
Ġw it
Ġprophe t
3 5
Ġw ise
Ġsa l
Ġs ome
Ġw is
Ġse nd
Ġsu ch
itt le
Ġfru it
Ġdisci ples
er tain
ĠS on
ern ing
Ġmultitud e
Ġy es
om in
ĠT im
Ġgod s
e ch
Ġb es
Ġhe re
ĠJe ho
Ġtrib e
L et
W ho
o ver
Ġstreng th
T hus
Ġo b
ĠG al
ist en
Ġprophe ts
Ġinherit ance
Ġl ittle
il t
W hy
is ter
ent s
Ġbe ar
Ġtr uth
Ġc ur
Ġang er
Ġunc lean
he m
Ġas k
orn ing
Ġdwell ed
Ġc ertain
Ġthere in
Ġar k
Ġsm ote
Ġd re
Ġbu ild
Ġgen er
i re
Ġd ark
Ġm orning
or row
Ġcon f
Ġwh y
Ġex ce
oin ted
Ġconc erning
ĠE l
ab le
Ġbeg at
g ed
hi p
st her
Ġde v
ast es
Ġwis dom
i astes
u res
ĠE cc
les iastes
Ġaf f
ĠEcc lesiastes
Ġ hold
Ġg ar
ĠE sther
Ġkn own
3 6
o y
Ġon ly
Ġab ove
Ġpl aces
Ġbu ilt
Ġcou n
Ġsa ve
Ġcha r
g er
Ġc ho
Ġ ut
Ġrem em
n ing
Ġ3 7
Ġdepar ted
A s
Ġp it
Ġyour self
if y
Ġsacrif ice
Ġc ry
ĠJ on
one y
Ġ hat
Ġp i
Ġg one
Ġ3 5
Ġcub its
a id
e nd
o ved
Ġb od
el y
ut e
Ġ est
Ġl est
ĠM o
Ġser ve
Ġtw el
Ġc am
ĠR e
ĠT hus
Ġm in
Ġf ar
on s
Ġl isten
ec ause
Ġway s
ri ght
Ġb ack
Ġper f
Ġpo or
Ġspo il
Ġdes ol
Ġtem ple
Ġple as
Ġinhabit ants
3 7
b b
Ġo il
Ġc our
ĠG o
ĠE ph
oth y
ĠTim othy
i gh
as ter
Ġtr oub
Ġdi v
Ġt ree
Ġb ord
ot s
ĠH ose
Ġv ess
Ġj oy
Ġshe ep
Ġdi ed
Ġwr ath
ĠHose a
Ġt ell
Ġc ried
Ġang el
Ġel d
Ġpra ise
ra id
ĠM ic
Ġ4 0
Ġwor s
g ers
Ġb ore
at ter
ĠJ ord
Ġ3 8
Ġst one
Ġsle w
ĠJord an
Ġe ast
ay ed
Ġwi nd
Ġse v
Ġman ner
Ġfo ol
Ġbo ok
Ġsure ly
a an
at han
Ġsin s
Ġfi nd
Ġgr ound
Ġh on
Ġcont in
Y our
he l
en se
am ent
ĠE p
Ġdo or
Ġaf raid
yri a
i z
ra im
Ġkn ew
Ġtr ans
Ġcl ot
n ed
Ġb orn
ĠL et
Ġyour selves
im on
Ġv is
led ge
Ġfl ock
Ġent er
Ġwit ness
ĠMo ab
ek iah
Ġbro ken
j am
Ġt est
Ġv ine
Ġjud ge
ct ion
Ġc orn
Ġhe l
3 8
n ot
Ġwhi le
Ġsu ff
Ġtwel ve
Ġth ron
Ġst at
Ġbless ed
i v
Ġhe at
ot t
Ġre d
Ġj ust
Ġwom en
Ġcan not
Ġreturn ed
z ar
Ġwith in
Ġre ad
ĠM an
Ġpro v
Ġsl ain
Ġthir d
Ġt ill
m ed
n e
Ġbe ast
Ġcount ry
Ġ U
Ġb ow
ĠS p
Ġre b
Ġr ul
Ġnumb er
ĠBen jam
Ġut ter
T o
g ress
Ġst ones
ĠT his
Ġri ver
Ġbeg an
Ġaff lic
Ġeld ers
Ġtrans gress
Ġth ough
ĠC an
ĠI f
Ġfor g
ĠA r
Ġ4 1
Ġcommand ment
Ġcha ri
Ġpre p
Ġmount ains
ĠEp hes
Ġg ather
ic es
Ġst e
Ġ11 9
Ġbre ak
Ġreign ed
Ġthron e
ha z
Ġab omin
Ġsu n
Ġke pt
Ġbod y
re ad
Ġm ar
Ġrep ro
Ġfamil ies
a al
Ġa ro
ha d
Ġha ving
Ġaro se
j ah
o am
Ġb attle
Ġthir ty
ĠEph raim
ĠSp irit
Ġto ng
Ġsa bb
Ġknow ledge
Ġcommand ments
Ġrej oice
Ġsabb ath
Ġc ould
Ġc lean
Ġin st
ent i
ak es
Ġr am
Ġrece ive
Ġsec ond
Ġhel p
3 9
a ges
h ur
s ed
Ġs ing
Ġs ought
Ġbeli ev
all ey
M y
a ac
ir d
Ġv alley
Ġdestroy ed
e em
Ġo x
is on
Ġde f
Ġcomm it
ĠW hy
Ġsou th
Ġcoun sel
e ve
v ation
Ġme as
Ġor d
Ġ3 9
Ġbu ll
Ġcons um
Ġhon or
ĠBenjam in
ha r
ĠCan aan
o st
ĠI t
Ġre c
ĠB eth
Ġpass ed
Ġthrough out
Ġdark ness
Ġf illed
Ġcl oud
Ġt ou
Ġs k
as on
al ed
ĠH o
Ġli e
Ġab le
Ġansw er
Ġrece ived
4 0
Ġne igh
Ġunderstand ing
Ġbe l
Ġlif ted
Ġsal vation
Ġbord er
ĠEphes ians
o ke
Ġs ign
Ġre f
ĠAs s
Ġtre es
Ġcontin u
Ġneigh b
Ġe ight
ĠE s
Ġnor th
ĠGal at
ha h
Ġbe asts
Ġk ill
al s
ĠS ha
Ġwhe ther
Ġne w
Ġwho ever
Ġtim es
Ġfif ty
W hi
in ess
hi t
on ians
Ġp ort
ĠL ament
Ġde cl
ĠAm os
Ġvess els
ĠLament ations
Ġ (
he re
Ġc attle
Ġfor ty
ir c
Ġd ra
Ġwhere in
Ġinc re
Ġbull ock
Ġf at
ĠH e
Ġde ce
Ġear s
o p
ĠJ ames
ĠH ez
ĠZ ion
Ġheat hen
ĠGalat ians
H ow
T his
l f
Ġm oney
The se
Ġ4 4
Ġco ve
b and
Ġf led
ĠP aul
Ġh us
irc um
O f
Ġp ers
as se
Ġg u
ĠA d
ĠN eb
Ġli ving
Ġrem ain
Ġwa it
Ġdesol ate
asse h
A ll
Ġf ast
ut es
Ġst ri
Ġgra ce
ircum c
s sal
Ġsa ke
pp ed
ĠThe ssal
Ġcar ried
ile ad
Ġbeli eve
Ġhus band
Ġ id
Ġm ind
Ġn ation
ore over
Ġgl ad
Ġgat es
ĠMan asseh
ĠHo ly
a ves
Ġp ill
Ġl ab
ĠJo ab
Ġoff ered
Ġprop hes
Ġlook ed
Ġ es
Ġhi ll
ĠPhi li
4 1
M oreover
i red
Ġw ood
Ġm ourn
ĠH am
ab l
Ġsl ay
Ġsanct u
Ġ4 8
ĠW e
Ġmo st
ou red
Ġm ust
Ġc aus
ĠS o
Ġth ought
Ġshe k
Ġcapt ain
Ġcomp an
Ġest abl
Ġcam p
ĠThessal onians
i p
Ġ Ġ
Ġfor s
Ġr ise
m en
um p
Ġsh owed
Ġcha mb
Ġthan k
Ġbeg in
Ġopen ed
Ġc r
Ġha lf
Ġme et
Ġmount ain
Ġsanctu ary
in ed
at s
Ġgo es
ĠB e
Ġhou ses
Ġpro f
Ġbec ome
Ġtr ust
Ġwhat ever
Ġcomp ass
iv ity
Ġneighb or
Ġg ri
ĠN a
Ġfo ot
Ġro ck
ĠMic ah
4 2
i an
ĠS hi
Ġ4 2
ĠSam ar
Ġheaven s
es h
ĠIs aac
Ġserv ice
Ġte ach
Ġstat utes
Ġwi ves
Ġst re
Ġco ver
Ġsw e
Ġfe ast
Ġdes p
Ġro se
Ġstran ger
Ġred eem
g s
s u
Ġm aster
as ed
ĠN o
Ġne ed
Ġpr om
Ġpres ent
Ġid ol
w ise
Ġp al
ĠG enti
Ġsp read
ak ed
ard s
Ġho pe
Ġinc ense
Ġtong ue
ĠGenti les
o c
Ġo pp
Ġre s
il ed
ĠB aal
Ġpl ag
Ġnumb ered
b orn
r ise
s en
ĠAm mon
Ġcapt ivity
ru ction
Ġes c
Ġm akes
Ġbr ass
orn s
Ġgi ves
Ġjudg ments
Ġapp ointed
Ġfoll ow
ĠHez ekiah
4 3
u k
Ġs ick
Ġpr ison
ec es
Ġwicked ness
Ġtre as
Ġpi eces
Ġcour t
Ġafflic t
Ġli ves
e e
m er
Ġm ess
Ġf le
Ġcom f
ham ed
Ġwalk ed
Ġfamil y
Ġbes ide
Ġdre am
Ġcho sen
ĠSamar ia
Ġesc ap
u p
as h
se mb
Ġh or
Ġas hamed
Ġst ra
Ġst ret
Ġsc rib
Ġdepar t
Whi ch
Ġper ish
ĠJon athan
l ing
n ow
v ail
Ġs ound
Ġf ore
Ġde al
Ġso ld
less ed
Ġperf ect
Ġsev enth
B e
Y et
Ġt er
Ġli ps
ĠW ho
Ġsin ned
Ġfirst born
Ġcapt ains
Ġask ed
Ġste ad
s ha
Ġd ri
se c
Ġmy self
Ġ4 9
all y
Ġtr ump
Ġsm ite
Ġgener ations
ĠAss yria
Ġopp ress
Ġf ur
Ġc hur
ĠS ong
Ġr is
Ġey e
d s
Ġs ister
Ġc e
Ġc or
Ġr od
Ġpres ence
Ġbeliev ed
Ġswe et
I t
o int
ur bs
Ġde vil
Ġsh ut
Ġsu pp
Ġsub urbs
B ecause
e al
ce pt
ast ing
Ġremem b
Ġvine y
l s
o e
u c
Ġ ind
Ġas s
Ġhear ts
Ġv ain
Ġab und
Ġtrib es
Ġob ey
Ġchari ots
Ġmess en
p hat
p ass
t he
Ġs it
Ġb ound
Ġf ight
Ġf ine
Ġg if
ut ed
Ġne ver
Ġdes ire
ĠAs a
Ġle ave
4 4
Ġt res
Ġa p
Ġs orrow
Ġh ors
Ġsp r
ci ous
Ġtest imon
ĠPhili pp
Ġhor se
Ġtres pass
Ġhors es
A l
Y es
a u
e on
i at
ĠG ilead
Ġ4 6
ul f
Ġli es
Ġhead s
Ġapp ear
Ġenem y
Ġfle e
i ous
i ves
Ġ ve
Ġs hi
Ġb ed
ed ing
le m
ho st
ĠB al
Ġpray er
Ġfoll owed
Ġmin ister
Ġd ust
ĠA hi
Ġas semb
sal om
Ġal one
Ġbec ame
Ġwors hip
Ġcove red
c hi
Ġl ion
ri end
Ġbr an
Ġ4 3
Ġj ourn
ĠAb salom
Ġent ered
az ar
Ġgener ation
Ġchar ge
Ġtroub le
Ġbel oved
Ġjourn ey
c her
f ter
u ng
Ġs ore
Ġf ulf
ĠB ar
Ġ5 0
Ġ5 1
ob oam
ott en
in en
el ech
Ġre ward
ĠB et
Ġv an
Ġr un
Ġeat en
Ġbu ried
Ġra in
Ġbet ter
Ġbegin ning
ĠPhilipp ians
Ġa c
Ġl inen
Ġsa ved
ĠE dom
Ġgo sp
Ġknow s
ĠJer oboam
Ġpossess ion
Ġsuff er
Ġgosp el
i ch
Ġg ird
ĠG ib
ri es
Ġst ill
Ġgar ments
Ġremem ber
4 5
t hen
Ġ For
Ġm orrow
en s
is ha
Ġn aked
ĠA n
ĠB ut
Ġv i
Ġclot hes
Ġprep ared
Ġox en
Al so
y ing
Ġf riend
en ed
Ġst ayed
Ġr u
Ġtr u
Ġwork ed
Ġbur den
Ġim age
Ġutter ly
Ġthank s
Ġidol s
b a
Ġs ho
Ġb apt
Ġsha me
ĠA l
Ġcom ing
Ġ4 5
Ġlo ved
Ġprin ce
ĠPha rise
Ġread y
Ġport ion
Ġtru ly
Ġ ir
Ġ Then
Ġt ent
Ġo ught
Ġb ones
Ġp ure
Ġg re
Ġan ointed
Ġpro sp
Ġsm all
Ġrep ent
Ġcur se
ĠEs au
Ġt ra
in ts
Ġm aid
Ġf al
Ġn ames
ĠC ol
Ġgo ats
Ġthi ther
Ġup right
ĠR uth
Ġsee ing
ĠEgypt ians
Ġlif t
Ġfaith ful
Ġsle ep
Ġburn ed
ĠJeho i
Ġexce eding
Ġplag ue
Ġir on
4 6
l asting
ĠC ome
Ġhou r
Ġever lasting
ound ed
ĠThe re
Ġex al
the less
Ġa st
Ġto p
Ġc her
Ġc han
el ah
Ġsa ints
Ġse par
Ġwe ep
Ġri ches
ĠZ eb
way s
li nd
Ġdis c
Ġfam ine
Ġmult ip
Ġconsum ed
Ġshek els
N e
a im
Ġw est
Ġb lind
Ġc reat
ĠM y
Ġsc ore
oss ians
ĠCol ossians
a el
h on
r ay
er ve
at ed
ĠA hab
ĠH an
Ġang els
Ġcar ry
ile e
Ġcaus ed
c us
p her
Ġha st
ĠG ad
Ġmin ist
Ne ither
n ant
o g
u es
Ġ ì
or m
Ġre qu
Ġh ur
Ġgo ing
Ġwat ch
Ġrem nant
Ġhat e
Ġcommit ted
Ġcher ub
u red
Ġp ast
al i
ĠC ha
ĠJo el
han iah
ub en
Ġrem oved
Ġlab or
Ġgri ev
uc had
Ġf ow
Ġf av
Ġl ast
Ġg et
ĠG host
ver n
th y
ure ly
Ġdest ruction
Ġbo nd
Ġwors hi
Ġrepro ach
ĠCha ld
Ġc al
ar le
ho b
Ġre ason
Ġwas h
Ġgo vern
ĠB ecause
Ġbread th
ru pt
Ġrej o
Ġpill ars
ĠChald e
p l
id ed
ic ed
Ġal ive
Ġno ise
Ġpl ant
te en
Ġsec ret
Ġdev our
ĠRe uben
4 7
c ed
r om
r am
Ġc le
is ion
ĠM a
ac hi
Ġv ill
Ġpl ain
ĠT ake
ĠAm or
Ġincre ase
ĠPharise es
Ġt ar
Ġw id
Ġw ond
Ġin ter
Ġha ng
id er
ro s
ac hed
Ġear ly
Ġgreat ly
ru ly
Ġdre w
Ġgar ment
Ġrul er
ĠNeb uchad
Ġcompan y
e ah
es us
Ġin qu
Ġp oured
il k
Ġ4 7
os ed
Ġfa il
Ġra ised
Ġsacrif ices
Ġdecl are
Ġcr own
sha phat
J esus
h or
z z
Ġs n
Ġm ur
Ġha ir
ĠE le
ĠO b
Ġfe ed
Ġfour th
Ġvan ity
O n
p er
x ed
ll y
Ġre g
Ġal ways
Ġri ch
Ġsw ore
ĠJe z
Ġdel ight
Ġdr un
Ġfool ish
Ġvis it
b it
p ed
Ġ ed
Ġc ircumc
en g
is es
at es
ar i
Ġbe at
Ġsha d
ce ived
ĠH ow
Ġat one
Ġj oin
Ġwr ite
Ġarm y
Ġhid e
Ġpit ched
Ġlisten ed
Ġap ost
Ġfulf illed
Ġac cept
E ven
S ay
r ing
Ġt aught
Ġt alk
Ġt enth
Ġl eng
ĠM al
Ġde ep
Ġsc att
Ġlam bs
ĠJeho shaphat
Ġcontinu ally
Ġatone ment
W hat
Ġb as
Ġm atter
Ġhe ed
ro ad
Ġab road
Ġne ck
Ġshe pher
ĠThe y
Ġflock s
Ġprophes y
Ġstra ight
Ġvi ol
4 8
it ter
Ġhe aled
an k
Ġha bit
Ġse ar
Ġbr ings
ĠH ag
ac her
ak en
Ġtr ue
Ġsm ell
Ġle ad
Ġfall en
Ġstreng then
ĠShe m
Ġvis ion
Ġreb ell
Ġsk in
Ġcor rupt
Ġmessen gers
H is
v el
Ġs y
Ġs hip
Ġb owed
Ġf ree
Ġp un
Ġl ed
id es
ce nd
Ġlike wise
Ġsoul s
Ġapp e
ĠHeb ron
Ġtre mb
Ġkind ness
Ġrul ers
Ġestabl ished
e ed
v ent
Ġw o
Ġd am
Ġn am
as so
Ġon es
ore d
Ġwhi te
ĠR am
Ġab ide
ĠThe se
ĠAm en
Ġfl our
Ġstran gers
Ġlam b
Ġram s
hit es
Ġchur ch
Ġbapt iz
Ġfal se
Ġleng th
a ut
i ent
Ġw ings
Ġm is
Ġp asso
Ġl ot
ĠL eb
ĠS yri
ĠA haz
ĠIs h
Ġv ir
Ġri vers
Ġgreat er
ĠZ er
Ġar ise
Ġpre ach
Ġtab le
his h
Ġmo ved
Ġstran ge
Ġabomin ation
Ġprosp er
Ġshad ow
A fter
b y
p ul
Ġc ed
Ġd en
ĠS elah
ic ation
ĠN ah
Ġserv ed
aven ed
Ġpre cious
row s
pe ak
Ġabomin ations
Ġfors aken
Ġafflict ion
Ġcomf ort
Ġtestimon y
Ġbran ches
Ġvill ages
Ġpasso ver
4 9
w ith
hi nd
ar m
Ġg ro
ĠS yria
Ġth ink
if ul
ĠW here
Ġfe ared
Ġen c
Ġspeak s
ag og
Ġtak es
Ġfru its
ĠShe c
Ġfav or
he ld
Ġf aces
Ġyou th
Ġd ist
Ġbe hind
Ġsa ck
Ġfor b
ri m
Ġso j
ath s
Ġper sec
Ġpre y
Ġbro ke
Ġclot hed
ĠAmor ites
ĠEle azar
ĠLeb an
T ake
m an
t ers
Ġo bs
Ġb itter
Ġd ry
el i
Ġas ide
im elech
ĠH er
Ġhouse hold
ak k
Ġ7 8
ĠLev i
Ġco nd
ru c
Ġgr ass
ĠGal ilee
Ġprep are
Ġdef iled
Ġstret ched
Ġinter p
W here
a am
m ost
p es
r s
Ġ Your
Ġc up
Ġp our
Ġbe aut
ĠM es
Ġwe pt
Ġdo ors
Ġwom b
Ġim ages
ĠU zz
Ġtou ch
Ġchamb er
Ġscatt ered
ĠLeban on
e ech
i ence
s ue
Ġc and
Ġhe al
Ġn et
Ġse pul
Ġde c
ear s
Ġoff ic
ĠT hat
ĠZ ep
ever theless
Ġtem pt
Ġad vers
Ġbes eech
Ġworshi pped
Ġappe ared
Ġsepul cher
B y
B lessed
n ce
n agog
hat h
Ġk id
Ġk illed
ain t
ĠK ing
Ġr an
Ġwhere of
Ġgra ve
ĠEli jah
Ġtroub led
Ġdiv ided
Ġmeas ure
Ġref us
Ġdra w
Ġfur y
Ġviney ard
Ġind eed
Ġsy nagog
H ear
I s
T h
u al
Ġm ag
an iah
Ġl ep
Ġwor thy
Ġafter ward
Ġjud ges
Ġfe w
Ġpre vail
Ġpo ll
Ġdece it
Ġscrib es
Ġabund ance
Ġshi el
5 0
Ġt al
Ġto w
Ġl ow
id ian
ĠS imon
Ġre ve
Ġh orns
ĠM idian
Ġwe ight
ĠB as
ak im
Ġso on
Ġlo ves
Ġpar ts
ĠJon ah
med iat
ĠĠ ĠĠ
ĠBet hel
Ġru le
mediat ely
b e
n a
Ġt ents
Ġa cts
ĠS ar
Ġre nt
ĠM er
Ġthere on
ĠAb imelech
Ġun le
Ġgold en
ull y
Ġkind led
Ġwall s
ĠSha ll
Ġchamb ers
Ġhur t
ĠChalde ans
N evertheless
W e
er y
Ġhe ld
Ġn in
Ġg ard
ad ab
Ġh oney
Ġh ung
ain ed
Ġse em
ven ge
Ġst ay
Ġwe ak
ĠT y
Ġsin ce
Ġpray ed
Ġbless ing
Ġim mediately
Ġhill s
Ġprof it
Ġstre ets
Ġtrump et
Ġce ase
Ġast on
Ġvir g
ĠShec hem
Ġsoj ourn
h om
t im
ì Ŀ
Ġb and
Ġb lem
hi te
Ġf ought
Ġhe ight
us h
ĠA re
Ġwas te
Ġan oint
Ġas ses
ĠH ab
ĠH az
Ġsh out
ĠJer ich
Ġex ec
Ġother s
Ġhar d
ĠRe hob
Ġchari ot
eal ous
Ġexal ted
Ġcherub im
Ġapost les
ĠJerich o
, )
O ne
f or
l iness
r ance
v est
x t
ha l
Ġf ill
Ġc re
Ġd ail
Ġd omin
Ġfor get
ĠA z
Ġlo ins
ĠAb ner
Ġsm itten
Ġfl ood
Ġjudg ed
Ġra ise
Ġhar vest
Ġredeem ed
ĠZep haniah
Ġdail y
n ers
Ġb ott
it us
ed ekiah
Ġd il
Ġd oub
Ġhe av
Ġp u
is hes
Ġl oud
am as
ad a
il y
Ġr ather
ec ai
Ġco ast
ph t
Ġwr ote
Ġthousand s
Ġpo st
Ġsanct ified
Ġsanct ify
Ġpur p
Ġpleas ed
ĠBal aam
Ġblem ish
Ġdil ig
5 1
g u
Ġo ath
er v
on ed
Ġhe ap
is f
Ġl ear
Ġh umb
Ġman if
ĠN ow
Ġup ward
ac hes
Ġeven ing
Ġpre ached
tain ed
Ġfif th
Ġsat isf
Ġpleas ure
Ġord er
Ġrec om
Ġtreas ures
Ġspr ink
ĠAl m
Ġpun ish
Ġbaptiz ed
ĠSyri ans
Ġdomin ion
amas cus
i jah
n ez
ha s
Ġf et
Ġy oke
it ut
ri pt
ĠM ord
Ġse at
ab b
ĠJe hu
Ġdwell ing
Ġspeak ing
ĠAs h
Ġend ures
Ġlam ent
Ġpur su
Ġexce ll
Ġhat ed
Ġsev enty
Ġdesp ised
Ġsupp lic
Ġcond em
ĠBas han
Ġunle avened
nez zar
ĠMord ecai
a e
a res
m aid
r um
re ction
Ġf in
Ġto wn
as p
im ent
Ġdo ct
ck ets
ĠT o
ĠT itus
ol t
ĠO ne
ĠZ edekiah
ĠW hen
ĠAb ram
aught er
Ġbl asp
Ġcapt ive
Ġthir st
Ġcons ider
Ġfield s
Ġmonth s
Ġexce pt
ĠEl isha
Ġinst rum
Ġgif t
Ġhorse men
Ġgovern or
Ġwid ow
Ġrecom pen
A t
N ot
n al
r us
Ġ er
Ġb ind
en ance
Ġe m
ir s
ĠS ee
Ġse ason
ĠD amascus
ight y
Ġli ved
Ġ5 2
Ġsw ear
Ġdwell s
ub b
rib le
te nd
Ġunc ircumc
Ġburn ing
Ġcho ose
Ġord in
Ġescap e
Ġescap ed
Ġhabit ation
ĠHag g
akk uk
Ġoffic ers
ĠHab akkuk
W ith
W oe
e ce
s erv
Ġm ing
Ġm ir
ed s
Ġin n
Ġp ub
at an
Ġon ce
Ġwill ing
Ġhand maid
Ġne xt
ep s
Ġbu y
te enth
Ġra iment
Ġkingdom s
Ġqu een
Ġpleas ant
Ġprov in
Ġmar vel
Ġgu ard
Ġthought s
Ġdeal t
Ġrememb ered
Ġnaked ness
Ġnam ed
Ġinterp ret
ĠAlm ighty
O r
S peak
c ass
l ah
n ah
Ġa w
er t
Ġm ark
Ġd ro
Ġl ad
Ġl ying
ĠE t
ĠS atan
Ġh y
il ate
Ġpr oud
Ġdi g
Ġeat s
Ġsl aughter
Ġtab les
Ġcar cass
Ġpers on
Ġpers ons
Ġestabl ish
Ġdri ve
ĠNebuchad nezzar
Ġed ge
ĠMal achi
Ġdoct r
Ġf ood
or ted
Ġl od
ĠL ab
ĠS e
ĠA ll
Ġre ap
ad iah
Ġth res
ĠM aster
ĠM iz
ĠC a
ĠH ar
ous ly
Ġpl u
Ġaltar s
Ġgra ven
Ġcount ries
Ġiniqu ities
Ġspoil ed
Ġforg ive
Ġconsum e
ĠCanaan ites
Ġfors ake
Ġdevil s
Ġfow ls
Ġwond ers
Say ing
Ġviol ence
Ġming led
ĠLab an
5 2
y ond
Ġb ra
Ġb ird
Ġm et
Ġm ine
Ġp at
Ġbe yond
od om
ĠG il
ent ly
st itut
The ir
les t
Ġse es
ter y
Ġso ckets
Ġj ealous
Ġfound ation
Ġstand ing
Ġbro ok
Ġfell ow
ez er
Ġad d
Ġafflic ted
Ġforg i
ĠBeth le
Ġscrib e
Ġmis chi
ĠHer od
c y
e ad
g ain
i et
i ke
k es
n on
p ent
Ġb reat
ar ies
Ġbe held
ĠI n
ĠJ a
ad ok
Ġh ome
ĠM ary
Ġst a
ĠD o
im eon
Ġshe d
Ġpro stitut
li ed
Ġsc ript
Ġcount enance
Who ever
Ġdev oured
Ġsign s
Ġremain ed
ĠShi me
Ġprom ise
Ġgif ts
Ġobs erve
Ġcand lest
Ġgard en
Ġmanif est
ĠBethle hem
Ġcandlest ick
; )
F rom
Ġb est
it ion
Ġl an
Ġwhe at
Ġhear s
ĠK o
Ġover th
Ġ8 9
Ġspe ech
itt ing
Ġdes ired
Ġsc arle
Ġfa ir
Ġend s
ĠEli as
Ġchar ged
ĠHam an
Ġprof an
ĠNo ah
Ġter rible
ĠJehoi ada
ĠZeb ul
Ġcle ans
ĠIsh m
Ġscarle t
H ave
R em
h t
l ation
he th
Ġb right
Ġm ilk
Ġto o
Ġp est
Ġe ph
al iah
ĠS imeon
ur sed
Ġst ars
ĠB lessed
Ġdo ings
Ġoff end
ĠK ir
Ġaf ar
Ġour selves
Ġlet ter
ĠZ adok
ale k
ĠJos iah
Ġco asts
Ġacc us
Ġsw all
Ġfi g
Ġgood ness
ĠAm alek
Ġcl oth
Ġwitness es
Ġtransgress ion
Ġmourn ing
ĠNa pht
Ġprom ised
Ġtrump ets
Ġris en
Ġrememb rance
Ġfriend s
Ġsear ch
Ġced ar
Ġdist ress
Ġtal ents
Ġinstrum ents
Ġdoctr ine
Ġeph od
Ġb ar
Ġm ale
Ġf urn
Ġn ine
id ings
Ġfor mer
Ġe ach
Ġit self
ĠS in
st ance
ĠA zar
Ġst aves
ĠR ac
Ġover l
Ġbl ue
Ġcha st
Ġro ot
Ġglor ified
ove red
Ġmo on
Ġqu ick
Ġte eth
Ġsub stance
Ġcam els
Ġperf orm
Ġsuff ered
Ġbel ong
Ġprophes ied
Ġhast e
Ġjoin ed
Ġdam sel
ĠRehob oam
Ġpu rif
Ġforgi ven
ĠIshm ael
Ġpest il
G o
S ee
í ķ
Ġs um
re z
re el
Ġy ield
Ġc ruc
Ġhe ll
an ces
Ġbe lly
Ġfor n
Ġfor ward
ĠS odom
Ġv al
ok ed
Ġli ken
em ber
Ġtr us
Ġbre ast
Ġwr oth
Ġex p
Ġtre ad
Ġpar able
Ġsle pt
Ġhar l
Ġconf ounded
Ġtou ched
Ġincre ased
Ġdri ven
Ġassemb ly
ĠJez reel
Ġdec ree
ĠHagg ai
Ġmischi ef
Ġlan gu
ĠNapht ali
ĠAzar iah
5 3
A gain
o ch
r ah
t ing
u ge
Ġs ides
Ġf ount
or ah
Ġin ward
Ġe ter
Ġth orns
ĠJo ash
Ġst umb
Ġsp ear
ĠH itt
ek ah
Ġpr ide
Ġpro cl
Ġ10 6
Ġsw orn
Ġsin ners
Ġthr ust
ib le
Ġad ul
Ġpur ple
Ġdiv ide
Ġtransgress ions
Ġcloud s
esh b
Ġcover ing
Ġpal ace
ĠGib eah
Ġmultip ly
Ġinqu ire
ĠNah um
Ġtow er
Ġblasp hem
Ġem pt
D o
f ully
u ri
u nder
Ġ ë
he ba
Ġw ant
er ce
it ing
en e
Ġp or
ĠG ed
ir m
Ġk is
ra ise
ĠP ilate
Ġwas hed
Ġson g
ĠN athan
ĠH ad
ĠH ear
ant ly
ĠJes se
Ġacc om
Ġglor ious
az iah
Ġhar den
Ġsix th
cl oth
Ġconf id
ĠAr ise
Ġref uge
Ġglad ness
Ġpill ar
Ġtra vail
Ġenc am
Ġsack cloth
Ġbeaut y
ĠCa es
ĠRac hel
Ġpestil ence
Ġeter nal
e el
i ving
l ive
r or
s ac
t le
Ġf ro
Ġc are
Ġin f
Ġl ions
ĠJ ep
ĠJ eb
am b
et y
ur rection
Ġse ll
Ġthi ck
if t
ĠN et
Ġoff ice
Ġcon ceived
Ġland s
ĠT ruly
hu n
Ġkeep s
Ġconf ess
Ġdesol ation
Ġvess el
Ġenter ing
Ġforg otten
Ġmeas ured
Ġve il
Ġtar ry
Ġsn are
Ġrecompen se
Ġinterpret ation
S ha
f t
i or
m or
Ġt idings
Ġto r
Ġp ress
ĠG ive
Ġyour s
ĠS urely
Ġ10 5
Ġcomm un
Ġsm oke
Ġfour s
ai red
Ġarm or
Ġqu iet
Ġcub it
Ġcur sed
Ġbeliev es
Ġbullock s
How ever
Ġviney ards
Ġmultip lied
Ġcreat ed
Ġrejo iced
Ġsynagog ue
Ġshiel d
Ġtown s
Ġinn oc
ĠJeb us
5 4
c ess
g al
s on
Ġs ud
Ġs itting
Ġo live
Ġb ought
er ved
Ġc he
Ġp ot
ar t
ĠL ot
ĠG ers
ĠG ide
ĠA c
ĠA i
ĠN ab
ĠH ave
Ġr ings
Ġ6 6
han an
ec ted
Ġper ver
Ġang ry
ĠAs her
Ġmerc ies
Ġrep aired
Ġreb uke
Ġcompass ed
Ġpal m
Ġtreas ure
ĠGib eon
Ġgre en
Ġweep ing
Ġmur d
Ġreg ard
Ġaston ished
Ġband s
ae a
ĠZebul un
sac har
Sha ll
Ġsud den
ĠGide on
G od
S urely
i hon
ë ĭ
Ġ venge
Ġt it
Ġm el
Ġf aint
Ġha ll
ce p
ce ive
al es
st ood
Ġme ans
Ġas hes
ĠJud aea
Ġfather less
Ġ10 7
Ġdes ert
Ġro ll
Ġfl o
Ġcapt ives
Ġent reat
Ġel se
Ġarm ies
Ġlord s
Ġple ad
Ġpi ece
Ġbord ers
Ġjust ified
Ġrec ord
Ġshek el
Ġfollow ing
Ġstret ch
Ġobey ed
ĠBal ak
Ġdrun k
Ġvirg in
Ġsatisf ied
Ġuncircumc ised
Ġsta ff
Rem ember
Ġvenge ance
G ive
S he
Ġt ears
Ġs its
Ġw ound
en ess
Ġp aths
an i
Ġl atter
id ing
ĠIs sachar
ĠC arm
Ġst ir
Ġde p
Ġwe ary
ĠB o
Ġag e
Ġher self
Ġher ds
Ġv ow
Ġshould er
Ġgood s
Ġfl ow
Ġapp oint
Ġspirit s
Ġseek s
Ġte nder
Ġprov oke
Ġchan ged
Ġtalk ed
Ġshepher d
Ġstraight way
Ġwo nder
Ġmag n
Ġpost s
Ġfin ished
Ġbreat h
Ġharl ot
. )
E very
S on
i al
Ġa uth
Ġs ow
Ġb us
Ġb os
hi op
Ġm ak
Ġf ing
Ġc h
Ġl ack
ir am
ĠS t
ĠA ha
Ġst o
ĠH as
ac ed
Ġv o
Ġfi erce
Ġar rows
Ġro om
ign ation
Ġbo ards
Ġwalk s
Ġunclean ness
Ġdecl ared
Ġcompass ion
Ġres urrection
Ġfore st
sec r
Ġind ignation
Ġplant ed
ros s
ĠOb adiah
ĠSar ah
ĠGil gal
ĠShime i
Ġaccom pl
Ġsudden ly
Ġauth or
Ġbos om
: )
a ld
i e
p oc
t i
t ains
Ġ ign
Ġo cc
Ġw and
Ġd ed
Ġd ried
Ġp ay
Ġp ron
Ġha pp
as es
ĠJ ab
Ġg row
Ġsa f
Ġis sue
ĠP er
ic t
im s
Ġcon secr
Ġno b
Ġser pent
Ġho liness
Ġro ar
Ġmerc iful
Ġrest ore
Ġcount ed
Ġfool s
ĠBeth s
Ġtou ches
Ġris ing
Ġexceeding ly
Ġgriev ed
Ġgriev ous
Ġdrun ken
Ġbeat en
ĠShem aiah
Ġpoll uted
Ġheav y
Ġhy poc
ĠSe ir
Ġhypoc r
5 5
u ed
Ġa ir
Ġm ed
Ġm olt
Ġf ish
Ġin ner
Ġsha r
ent ion
ĠE n
Ġre sp
Ġh orn
Ġas cend
ĠC y
Ġst ick
Ġst eps
Ġsp are
Ġdo ing
Ġv ali
ĠSam son
ĠJe w
Ġsc atter
Ġlaw ful
Ġdis p
Ġbur y
Ġle ast
ĠF ear
Ġwa x
Ġple ase
Ġconc ub
Ġpossess ed
Ġsal t
Ġeast ward
Ġcorn ers
Ġbow els
Ġmeas ures
Ġeight h
hit tim
Ġstri fe
Ġcaus es
Ġshi ps
Ġbond age
ros y
Ġmur m
Ġstrengthen ed
Ġlep rosy
ĠMer ari
Ġsupplic ation
ĠEt hiop
Ġcleans ed
Ġquick ly
Ġprocl aim
Ġadul tery
Ġpor ch
Ġign or
Ġmolt en
a f
i er
p ah
u g
Ġs or
in n
re w
Ġof t
Ġb ars
hi m
Ġf en
Ġha il
Ġsha ke
ho od
al m
Ġre v
Ġme mb
Ġme mor
ad an
Ġbr ide
Ġ5 9
Ġ6 5
Ġover c
ĠZ i
Ġpass es
Ġdi vers
Ġbl ow
Ġwr iting
ĠAm aziah
Ġdes cend
un to
Ġapp ro
Ġlook s
Ġim p
ĠBen aiah
Ġsing ers
Ġdra g
Ġneed y
Ġoppress ed
Ġappear ance
Ġgird le
Ġcircumc ised
Ġbas k
Ġshepher ds
Th ough
Ġreve aled
Ġpursu ed
eshb on
Ġempt y
Ġinnoc ent
Ġch ronicles
Ġpron ou
Ġfen ced
K now
W ill
o ld
u ff
Ġs im
Ġf il
Ġc aught
ĠG re
ĠG ath
ĠC ale
Ġde w
Ġhear ing
Ġsh ort
ĠR ed
Ġli ber
Ġab hor
Ġknow ing
ĠAb i
ĠAm m
Ġunder stood
Ġcha ins
Ġrem ains
Ġen v
Ġsc orn
Ġtrib ute
Ġgra pes
Ġrece ives
Ġbro ad
Ġim ag
Ġwa xed
stand ing
Ġlam ps
Ġbuild ing
Ġcontin ue
Ġcorn er
ĠShi l
Ġdesp ise
Ġcomf orted
Ġchur ches
Ġassemb led
Ġminist ered
arle y
Ġprevail ed
ĠTy re
Ġdilig ently
Ġcondem n
Ġmir ac
ĠSin ai
Ġcruc ified
Ġval or
Ġconfid ence
Ġflo or
Ġauthor ity
ĠCale b
5 6
T ruly
c ore
c il
Ġw rong
Ġw ounded
Ġb arley
Ġf ly
or y
or am
Ġd ise
Ġd ung
Ġl ine
ĠP ers
ur y
Ġthere with
Ġse as
Ġse aled
Ġsp ot
ĠH eshbon
ĠB ring
ĠK ad
Ġ5 5
em pt
Ġso lem
Ġtw enti
Ġ6 9
Ġpro ce
Ġlet ters
Ġkind red
Ġtong ues
Ġinst ead
Ġdef ile
Ġcove t
Ġstre et
Ġtestimon ies
Ġrebell ious
ĠRam ah
ĠAhaz iah
with standing
Ġforb id
Ġadvers aries
Ġcre ep
Ġpurp ose
ĠKir j
Ġforn ication
Ġfours core
Ġsolem n
Ġtwenti eth
e ven
f l
l er
ed ed
Ġd uke
Ġn at
id on
Ġfor t
Ġe qu
Ġe ither
ĠA hit
Ġgo at
if f
ek s
em an
Ġus e
Ġ6 8
Ġ10 4
Ġwhere ver
Ġwhere by
Ġper ceived
Ġrem ove
un ning
Ġdis m
Ġdis ple
Ġsil ence
Ġfoll y
Ġfruit ful
Ġob lation
Ġcour se
Ġstat ute
Ġreb uk
Ġsabbath s
Ġord ained
Ġpers u
ĠAd on
Ġwait ed
ĠJehoi akim
Ġstay s
Ġoverl aid
p han
p hah
Ġ ê
he ad
ha i
Ġb ad
hi ah
Ġf em
Ġc unning
Ġhi g
Ġhi red
Ġl us
ĠJ ed
id ue
Ġe ag
Ġe phah
ra ge
ĠS al
ĠS ihon
ĠA t
ĠA ra
ers heba
Ġv ict
Ġ6 0
ĠO f
ĠO n
Ġar ray
Ġbo ld
Ġmerc ha
Ġgra cious
Ġsacrif iced
ect ion
Ġbes ie
Ġprov oked
Ġtransgress ed
Ġdece ived
ĠHam ath
ĠBe ersheba
Ġres idue
Ġmessen ger
Ġinqu ired
ilk iah
Ġcircumc ision
Ġrebell ed
vent ure
Ġrefus ed
Ġnin th
Ġpat ience
Ġjealous y
íķ ĺ
Ġliken ess
Ġfem ale
L ike
a ren
d d
g ing
g ran
l ong
r ayed
Ġs el
Ġb ri
er a
Ġd eter
Ġhi re
Ġp ome
ĠL eah
Ġfor med
Ġe v
od den
ra ce
Ġre ed
Ġre ck
Ġan ci
ic ing
Ġwhe els
ĠH ilkiah
Ġde eds
Ġwe ar
ĠB a
ĠR eb
Ġho ok
Ġlo st
Ġlo ving
Ġpri ce
Ġgood ly
Ġen l
Ġfl ame
Ġturn s
Ġcl ay
par t
Ġtre acher
Ġhar p
ĠPhilist ine
Ġqu est
Ġinhabit ant
Ġbod ies
Ġinst ruction
Ġcontinu al
Ġport ers
Ġpal aces
Ġce ased
ĠAsa ph
Ġjourney ed
Ġsepar ated
On ly
ĠĠĠĠ ĠĠĠĠ
Ġexcell ent
Ġprofan e
Ġfount ain
Ġharden ed
Ġencam ped
ĠCarm el
Ġresp ect
Ġvali ant
ĠShil oh
Ġdeter m
Ġpome gran
5 7
e es
i ers
o ah
Ġs own
Ġw ave
hi b
Ġm ales
Ġc ord
Ġc ave
Ġc ust
Ġhe nce
Ġbe ha
le w
am s
ad venture
Ġh ot
Ġu ng
Ġst ore
Ġsp ices
ĠH igh
est y
Ġsh ine
Ġ5 7
Ġlo aves
Ġlo osed
Ġgreat ness
ĠAb isha
Ġfe asts
Ġen ough
are r
Ġfound ations
Ġgr ant
Ġcont r
Ġinhabit ed
Ġsub j
ĠEl is
Ġclean se
ĠAd am
Ġabund antly
Ġbran ch
Ġgird ed
Ġrepent ed
Ġfow l
Ġtar ried
Ġhung ry
Ġprostitut ions
Ġscript ure
ĠKo hath
Ġtrus ted
ĠGed aliah
Ġmemb ers
Ġmemor ial
a j
g ilead
m s
m elech
p et
x es
Ġo int
er us
Ġm ad
Ġf ed
Ġc ol
Ġd ue
at ely
ar ge
Ġsa nd
Ġsa kes
ra ud
ĠP e
ad d
ĠM ed
il ah
ĠN er
Ġal read
Ġup per
ĠH or
Ġsay ings
ab as
Ġher it
Ġv ows
ĠK en
ck s
ĠJud as
han ts
Ġsu ck
Ġ10 9
cc ording
ĠAb iat
Ġbre asts
Ġspe ed
ish on
Ġper pet
Ġun right
ci ence
Ġmerc hants
Ġyoung er
ĠShe ba
Ġpart ak
Ġsub d
Ġcur tains
Ġhat es
Ġborn e
Ġtest ify
Ġanswer ing
ĠPhili p
su erus
Ġcal f
ìĿ ´
serv ant
Ġpub l
rez zar
Ġbreast pl
Ġmurd ere
ĠAha suerus
Ġdism ayed
Ġung od
Ġalread y
ĠAbiat har
Ġunright eous
M an
R e
c el
h ort
i ar
o ps
r ates
z en
Ġt um
Ġt ast
Ġa ven
in adab
er ry
Ġm ock
Ġm ention
Ġd ies
Ġhe w
Ġp ain
Ġp ity
Ġl ess
as ha
ĠL ib
ĠL amb
Ġg ain
ĠS ham
ĠA g
ĠA ho
Ġre nder
Ġme ek
Ġwhi r
ĠN az
Ġal ong
ast ers
os heth
Ġkn ees
Ġ6 3
Ġpro ve
Ġover fl
Ġco vers
Ġput s
Ġcall s
Ġro b
are th
Ġapp are
Ġwalk ing
Ġstand s
Ġtabernac les
Ġcons p
Ġcons cience
Ġfell ows
Ġpres erve
Ġarm ed
Ġhold s
Ġcry ing
Ġwind ows
Ġmar ried
Ġhonor able
ĠSha phan
Ġsold iers
Ġburden s
Ġthanks g
Ġsepar ate
Ġrequ ire
Ġhang ed
ĠNebuchad rezzar
Ġpersec ute
Ġexec ute
Ġlear n
Ġsprink le
Ġordin ance
Ġprovin ces
Ġthres hing
Ġplu ck
Ġfurn ace
ĠCaes ar
ĠJep ht
ĠGers hon
Ġded ic
Ġnob les
Ġlus ts
ĠReb ekah
Ġdeterm ined
Ġherit age
A re
N o
a x
h ud
k am
l w
n abas
y al
Ġm erry
Ġc ra
Ġc hose
Ġc ap
Ġc ross
on ia
en cy
ed ient
Ġd umb
Ġhe ave
Ġg all
us ion
am ar
ĠG om
ĠS h
ĠS av
ĠP h
ĠP el
ĠA p
Ġme an
ĠM e
ĠM aac
ĠN un
Ġal to
Ġde als
Ġwe ap
att ers
Ġwho lly
Ġ11 8
ĠJes hua
Ġacc ount
Ġro yal
Ġex hort
Ġend ure
Ġrep ort
Ġtem p
Ġarm s
Ġrej ected
Ġdisci ple
Ġpra ises
Ġcertain ly
ĠEl am
Ġhelp ed
Ġsing ing
Ġcontinu ed
Ġter ror
Ġve x
ĠBar nabas
Ġcreat ure
ĠHan aniah
Ġaccept ed
Ġgro ves
Ġhumb led
Ġfet ch
Ġbra zen
Ġdep th
Ġbus iness
Ġcreep ing
Ġwhir lw
ĠJepht hah
Ġcap it
ĠSav ior
Ġalto gether
Ġwhirlw ind
5 8
A ccording
a ir
p ha
u nt
Ġ Yes
Ġt ur
nd s
in ation
Ġw oe
Ġb ir
Ġb ene
at ch
ĠJ oram
Ġre n
Ġthi ef
ĠH us
ĠH ere
ĠH ur
ĠK ed
sel y
Ġpl ay
ĠT h
ĠT ars
Ġj ew
Ġ7 3
Ġpr ud
Ġ10 2
Ġover t
ĠLevit e
ĠZ ac
Ġpri v
Ġwork ers
ĠAm non
Ġhundred s
Ġglor ify
Ġpo ol
Ġspirit ual
Ġprin ci
Ġfall s
Ġpur sue
Ġob tained
Ġback s
Ġutter most
Ġvalley s
Ġdra wn
ĠNa am
ĠWho ever
Ġgre w
Ġchan ge
Ġanoint ing
Ġbott om
Ġer r
Ġaw ake
Ġcloth ing
cep ts
Ġmak ing
ĠPers ia
Ġcovet ous
ĠBa asha
Ġperpet ual
Ġbreastpl ate
ĠNaz areth
Ġappare l
Ġthanksg iving
Ġbir th
Ġbene ath
C ome
g o
i as
m ah
m ers
p hel
s ing
Ġs hittim
Ġb ud
Ġm aj
Ġf aul
Ġf ishes
en n
Ġp sal
at ha
an ah
ar iah
om es
Ġl ame
ĠJ ot
Ġg ot
Ġe un
ĠG az
Ġis les
ĠE b
ĠA h
ĠM aced
il ing
Ġsp ace
ĠH el
ab el
Ġcon v
Ġtr odden
ĠZ ib
Ġeat ing
ĠEgypt ian
Ġgi ving
ĠPhi le
Ġrest ored
Ġlight ning
ĠHebre w
Ġqu en
Ġjoy ful
Ġfind s
Ġjust ice
had ad
Whi le
Ġgri ef
Ġfur ther
Ġnever theless
Ġspr ing
Ġrun ning
Ġminist ers
Ġrejo icing
Ġtremb le
ĠRam oth
ĠZer u
Ġforb ear
ĠUzz iah
Ġtouch ing
Ġdoub le
Ġpunish ment
Ġordin ances
Ġprovin ce
Ġsum mer
Ġlangu age
Ġentreat ed
Ġliber ty
Ġmirac les
Ġcust om
Ġungod ly
Ġmaj esty
Ġeun uch
A rise
a w
b eli
o ll
p al
w hat
Ġ z
hi r
er ah
or k
Ġd im
Ġbe ars
Ġfor so
ĠG et
Ġk ins
Ġmy st
Ġth under
ĠC he
ĠC ain
Ġse al
ĠJo hanan
Ġst ro
il ty
Ġgo ings
Ġwe al
ĠB el
ĠK e
ĠK orah
ĠR em
ĠR ep
ĠJud e
Ġwor se
Ġear n
Ġlo ose
hu ll
Ġ13 6
Ġco als
Ġtim ber
Ġbl ack
Ġmore over
Ġper ished
Ġper ceive
Ġun beli
Ġro be
Ġfour teen
ĠF rom
Ġlook ing
Ġinc l
ase iah
Ġwa ves
Ġcou rage
Ġad v
Ġpra ised
Ġcur tain
Ġconf usion
Ġchar ity
Ġest im
Ġtest ified
ĠU riah
Ġdece ive
Ġgu ilty
ĠBar uch
Ġrepent ance
Ġsepar ation
Ġwest ward
Ġbond s
Ġwid ows
Ġtremb ling
Ġpreach ing
Ġrefus e
Ġexcell ency
Ġpub lic
Ġlod ge
Ġswall owed
ĠHitt ite
Ġkis sed
Ġfing er
Ġaccompl ished
Ġshar p
Like wise
Ġhook s
Ġcord s
Ġoint ment
Ġprinci pal
ĠMaced onia
ĠPhile mon
ĠZeru iah
Ġforso ok
5 9
C an
a ph
o z
Ġs now
Ġb an
Ġb ough
Ġb rim
er ing
Ġf re
Ġf as
Ġc akes
ed ge
ĠL a
Ġg otten
ra w
st one
ĠA ch
Ġre nd
Ġre le
ad ed
if ies
ĠD ari
ĠH os
ĠH iv
Ġde fe
ab ad
ul ation
Ġcon tend
ĠR abb
Ġ5 6
Ġ5 8
Ġab ound
Ġpl ains
ĠT H
ĠT ir
av ing
Ġpro long
pp a
ine has
Ġco at
ish ment
Ġfour teenth
Ġle an
Ġle aven
Ġle aves
Ġunc over
Ġcons id
Ġfull ness
ĠBen hadad
Ġwit hered
Ġsome what
Ġcoun cil
Ġcour ts
ĠMic ha
ĠAr non
Ġste al
ĠNeb at
oc ation
Ġris es
Ġcal am
ĠMa aseiah
ĠMes hull
Ġtempt ed
Ġseem s
Ġsprink led
ĠAsh d
Ġlament ation
Not withstanding
Ġwilling ly
Ġdro ve
Ġbird s
Ġoffend ed
ĠJebus ites
Ġocc as
ĠKirj ath
Ġdisple ased
Ġrebuk ed
ĠAdon ijah
Ġeag le
ĠAbisha i
ĠPe ace
Ġjew els
Ġfas hi
ĠDari us
L est
a pp
a haz
g ro
i res
j oice
k ron
u ph
z ah
Ġa ck
Ġa part
Ġo w
Ġw ard
Ġb ald
hi el
Ġm u
Ġm or
Ġm id
Ġf ame
or med
Ġc ent
Ġc ows
Ġp ath
is s
Ġbe f
Ġl ots
Ġfor m
Ġe mb
Ġe ff
ra c
ĠP raise
ĠA nt
ĠM ake
ĠM achi
il s
Ġthi gh
ĠD eb
ab les
Ġdo gs
ac hish
ĠK now
ev es
so ever
Ġam b
Ġ5 4
Ġus ury
ĠT amar
Ġ7 1
Ġ6 2
Ġlo se
Ġcomm on
Ġ13 9
Ġsw ift
Ġfi gs
Ġbring ing
Ġfir m
Ġro bb
Ġpre cepts
Ġbeg otten
Ġpray ers
Ġsword s
Ġfear s
Ġel even
Ġcont ent
pe h
hem esh
iz z
Ġvis ions
ĠU ri
Ġbow ls
Ġmar ry
Ġsk ins
Ġnorth ward
Ġcr uel
Ġplag ues
Ġsick ness
Ġfore head
Ġoppress ion
Ġfulf ill
Ġtra d
ĠThere fore
Ġexal t
Ġrequ est
Ġcal ves
Ġced ars
Ġden y
Ġpersec ut
Ġsynagog ues
Ġdeceit ful
ĠMidian ites
ĠShall um
Ġnin ety
Ġhung er
serv ants
Ġplu cked
ĠAmalek ites
Ġbar ren
ëĭ ¤
Ġtit hes
ĠBo az
Ġvo id
ĠJab esh
Ġbride gro
Ġsel f
Ġcontr ary
Ġoverfl ow
Ġdedic ated
ĠGom or
ĠPh inehas
Ġprud ent
Ġweal th
Ġearn est
ĠMeshull am
Ġack now
Ġcent uri
Ġbridegro om
P raise
f th
f ast
m ri
o ok
r is
Ġb lew
Ġm us
Ġm atters
on t
Ġp ow
Ġp ull
at he
el iver
ot he
ĠL achish
Ġg lean
ĠE kron
ĠS er
ĠS is
st ra
Ġmy r
ĠH iram
Ġde b
Ġde ar
ĠB er
Ġam az
Ġcon vers
Ġ7 4
Ġlo vers
Ġ9 4
ĠZ o
eb el
Ġwhere as
Ġcall ing
ĠAb el
Ġheaven ly
ĠAm as
Ġfe eb
Ġwicked ly
Ġbet ray
Ġgr own
Ġqu ar
ĠEli p
Ġfif teen
Ġmultitud es
Ġgen eal
Ġsal ute
Ġtwel fth
Ġwind s
Ġabomin able
Ġsouth ward
Ġrec on
ĠAss yri
Ġkill s
Ġgu ide
Ġrock s
Ġteach ing
ĠAmmon ites
Ġdream s
Ġstead fast
Ġsorrow s
Ġsho ot
Ġbapt is
Ġhur ried
Ġcle ar
hor am
ĠJez ebel
Ġvisit ed
Ġaccept able
Ġshiel ds
tim e
ĠHaz ael
Ġmarvel ed
Ġmarvel ous
ĠMiz pah
ĠMiz peh
Ġswall ow
Ġstir red
ĠPer izz
ĠCy rus
Ġbask et
Ġpronou nce
Ġequ al
Ġbesie ged
Ġanci ent
Ġtreacher ously
Ġpomegran ates
ĠTars hish
Ġpriv ately
ĠJot ham
Ġestim ation
Ġdefe nd
ĠMachi r
6 0
A n
J ud
M ake
O ur
S ing
W hom
f ts
m it
n ey
o ol
r ous
t es
z er
nd ise
Ġm om
Ġf raud
Ġp an
Ġp ots
hat hites
om i
Ġsha ken
Ġwith d
ri age
ĠS il
ĠS hu
ĠP ar
Ġh in
ĠM el
ĠM ah
ic ians
Ġst oned
Ġbr u
Ġher d
Ġus ed
Ġpl edge
Ġne cess
Ġwor m
Ġj ub
Ġ6 4
ĠO g
Ġ10 3
eb a
Ġwh or
ĠW ill
ig hed
ĠJe horam
Ġset s
Ġro of
ham ar
Ġbo ast
Ġcons ent
ĠShe b
Ġcou p
Ġbear ing
Ġtroub les
Ġdef ense
Ġrec over
Ġneighb ors
Ġeight een
Ġmourn ed
Ġcompan ions
Ġneed s
up on
Ġspr ings
Ġve xed
Ġast ray
Ġdisc ern
Ġdisc overed
Ġminist ry
Ġrequ ired
Ġgovern ors
ĠZer ubb
Ġbitter ness
Ġadvers ary
ĠTy rus
Ġvirg ins
Ġheap s
Ġlear ned
Ġhumb le
Ġthirst y
Ġcarcass es
Ġbright ness
ĠHitt ites
Ġinf irm
ĠNab al
ĠNab oth
Ġconcub ine
Ġoverc ome
Ġmercha ndise
Ġreck oned
Ġpartak ers
Ġtast e
Ġtemp est
Ġoccas ion
Ġeff ect
Ġbaptis m
Ġmom ent
Ġjub ilee
ĠZerubb abel
6 1
6 2
F ear
W hose
b an
c ha
e enth
g ar
i am
k anah
t ered
u z
w d
Ġt ri
Ġs ort
Ġo ak
Ġo rac
ll ors
Ġm asters
Ġf ain
Ġto ken
Ġd an
Ġp aren
el ess
Ġl arge
se llors
ĠE uph
ĠS u
ĠS ay
ĠS hus
ĠP ut
Ġthere by
Ġas under
ic ken
Ġse er
Ġtheir s
if er
ĠD id
ĠB eli
ab ly
ĠK ish
ĠR ab
ĠT ob
Ġtw ined
Ġor n
Ġgreat est
ĠZ idon
Ġ14 5
Ġ13 5
Ġsin ner
Ġbre ach
Ġper adventure
ĠAs ia
Ġprophe cy
Ġend ed
Ġle ap
Ġle wd
Ġkeep er
Ġkeep ers
ai as
Ġtrib ulation
Ġhow l
Ġdrink ing
Ġgra ves
Ġrest ed
Ġmo cked
Ġopen s
Ġsix teen
Ġstrong er
ĠJeho ahaz
Ġcoun sellors
Ġcho ice
Ġfar mers
Ġperf ormed
ĠIt hamar
Ġmind ed
ĠNa omi
Ġstra it
chi ah
ich ri
Ġsho es
Ġfal sely
Ġdelight s
Ġcorrupt ion
Ġtremb led
Ġaston ishment
Ġexec uted
Ġsupplic ations
Ġcondem ned
Ġlod ged
Ġprostitut ion
Ġscript ures
ĠAc hish
Ġmagn ified
Ġsaf ely
ĠBeths hemesh
Ġappro ach
Ġhig her
Ġunrighteous ness
Ġweap ons
Ġfaul t
Ġmyst ery
Ġrele ase
ĠAshd od
Ġcenturi on
ĠSis era
Ġamaz ed
Ġparen ts
ĠEuph rates
ĠShus han
6 3
C ursed
H aving
T urn
c om
j ust
m a
m and
u gh
ì ĭ
Ġt ro
Ġt ried
Ġw in
Ġf it
Ġc ens
Ġhe ifer
Ġbe w
ĠI m
Ġl ust
ĠL y
ve h
ver b
ho phel
et urn
ĠE den
Ġthere to
Ġson gs
ter ies
ĠN adab
Ġal oud
ul ent
ev enth
Ġr ide
Ġpl ayed
ĠT ab
ĠT ell
ol en
Ġ7 2
Ġ7 7
ist ers
Ġpro verb
Ġcomm end
Ġtr y
ĠZ im
Ġ14 7
ĠW oe
ough ly
Ġla ws
Ġla ugh
Ġacc ursed
Ġsw ine
Ġfi ery
Ġshould ers
Ġwhere unto
Ġwork ing
ĠAb ijah
Ġbl am
Ġun p
Ġen g
Ġdes ir
Ġdes ires
Ġro ots
Ġex am
Ġfl ower
Ġdis ob
ach in
hab iah
Ġtak ing
Ġent ers
ult ere
Ġel eventh
Ġhar ps
Ġshow s
Ġte acher
Ġad ultere
ĠEli ab
ail s
Ġconf irm
Ġest eem
Ġeld er
Ġred empt
ne h
Ġtransgress ors
Ġste ward
ĠEs aias
op he
ĠHez ron
Ġstri ve
Ġfoot st
Ġprison ers
Ġdream ed
ĠAhi jah
ĠAhi kam
Ġpast ure
Ġsecret ly
ĠOb eded
Ġhabit ations
Ġsear ched
Ġnam ely
Ġgro an
Ġbeaut iful
Ġdoub t
Ġbelong s
Ġinward s
ĠNet haniah
Ġtor ment
Ġhall owed
Ġwonder ful
Ġhypocr ites
Ġsim ple
Ġfil th
ĠAhit hophel
Ġpersu aded
Ġsubd ued
Ġmurdere r
Man y
Ġeunuch s
Ġconvers ation
Ġfeeb le
Ġfraud ulent
Ġredempt ion
ĠObeded om
A m
L isten
S t
b ar
c rib
e ge
i och
k l
o a
t ent
Ġ íķĺ
Ġs isters
Ġw ither
re ct
Ġb al
Ġb one
Ġb ade
Ġb ank
it ess
Ġd ress
Ġp ard
is ing
Ġn our
ar row
Ġl ower
ot ed
Ġg host
Ġfor ce
Ġe ase
ĠG es
ir t
ri el
ĠS hob
st ri
Ġre ven
ĠM ep
Ġse ver
ĠJo k
Ġsp ent
ĠN ine
Ġde ed
ĠB il
ear im
Ġdo ve
Ġher b
ac t
Ġv owed
Ġv ile
Ġoff ense
Ġr ing
Ġr ow
Ġpl ent
Ġ6 1
Ġ11 6
cc oth
Ġho of
Ġ8 0
Ġcomm its
Ġearth qu
Ġbl ot
Ġthr own
Ġfo ld
Ġun just
Ġen j
ag ue
Ġdr ank
Ġcast ing
Ġle gs
Ġle ague
Ġmouth s
Ġra ven
Ġbet rayed
Ġstand ard
Ġel ect
Ġhar m
Ġqu icken
Ġkind le
Ġdark ened
ĠEl kanah
Ġpit ch
ĠMoab ites
Ġinst ruc
Ġlab ored
Ġslay er
Ġdesp ises
cher s
Ġupright ness
Ġfaithful ness
Ġfail s
Ġfoolish ness
ĠZer ah
Ġden ied
Ġpersec uted
ĠMes ha
hal iah
Ġflood s
Ġbott les
Ġpurp osed
Ġfet ched
Ġoverth row
Ġstumb le
Ġstumb ling
Ġkis s
Ġpot ter
Ġperver se
Ġmagn ify
Ġsaf ety
Ġmed it
Ġascend ed
Ġmurm ur
Ġmurm ured
Ġoft en
Ġdescend ed
Ġdrag on
Ġenv y
ĠAra b
Ġquest ion
Ġspeed ily
Ġtum ult
ĠAho li
Ġconsp ired
Ġcovetous ness
ĠGaz a
ĠRamoth gilead
Ġcalam ity
Ġbef all
ĠAnt ioch
ĠGomor rah
Ġmus ic
Ġwhor ing
ĠSu ccoth
Ġinstruc ted
6 4
C on
D eliver
L ook
O h
O ut
T hose
a fter
b le
f it
j earim
l it
l and
m ite
r ison
u ce
w ill
ê ³
he st
in ims
Ġb ase
Ġb athe
Ġc y
Ġc ries
on ite
ed ience
Ġd er
Ġd ishon
Ġhe d
Ġhe ir
at hite
Ġbe arer
us hi
le ep
ri ce
ke h
Ġre ach
Ġh unt
ĠM en
th ough
Ġfr ank
Ġst orm
Ġst ubb
Ġman na
ĠN eth
ĠIsrael ites
ĠH ore
Ġher bs
Ġcon ce
Ġcon so
ck en
ĠR ec
Ġ5 3
ĠT eman
ge on
ĠO mri
Ġ11 5
Ġ8 3
Ġ8 8
Ġ13 2
Ġco ld
Ġco ck
Ġwhom soever
Ġturn ing
are a
ag on
ham a
Ġpray ing
Ġsl aves
idd en
ock s
Ġra ge
Ġdrink s
Ġyoung est
Ġnight s
ĠShe l
Ġburn s
Ġfamil iar
Ġwa ges
Ġfif teenth
Ġlay s
Ġcur ses
Ġback ward
Ġcour ses
ĠMic aiah
ĠMic hal
ĠMan oah
Ġbreak ing
haz zar
Ġmar riage
Ġrepro ve
Ġfast ened
Ġstri cken
Ġlab ors
Ġpresent ed
ĠBaal im
Ġsound ed
Ġsorrow ful
Ġmaid ens
Ġhang ing
Ġhang ings
Ġapost le
Ġbas ins
Ġneck s
Ġgro ve
ĠUzz iel
Ġkid ney
ĠHaz or
ĠHar an
Ġcommun ed
ĠEthiop ia
Ġignor ance
Re joice
ĠKe ilah
Ġbough s
ĠTH E
ĠTir zah
ĠKirjath jearim
ĠSer aiah
ĠPerizz ites
Ġblam eless
ĠNine veh
Ġstubb le
ĠNeth inims
Ġkidney s
6 5
H er
S h
S al
c ah
c ense
d er
d on
e ep
g r
m o
n i
r h
t led
u ish
u als
Ġ ur
Ġ Yet
in cense
ha iah
Ġb id
Ġb ows
Ġc ro
Ġc asts
Ġd iff
Ġhe wn
is ions
Ġn arrow
hat hite
ar ing
om er
ĠI z
ĠJ ap
Ġwith held
ra ch
ĠE very
ĠA ro
Ġre li
ĠM ag
il ity
Ġsp it
Ġwe ighed
Ġdo g
Ġsh ot
Ġat tend
Ġpl ow
Ġtw ice
ep art
ĠO h
Ġ8 6
Ġ9 0
oth s
oth ful
Ġput ting
Ġbu ck
ĠAb ig
Ġdwell ings
ĠAm ram
Ġper tained
Ġen s
Ġpre vent
Ġex erc
Ġang uish
are rs
ob ah
Ġsl ave
Ġbo ard
Ġunc le
Ġunc overed
Ġcomp l
Ġsi ege
Ġlong er
Ġpur cha
Ġhid den
ĠJeho ash
Ġdre ad
ĠEl ah
Ġchar ger
Ġut tered
Ġhat red
Ġest ate
Ġdiv isions
Ġclot he
Ġstat ure
Ġbow l
ĠEphes us
Ġgather s
Ġbreak s
Ġrepro of
Ġfat ness
Ġfast ing
Ġstri pes
Ġhusband s
Ġcompan ies
ĠShi m
Be fore
ĠAsa hel
ĠAn ath
Ġsho re
Ġmaid servant
Ġwatch man
Ġrejo ices
Ġfree will
Ġpun ished
Ġprosper ity
ĠNah or
Ġheal th
Ġlep er
Ġtow ers
ĠSar ai
Ġthres hold
ĠElias hib
See ing
Ġtrus ts
uri ous
ĠCaes area
Ġtor n
Ġmel t
Ġflow ers
Ġvo ices
ti eth
Ġhapp y
Ġstick s
Ġconcub ines
Ġignor ant
Ġfil thy
ĠKad esh
Ġfort ress
ĠAt haliah
Ġvict uals
Ġsubj ect
ĠElis hama
ĠLib nah
Ġfellows hip
ĠMaac hah
Ġdepth s
Ġovert ake
Ġbacks l
ĠNaam an
Ġkins man
Ġpublic ans
Ġfre ely
Ġfirm ament
Ġacknow ledge
othe us
Ġmyr rh
Ġorac le
ĠBeli al
Ġlewd ness
Ġeng ra
Ġcy mb
Ġfrank incense
ĠHore b
ĠRec hab
ĠAro er
ĠAbig ail
6 6
K eep
a um
d al
l eness
n as
r ings
r own
r ite
r ors
s k
u ah
ê ²
Ġ V
Ġ ill
ĺ ëĭ
he ther
Ġs urn
in ce
Ġw ing
Ġw ra
ha im
re b
er ity
er ies
er oth
Ġm ill
Ġd a
Ġin v
Ġin te
ar ch
Ġbe ard
Ġha ught
Ġsa v
us hed
Ġfor ces
Ġis land
ir med
ĠE g
ĠE ven
ĠS peak
ĠS add
Ġwas ted
Ġu nd
Ġas leep
ĠC ap
Ġcom ely
Ġst uff
Ġthi eves
Ġsp ears
Ġout ward
im mon
um m
Ġal i
ĠH eth
ĠH eman
ans om
Ġag re
ak er
Ġr ows
Ġr ansom
ĠR immon
em ent
Ġso ever
ĠT urn
Ġover s
Ġlo cus
Ġ8 1
Ġ9 1
ale el
ĠW ith
Ġacc ord
ĠJe hiel
Ġar row
ĠAm on
Ġansw ers
ern aum
Ġpriest hood
Ġsl ow
Ġsl othful
tar oth
Ġblood y
Ġle nd
Ġpar ables
ru ct
Ġhigh way
Ġhow ever
ff ering
Ġpres erved
Ġsi gh
Ġwar s
Ġdeliver ance
Ġsix ty
Ġte aches
Ġhid es
ĠTim otheus
Ġob tain
Ġob edient
Ġdev ices
ify ing
Ġwind ow
Ġsev ent
Ġsuff ic
Ġreb el
Ġsk ill
Ġref res
ĠEs ht
Ġport ions
Ġmind s
su ffering
Ġres erved
Ġstra w
sha keh
ĠAhi melech
Ġac qu
ĠReuben ites
Ġbas es
Ġcand le
Ġnet her
Ġtempt ation
Ġsepulcher s
Ġseem ed
Ġoverth rown
Ġaccus e
Ġexp ect
Ġblasphem ed
ĠJep hun
Ġche er
Ġwound s
ĠSt and
Ġwand er
Ġroar ing
Ġproclaim ed
Ġdrag ons
Ġabhor red
Ġev id
Ġenl ar
ĠĠĠĠĠĠĠĠ ĠĠĠĠĠĠĠĠ
Ġpubl ish
Ġaven ged
Ġcapit als
Ġren ew
Ġconv ocation
ĠZib a
Ġquen ched
Ġz eal
Ġunbeli ef
ĠHiv ites
Ġconsid ered
Ġearnest ly
Ġdeb t
ĠAmas a
ĠRab shakeh
Ġfootst ool
Ġfilth iness
Ġearthqu ake
gr ity
Ġcymb als
ĺëĭ ĺ
Ġinte grity
ĠCap ernaum
Ġlocus ts
ĠJephun neh
A b
P aul
U ntil
a hath
c erning
f er
f old
k ed
l a
m oth
n an
n ced
o gy
r other
s ame
t ax
u ous
u zar
z abad
ë Ĥ
ì Ĺ
Ĭ Ķ
Ġa venge
Ġs ed
Ġs li
Ġs ows
Ġw reat
Ġw ide
re p
re ts
Ġb ab
er xes
Ġm ire
Ġc olt
Ġc atch
ed ne
Ġd uk
Ġhi nder
Ġp et
Ġp ound
Ġp atter
Ġn est
Ġbe am
ĠL azar
id onians
Ġsa iled
le t
am ed
ĠG er
ĠG os
ir iam
Ġk in
ra ined
ĠP as
Ġre ins
ĠM il
ĠM iriam
Ġst ar
Ġst am
Ġwhe el
if ication
Ġde af
Ġwe eks
ĠB y
ĠB apt
ĠB ez
ĠB ani
Ġoff ers
os h
ĠR ez
Ġno on
Ġno stri
Ġpl enty
Ġso ft
Ġwho re
av ed
Ġpro ved
Ġbec omes
Ġover se
Ġlo cks
Ġ9 2
pp ers
ĠJer ubb
li ves
Ġ14 4
Ġla ver
qu et
ĠAb edne
Ġbre aches
Ġar ches
Ġbehold ing
ĠAm ariah
Ġfl atter
Ġsc or
are ah
me el
Ġcl ose
Ġbo il
Ġthir teen
ĠHeb er
ai oth
Ġent ry
Ġrep air
Ġfall ing
Ġcar t
Ġcons ul
Ġgod ly
Ġgod liness
Ġwa iling
Ġcont empt
Ġopen ly
Ġposs ible
Ġfoll ows
Ġshow ing
ĠEli akim
ĠEli ezer
Ġsend s
Ġbuild ers
Ġdev ise
aan ah
Ġrepro ached
had rach
Ġincre ases
ĠNeb uzar
Ġfast ed
Ġlab ore
Ġes p
Ġprison er
Ġrod e
Ġrod s
Ġtrespass ed
ĠBet han
ĠHan an
Ġfav ored
Ġwond ered
Ġsn ares
Ġhair s
Ġreg ion
Ġreg ards
Ġvisit ation
ĠHag ar
Ġflour ish
ĠIsh b
Ġinterp re
Ġchamber l
Ġmag icians
Ġsojourn es
Ġshout ing
Ġbott le
Ġdilig ent
Ġuncircumc ision
Ġmir th
Ġpat ient
Ġbrook s
ĠJa haz
ĠKo hathites
Ġprofan ed
Ġoverl ay
Ġfount ains
Do es
Ġpress ed
Ġhall ow
cep ter
Ġfing ers
Ġsto pped
ĠHas habiah
Ġocc up
ĠZi kl
Ġbask ets
Ġshort ly
Ġdise ase
Ġproce ed
ĠAhit ub
hib osheth
Ġgrant ed
ĠTh ough
Ġdim in
Ġban quet
Ġbrim stone
ĠMicha el
Ġself same
ĠElip haz
Ġgeneal ogy
ĠTob iah
Ġwin ter
ĠZim ri
Ġpard on
ĠMep hibosheth
Ġenj oy
ĠMesha ch
Ġder ision
Ġconso lation
ĠAnath oth
tax erxes
Ġduk es
Ġpatter n
ĠLazar us
ĠGos hen
ĠBapt ist
Ġnostri ls
ĠAbedne go
ĠNebuzar adan
ĠZikl ag
L ord
L ift
S ave
c his
d ay
g ah
i x
i us
l o
m ore
n ight
s ide
w o
w ake
z ur
ë ĬĶ
Ġ ĉ
Ġs cepter
in ing
Ġw ag
ha nt
re r
Ġb ag
Ġb idden
hi ch
Ġm ove
or oughly
ed an
ed ah
Ġp salm
Ġp als
at er
Ġn ur
ar c
ar ah
ar ry
Ġha m
Ġsha ve
ĠJ E
Ġg rows
ut y
ut hun
Ġsa fe
le miah
Ġe as
am ents
ver ty
al t
ra in
ĠE r
ĠS an
ĠS hes
ĠS hun
ĠS idon
ĠS hadrach
Ġre aches
Ġwhi p
ro vers
ur ing
Ġth und
Ġth oroughly
Ġst ate
Ġst iff
Ġst olen
Ġbr id
ĠD ib
Ġsp ies
im es
Ġal ms
Ġag o
Ġhouse to
Ġhand ful
Ġcon ver
Ġcon ceive
umb er
os ing
Ġli ver
att ed
Ġpl aced
Ġso ber
ĠT ek
han eel
ĠO p
ĠO r
ĠZ el
ĠMatt aniah
Ġ14 8
Ġco ats
Ġbu ri
Ġdel ic
Ġcha ff
Ġper tain
Ġun w
Ġfirst ling
Ġfl ies
Ġsc ale
Ġle avened
Ġdestroy ing
Ġpo verty
Ġold est
Ġcont rovers
Ġseek ing
sp ring
ew are
ild o
Ġpur ged
Ġsure ty
Ġwis ely
Ġsend ing
ons ider
ĠEph r
Ġtest ament
ĠAr taxerxes
haz i
had d
ĠCanaan ite
ĠBeth hor
Ġremain ing
Ġspread s
Ġfore sk
Ġoppress or
Ġsupp er
ĠAhi ma
Ġassemb le
ĠBar ak
Ġreward ed
Ġru in
Ġru les
ĠAl as
ĠGad ites
ĠChalde es
ĠMa han
ĠAmor ite
Ġwond rous
Ġlead s
Ġcorrupt ed
Ġwo ol
Ġfalse hood
Ġenc hant
Ġdist rib
ĠHer mon
ĠMes he
Ġheal ing
Ġtal ent
Ġreve ren
Ġshout ed
Ġcre eps
has h
Ġdro p
Ġadd ed
Ġbest owed
Ġaccus ed
Ġpurif y
Ġblasphem y
Ġë §
ĠHad ad
Ġfro gs
ĠJebus ite
ĠGers hom
Ġtit he
Ġaccompl ish
Ġconsecr ated
Ġsor ry
Ġpronou nced
Know ing
ĠGre eks
Ġimag ination
Ġbad gers
ĠJed uthun
dd o
Ġev ildo
Ġwear ied
Ġquest ions
Ġsubj ection
Ġcol or
ĠMed es
Ġvex ation
ĠHus hai
Ġpsal teries
ĠBel a
Ġfashi on
Ġmid night
ĠDeb ir
Ġpow ers
Ġorn aments
Ġbew are
Ġteacher s
ĠAholi b
uce es
Ġcro oked
Ġwra pped
ĠSadd ucees
Ġexpect ation
ĠJerubb aal
ĠBethhor on
ĠAhima az
6 7
B less
C om
D avid
H as
I N
L ORD
S ix
a hab
c ing
c ust
h um
k ing
n s
p an
p ents
r ough
u ra
u ck
Ġ iv
Ĳ ì
Ġt ear
he a
Ġa x
Ġs om
Ġo ven
Ġw ol
ha ra
Ġb aked
Ġm i
Ġc ake
on or
en ai
Ġd un
Ġn ets
an ed
Ġbe re
ĠI th
ĠI ddo
ĠJ ah
ut ing
ut ation
Ġsa d
us e
am ing
ĠG e
ĠG ol
ĠG itt
ĠG ezer
ĠG race
ver se
ere nce
ĠS it
ĠS ir
ĠS end
ĠS enn
Ġme al
ur al
Ġth rice
ĠM ich
and er
ĠC all
ĠJo ppa
Ġwhe l
Ġman tle
Ġman servant
ĠD agon
Ġal m
Ġup hold
ĠH inn
Ġwe ek
ĠB ere
est us
ac y
ĠK areah
so p
Ġkn eel
ĠR ib
Ġli ar
ass ad
Ġab s
Ġpl ants
Ġser pents
Ġ7 9
ĠO lives
Ġ10 8
Ġho le
ĠAnd rew
Ġlo ops
Ġ8 5
Ġ9 6
pp hi
Ġ14 0
ĠW hom
Ġla ug
qu are
ĠPro p
Ġfi erc
Ġcommand s
ĠAb inadab
Ġmight ier
Ġbl ast
ĠAm oz
Ġcha in
Ġcha sed
Ġgi ants
Ġsm ites
Ġown er
Ġex t
Ġother wise
ĠAs k
Ġbet r
az er
ĠF estus
ort al
Ġfear ful
Ġcar ved
Ġcar pent
Ġreign s
Ġlight s
Ġlight ed
ĠShe phat
Ġdeliver s
Ġfull y
itud e
Ġlam p
Ġpossess ions
Ġsub mit
Ġpur ge
Ġconf irmed
Ġgar rison
ĠEph ron
Ġvine gar
Ġrul ed
Ġinst ruct
Ġcounsel or
Ġgu ilt
ĠNeb o
Ġstri pped
ĠHam or
Ġcompan ion
Ġprom ises
Ġafflict ions
Ġabund ant
Ġvan ities
ĠEdom ites
Ġsho ok
ĠPharise e
Ġprosp ered
Ġdisc over
ĠHan nah
ĠOb ed
ank s
acher ib
Th rough
Ġprofit able
Ġheav iness
Ġer ror
Ġcandlestick s
Ġforn ic
ĠNet op
ĠNet haneel
art ha
Ġmel ted
Ġsto op
Ġconsecr ate
ĠEthiop ians
ĠAmm inadab
Ġdise ases
Ġnat ural
Ġhig hest
ĠJed aiah
Ġbold ly
Ġbeha lf
Ġhew ed
ĠAg ag
Ġmeek ness
Ġcapit al
Ġtur ban
Ġpsal tery
Ġstro ve
ĠRem aliah
Ġincl ined
ĠRabb ah
Ġmor tar
iss ion
Ġamb assad
Ġrobb ed
ĠAssyri an
ĠSil as
Ġtro op
Ġdisob edient
ĠGes hur
Ġmedit ate
Con cerning
Sal ute
ĠMag dal
ĠEg lon
Ġali en
Ġsuffic ient
Ġpet ition
ĠPas hur
Ġconsul ted
Ġpals y
ĠOp hir
Ġburi al
Ġcontrovers y
ĠMahan aim
Ġreveren ce
Ġiv ory
Ġdun geon
ĠSenn acherib
ĠMich m
ĠHinn om
Ġlaug hed
6 8
B et
B rother
D id
E l
J o
b aal
f ty
f are
g idd
i les
i ation
k k
o ves
s sop
t ai
v els
y x
z ill
· ¸
ì ľ
Ġa ud
in ers
ha ri
Ġb ount
er ves
Ġm ain
Ġm ist
Ġto oth
Ġc hew
on iah
Ġhe irs
Ġhi nd
Ġp hy
Ġbe ams
om an
el on
el oved
ĠJ as
ĠJ et
ĠL ame
ĠL isten
Ġg nas
Ġsa ving
Ġsa dd
Ġsa pphi
od y
Ġhis s
ĠG eba
ri ppa
al on
ĠE ber
ĠP en
ĠA fter
ad ah
ĠM i
ĠM artha
Ġu nt
Ġas su
ĠD el
Ġsp y
Ġsp ared
ĠN ep
ĠN azar
um e
um ph
Ġwe aned
Ġdo ves
Ġv ines
Ġoff spring
so l
Ġr um
ck led
ĠR ise
ĠR eturn
Ġno se
Ġso le
ell ed
Ġear rings
Ġ7 6
ge ons
ĠEx cept
Ġlo be
Ġlo cust
Ġ8 4
Ġserv ile
Ġ9 7
ĠZ ab
ĠZ alm
ĠZ ichri
ec hes
hu b
Ġpass ing
Ġ14 3
Ġdi rect
Ġwork men
Ġwat ered
Ġwat ched
Ġspo on
Ġspo ons
Ġar chers
Ġun aw
un na
Ġpre par
Ġbeg et
Ġbeg un
Ġfl ows
are zer
Ġcl o
Ġfa iled
Ġpar ted
Ġrep orted
ĠPha rez
Ġgra pe
Ġad mon
ĠTim n
Ġob edience
Ġcur sing
Ġdev ised
Ġpit cher
ĠJon as
ĠJon adab
Ġpi erc
Ġcam el
Ġdiv ination
Ġrepro aches
Ġcounsel s
Ġsk irt
Ġdra ws
op ard
Ġstri ke
Ġmourn s
Ġfoot men
Ġstre am
Ġstre ams
Ġsick le
Ġdepart ing
Ġfore f
Ġperfect ion
Ġter rors
Ġtrespass es
ĠBar zill
ĠAn ah
ĠAn ani
Ġgre et
Ġupright ly
ĠZeb ed
ĠZeb ah
Ġcreat ures
Ġwatch men
Ġreason ed
Ġdelight ed
Ġfoolish ly
Ġdam n
ĠSyri an
Ġoffic er
Ġgard ens
Ġsojourn ed
abb as
Ġer red
Ġhy ssop
Ġoverth rew
Ġchast en
Ġbelong ed
Ġpurif ied
Ġpurif ying
Ġcruc ify
ĠHad arezer
Ġencam p
ĠAc ha
Ġroll ed
Ġflow ing
Ġmak er
Ġhapp ened
ĠEn och
Ġwax en
Ġsim il
ĠGre ek
ĠAbi hu
Ġimag ine
Ġcondemn ation
Ġseas ons
Ġnat ure
Ġê ·¸
Ġvict ory
Ġmercha nt
Ġbri ers
Ġcol ors
ĠAg rippa
Ġrob ber
ĠMe gidd
Ġaccount ed
ĠKed ar
oll ow
Ġstro ke
Ġincl ine
Ġmu les
ĠJabesh gilead
Ġcoup led
Ġinfirm ities
Ġtri umph
Ġfain ted
Ġcens er
Ġíķĺ ëĤ
Ġsever al
Ġplent eous
Ġdishon or
Ġdiff erence
Ġbacksl iding
Ġacqu aint
rep are
ĠOr nan
Ġevildo ers
ĠGe hazi
Ġfierc eness
ĠShephat iah
ĠMagdal ene
Bet ter
Brother s
Ġaud ience
ĠLame ch
ĠZalm unna
Ġunaw ares
ĠBarzill ai
ĠíķĺëĤ ĺëĭĺ
6 9
7 0
A wake
B ring
E x
E ph
G reat
G race
H ere
J e
M en
P ro
S end
S even
a ws
b ut
c ur
c han
c ari
d i
g ad
i um
i ally
l ers
l ies
m ave
r ation
u rim
w ork
z eb
ì ł
Ġt ale
he me
Ġs owed
Ġo d
in oam
Ġw ants
ou ra
Ġb en
Ġb orrow
Ġb ush
hi ll
Ġm oth
Ġf atted
Ġto ps
or ts
it ions
Ġc ud
on y
ed ec
Ġin tent
Ġp ins
Ġp enn
is her
is ts
is dom
an g
an na
Ġbe ll
Ġha l
Ġl ent
Ġl ev
ot hite
as ing
ĠJ eth
ĠJ azer
id ron
ut ish
Ġe re
Ġwi z
ĠP ekah
ĠP adan
Ġre eds
ad es
Ġh omer
ĠIs cari
Ġse ats
Ġst ep
Ġst ink
Ġbr utish
ĠD in
ĠD epart
ud ah
ĠN ot
Ġal ike
ĠH od
ĠH ep
Ġde mand
to ok
all at
Ġhand le
ĠK idron
ok ing
Ġr id
Ġsh ining
em uel
ĠT hom
ĠT erah
ol k
Ġri pe
av el
ĠO ur
Ġho les
Ġho ped
Ġ9 5
ĠZ in
ĠZ obah
ec l
ec ially
ĠJer ah
hes y
Ġco p
Ġco st
Ġsw ell
Ġsw ears
ĠAb iram
Ġmight ily
ĠJe iel
Ġar rayed
Ġbl ock
Ġspe ckled
ub al
Ġsent ence
un ished
ign ed
Ġpre cept
Ġex per
Ġfl ax
Ġsc ales
Ġdis sol
Ġcl osed
Ġsl umber
Ġle af
Ġthir teenth
Ġkeep ing
ru ng
ull am
Ġent rance
ort ion
Ġbless ings
eth ing
Ġcar nal
Ġmo ons
ĠShe lah
Ġwar n
Ġwa its
Ġsan g
Ġwell s
Ġlay ing
Ġunderstand s
Ġask s
Ġut most
Ġdesol ations
ĠGo g
Ġdiv or
Ġdiv ine
Ġhel m
Ġjust ify
Ġprov ision
Ġforg ave
ĠAr am
Ġgather ing
Ġmeas uring
Ġrec overed
Ġsign et
Ġeight eenth
ĠEs h
Ġgu ile
ĠAd ullam
Ġid le
Ġprof ess
Ġgri nd
Ġidol at
Ġres ist
Be ing
Ġcor rection
Ġjourney s
ĠBar abbas
Ġreward s
Ġrun s
ĠHan un
ĠHan ani
Ġpast ures
Ġplain ly
Ġinter cess
Ġstraight ly
Ġvir t
After ward
Ġobs erved
ĠUzz i
Ġdec re
Ġafterward s
Ġpoll ute
Ġdeceit fully
Ġlow est
ĠMer ib
Ġsatisf y
Ġfet ters
ĠAsh taroth
Ġlament ed
Ġfin ish
Ġblasp heme
Ġmark et
Ġbra cel
ĠJa ir
Ġdistress ed
Ġcare ful
ĠBo z
Ġlack ed
Ġhypocr ite
Ġdisp ers
Ġoverc omes
ĠAmm i
Ġscorn er
Ġfly ing
Ġspot ted
Ġproce eds
Ġbesie ge
ĠKen az
Ġpubl ished
Ġmurdere rs
ĠSham m
Ġrob es
Ġconsp ir
Ġcra ft
ĠAp oll
Ġren own
ĠHur am
ĠKed esh
ĠZac hari
ĠEb ed
Ġquen ch
app y
Ġmor sel
Ġrobb ers
ĠUri jah
Ġtrad ition
Ġoverflow ing
Ġrecon cil
Ġdefend ed
ĠPar an
ĠMel chis
ĠMah li
Ġunp unished
Ġdesir ing
Ġesteem ed
ophe had
ĠBil hah
ĠShel om
ĠIz har
ĠJap heth
Ġbuck ler
Ġexerc ise
Ġovers ight
Ġenlar ged
ìĹ Ĳ
ĠMil cah
ĠRez in
Ġscor p
Ġlabore rs
ĠBethan y
ĠIshb osheth
Ġinterpre ted
ĠZel ophehad
ĠRib lah
Ġabs ent
ìľ ¼
Ġmain tain
Ġphy s
ĠAnani as
Ġdamn ation
ĠAcha ia
Ġsimil itude
ĠMegidd o
Ġacquaint ance
Eph raim
mave th
zeb ub
oura ged
Ġpenn y
ĠIscari ot
ĠThom as
ĠZachari as
7 1
B es
B eloved
C ast
C onsider
H im
H old
P ut
P eter
S et
S ome
T r
T wo
W isdom
b allat
e g
j alon
j udah
k n
k er
l am
l st
m uch
o ham
s s
u ries
v ah
v ings
w ed
x ad
z e
Ġ ven
Ĥ ¬
Ġt ail
Ġt amb
he k
he t
he nd
Ġs ust
Ġw re
re et
re hend
ou se
Ġb ake
er able
Ġm al
Ġf er
Ġc ares
Ġc urious
Ġd et
Ġp en
Ġp om
Ġp il
Ġp ott
is hadd
at ors
Ġn ails
ar am
ar ted
ar ne
om fit
Ġl il
Ġl ake
Ġl oss
Ġl ick
ot hed
as ps
Ġg ained
us hing
le x
Ġe w
am re
am ah
ĠG ather
Ġon yx
Ġnot withstanding
Ġwith stand
et he
ĠE d
ĠE hud
ĠS ho
ĠS et
ĠS ep
Ġre vil
Ġre ared
Ġwas hing
Ġwas tes
ur ther
ĠM ill
ĠM amre
th ing
ĠC hi
ĠC ast
ĠC orn
ĠC ushi
ven ient
ĠJo ah
if e
ĠD athan
ĠD edan
Ġsp lit
im e
Ġal arm
Ġal most
Ġpe ar
ĠH is
ron t
Ġwe igh
ĠB aths
Ġhear ted
pt ion
Ġv om
Ġv int
ather s
Ġcon stra
Ġcon venient
Ġbefore time
Ġmen servants
Ġr otten
Ġr iding
Ġat tained
ĠR ahab
Ġli ers
ĠJud a
ĠT ah
ĠT ro
ĠT ubal
Ġear then
Ġ7 5
Ġsu p
Ġ11 1
Ġ11 2
Ġover took
ĠZ ur
ĠZ idonians
pp ing
ĠJer oham
ark s
Ġ14 1
Ġ14 6
Ġdi p
Ġdi pped
Ġwork man
ef ully
ph rah
Ġset tle
Ġlif ts
Ġgl ass
Ġrem ission
un ah
Ġex act
Ġcl asps
Ġbur st
Ġsl ing
Ġfound ed
ĠNe ither
Ġfam ous
Ġpeace ably
Ġhigh ways
Ġpres ents
ret ch
ĠShe lemiah
Ġwar ned
Ġcou ple
pe or
Ġsec rets
Ġkind s
Ġkind ly
Ġhere after
Ġdev ice
Ġaff right
Ġpi geons
ĠRe uel
Ġdiv ides
Ġfind ing
Ġhon est
Ġhon ors
ĠU z
ĠAr pha
Ġrepro ved
Ġhelp er
Ġbull s
ĠBeth uel
ĠAd ar
Ġmind ful
ĠBe er
ĠBe or
ĠSamar it
Ġredeem er
Ġtreas uries
ash ti
Ġce ases
Ġappear s
Ġbed s
Ġsuffer ings
Ġsho e
Ġgre ed
Ġmaid servants
Ġdisc omfit
Ġhast ens
Ġdevour s
ĠMa hal
Ġvill age
Ġcrown s
Ġscatt ers
Ġviol ent
Ġviol ently
Ġbaptiz e
Ġsack s
eli us
Ġgrass ho
Ġpour s
ĠUzz a
Ġnet work
Ġadvers ity
Is rael
Ġmag ist
ìĿ Ħ
ìĿ ĺ
Ġdilig ence
Ġrecompen sed
ĠHar im
Ġsta irs
Ġmanifest ed
ĠBethlehem judah
Ġcleans ing
Ġaccus ation
Ġchast ise
Ġexp ress
Ġtread s
eshb arne
Ġquiet ness
Ġperver t
ĠSt ep
ĠSt retch
Ġwand ered
Ġded ication
ĠZi pp
ĠZi ph
Ġmirac le
ĠKad eshbarne
Ġequ ity
Ġpersu ade
Ġbold ness
Ġbri ck
Ġreck on
Ġanci ents
Ġpomegran ate
ĠNer iah
Ġexhort ation
Ġtur tled
Ġbirth right
Ġz ealous
ĠChe ret
ĠBel tes
ĠHos hea
Ġow l
Ġmid w
ĠDeb orah
Ġpersecut ion
ĠBer iah
ĠZo ar
ĠAssyri ans
Ġsteadfast ly
Ġnecess ity
Ġcoup ling
Ġinfirm ity
ĠIm mer
ĠTab or
Ġbal ances
Ġnour ished
ê³ ł
ĠV ashti
Ġhaught y
Ġsevent een
Ġrefres hed
Ġwreat hen
ĠGer ar
Ġnur se
alt iel
ĠSan ballat
Ġthund ers
Ġenchant ments
Ġmi xed
Ġwhel ps
Ġalm ond
ĠBere chiah
Ġguilt less
Ġsadd led
Ġrum or
Ġforef ront
ĠZebed ee
ĠJeth ro
ĠPadan aram
ecl are
Ġbracel ets
Ġdispers ed
ĠAmmi hud
Ġconspir acy
ĠApoll os
Ġtamb our
Ġwre st
ishadd ai
Ġlil ies
urther more
ĠMill o
ĠCorn elius
Ġvint age
ĠArpha xad
ĠKadeshbarne a
ĠBeltes hazzar
B eware
D an
F urthermore
G ather
H appy
N or
N one
P ilate
S imon
S ince
T e
T ell
T ill
W hether
b eth
d ing
e is
e us
e ek
k elon
l ay
l ud
m iel
m ity
n iel
n ai
o nder
p ill
r ink
s h
s hon
t les
u i
u ously
v ely
w ood
w orm
¸ ì
ë ¦
ë ĵ
ì ħ
Ķ Ģ
ŀ Ĳ
Ġt as
Ġt ip
Ġw ont
ha k
re l
Ġb ul
Ġb ill
Ġb aths
hi a
ll ow
Ġm at
Ġf an
Ġf ret
Ġf isher
or rupt
it ed
it ish
it ute
it hiah
Ġc ald
Ġc ater
en ces
Ġd ared
Ġd ens
Ġhe m
Ġin tend
Ġp ush
at hah
Ġn aught
Ġn ail
Ġbe nd
el ed
el id
as ons
as much
ĠJ ec
ĠJ achin
ĠL ike
Ġg ent
Ġg ets
Ġsa il
le ch
Ġe g
am ation
ĠG am
ĠG aal
ĠG era
Ġis su
Ġwith hold
al mon
ĠE ng
ĠE lon
ĠS ion
ĠS ab
ĠS eth
ĠS ib
ĠP ed
ĠA lex
ro g
ro lo
Ġth in
Ġth umb
ĠM isha
ĠM akk
Ġthere unto
ic ia
ĠC hen
ĠC ai
ĠC hem
ĠC ursed
Ġse ethe
ĠJo zabad
Ġst ru
Ġst irs
Ġst ocks
il ight
if ully
ĠD or
ĠD od
Ġsp an
ter day
im oth
Ġal though
ĠH en
ĠH at
ĠH av
ĠH orm
Ġde gre
Ġbut ter
ĠB u
ĠB ig
ĠB aanah
Ġag ed
ab eth
Ġv ale
ous es
Ġr iddle
Ġsh ines
Ġsh ined
Ġkn ops
ĠR ome
Ġab iding
our ner
Ġne cked
ĠT el
ĠT ophe
Ġwor th
Ġser ves
ade zer
Ġshe aves
Ġshe af
ol a
Ġtw ilight
av an
Ġpro verbs
ĠO F
Ġ11 3
Ġho llow
Ġ9 8
Ġ9 9
ĠJob ab
pp im
Ġ14 9
ĠW ell
ĠW hose
ĠW rite
ĠW oman
Ġ13 7
Ġ12 2
Ġyear ly
Ġwhere upon
ave ment
ef ul
Ġbl oss
Ġfe el
Ġfe ver
Ġfe eding
Ġthr ow
sw er
Ġper ishes
Ġsm o
Ġun ic
Ġen cl
Ġey elid
Ġevil s
Ġfl aming
Ġdis gu
Ġdr ought
Ġcast le
Ġsl ack
Ġbo asting
Ġbo oths
Ġthir tieth
Ġpar ched
ap has
Ġra ined
Ġpo int
Ġpo ison
oss ible
Ġrep ay
ĠF eli
ĠF ollow
Ġsil ent
Ġinc orrupt
ret ion
Ġtem ples
ĠShe altiel
Ġwar m
Ġwar p
Ġwar red
Ġhar t
Ġcont ention
Ġdelive rer
Ġcou ch
Ġshow ers
Ġpra ising
ĠEli hu
Ġlong ed
Ġsub tle
Ġwit ch
Ġsal uted
Ġob eis
Ġbuild s
Ġdev out
Ġut ters
Ġspoil s
Ġspoil er
Ġhon ored
Ġthron es
Ġprov ided
ĠU p
Ġforg ot
Ġdef iles
ĠAd aiah
Ġcr use
ĠNa hash
Ġcover t
Ġneed lew
ĠAmmon ite
uk k
Ġtreas ury
Ġfle es
Ġter rif
ĠGilead ite
Ġflee ce
Ġminister ing
ĠAn ak
ĠAn akim
Ġsho vels
ĠAl pha
Ġtra vel
Ġmaid s
Ġlift ing
ĠJehoi achin
Ġexal ts
Ġast rolo
Ġchan ce
Ġchan ges
ĠZeb adiah
Ġhast y
Ġhast en
Ġrequ ite
Ġsn ared
Ġsn uff
Ġtalk ing
ĠMal chi
ĠMal chiah
Ġdeep er
What ever
Ġrebell ion
Ġwo of
ĠNah shon
Ġbitter ly
Where in
Ġrefus es
Ġhoney com
Ġhung ered
for med
Ġpu ff
Ġpost erity
Ġlear ning
Ġbind s
Ġproud ly
Ġreap ers
Ġbest ow
Ġexp ired
Again st
Ġprocl amation
ĠHad adezer
Ġfours quare
Ġche ek
Ġmurd er
Ġregard ed
Ġrecord er
Ġvirgin ity
ĠPer adventure
Ġconsecr ation
Ġmed d
Ġshar pen
Ġsor ce
Ġrev elation
Ġimp ossible
uff er
Ġshort ened
ĠRed eem
Ġproce eded
Ġeag les
ĠAra unah
Ġhire ling
Ġenl arge
Ġtreacher ous
Ġbeha ved
ĠElis abeth
Ġmad ness
Ġpartak er
Ġaven ger
Ġhew ers
ĠGershon ites
Ġcra fts
ĠPel et
ĠAp hek
Ġadv ice
ĠHiv ite
Ġprolong ed
Ġconsid ers
Ġmu le
Ġamb ush
Ġquar ters
Jud ah
Ġpan gs
Ġwithd raw
Ġbru ised
Ġnecess ary
ĠSheb na
ìĭ ľ
ìĭ ł
Ġadultere rs
Ġgroan ing
Am ong
crib e
ĠShob al
Ġmurmur ings
Ġhed ge
Sh ould
Ġens ign
Ġprevent ed
Ġpurcha sed
Ġdread ful
ê² ĥ
Ġmill stone
Ġda ub
Ġbab es
Ġstam ped
ĠBez aleel
Ġchamberl ains
Ġdimin ish
Ġwag ons
Ġbrid le
ĠDib on
Ġconver ted
Ġforesk in
Ġë§ Ĳì
Com mand
ĠProp hesy
Ġbetr othed
Ġcarpent ers
ĠMichm ash
Ġmist ress
Ġsapphi re
Ġassu red
ĠNazar ite
Ġprepar ation
ĠTimn ath
Je ho
Ġben ef
Ġwiz ards
Ġstep ped
ĠHep her
ĠJerah meel
Ġcop y
Ġintercess ion
ĠBoz rah
ĠMelchis edec
ĠShelom ith
Ġscorp ions
ìľ¼ ë
Bes ide
Ġfer vent
ĠBaths heba
Ġaffright ed
Ġdiscomfit ed
ĠCheret hites
Te ach
Ġtas k
Ġcald ron
Ġcater pill
ĠMakk edah
ĠCai aphas
ĠHorm ah
Ġdegre es
ĠTophe t
Ġbloss om
Ġeyelid s
ĠFeli x
Ġobeis ance
Ġneedlew ork
ĠAnakim s
Ġhoneycom b
Ġë§Ĳì ĶĢ
7 2
B oth
D uke
H onor
O pen
R eturn
S eek
W atch
a hem
a irs
a hiah
b oa
c ce
c ra
c ol
c ham
d ed
d ition
g a
g ree
g ments
i ece
l en
l ings
l ations
l ai
m ith
o enai
p rus
r od
t ies
u a
u ches
u ally
v o
w ord
w hel
y ed
z ib
¡ ľ
¬ ì
ë ı
Ġ íķ
Ī ì
Ġt ren
Ġt ied
Ġt ares
he ment
Ġs ine
Ġs ower
Ġo uches
in th
in ate
Ġw ed
re i
ou ch
Ġb ent
Ġb ery
Ġb aker
Ġf ra
it ure
Ġc ase
en ses
Ġd ough
Ġd ance
Ġd ross
Ġd uty
Ġin vent
Ġp ans
Ġp ine
Ġp its
Ġp avement
is gah
ar im
Ġbe ck
ĠI c
Ġl ace
Ġsha m
Ġsha king
as hed
ĠJ am
ĠL od
ĠL uz
id ered
Ġe vent
am mite
od s
Ġhis sing
ay ing
et hus
Ġwi pe
ĠS y
ĠS his
ĠS mite
st ones
ĠA ri
ĠA kk
Ġre ached
Ġwhi lst
ro ar
ro fit
Ġh um
ĠM ad
ĠM ig
ĠM ach
ĠM ushi
ĠM aker
ĠM ethus
ic ian
ĠC il
Ġse als
ĠJo i
Ġst all
Ġst ock
il ae
Ġthi st
Ġsp ort
Ġsp rung
Ġout go
Ġout side
um pt
Ġup roar
ĠH ash
Ġde cked
Ġbut ler
ĠB ichri
est roy
Ġdo er
to fore
Ġv ap
Ġv ip
ak ing
all u
Ġcon tain
Ġr ud
Ġr ushing
Ġat tent
ĠR ock
Ġli ars
ĠEz er
Ġus es
Ġso lit
Ġso oths
ĠT ib
Ġwor ms
Ġshe ath
ol ted
ol ished
Ġpr ot
res hah
ĠO th
ĠO phrah
Ġ11 4
Ġ10 1
Ġover whel
Ġlo fty
Ġ8 2
ĠZ op
ĠZ orah
ĠZ abad
ĠMatt ithiah
ĠJer imoth
ĠW hich
Ġ13 0
Ġ13 8
Ġ12 1
Ġ12 4
Ġ12 9
qu iet
Ġsw arm
Ġsin ful
Ġdi verse
Ġwat ches
ĠAb don
ĠJe ush
Ġspe nd
Ġper ple
Ġper ils
Ġper dition
Ġgi ant
Ġun f
Ġun kn
Ġen mity
Ġro ast
Ġke y
Ġpre acher
Ġpre fer
Ġbeg u
ct ify
Ġfl ight
Ġlaw y
Ġdis quiet
Ġdest itute
Ġrighteous ly
els hazzar
ci a
Ġend ured
Ġbo x
Ġdestroy s
ap him
Ġpeace able
Ġra ises
Ġgra in
Ġrest rained
Ġfear ing
Ġbless es
Ġbro idered
Ġfaith fully
Ġdepar ts
Ġgr ay
Ġim m
Ġpres erves
Ġmother s
Ġmo ves
Ġtem per
ĠShe reb
Ġwar ning
ĠEli oenai
Ġfif ties
Ġprophet ess
Ġwis er
Ġyes terday
Ġhere tofore
ĠGal ilae
ĠEl n
ĠEl iel
Ġdev ises
Ġaff ection
Ġaff airs
ĠMo lech
Ġperf ected
Ġpleas ing
Ġpleas ures
Ġbook s
Ġprov ide
Ġprov ocation
ĠBenjam ites
ĠBenjam ite
ĠAr chi
Ġinst ant
Ġhelp ers
Ġbeliev ing
ĠIt tai
ĠSha ul
ĠSha phat
Ġdecl ined
Ġdece iver
ĠAd ah
Ġwait ing
Ġstri p
Ġglad ly
Ġfollow ers
Ġoppress ors
Ġfur rows
Ġshut s
Ġsupp ose
Ġsupp osed
Ġbound s
Ġap ple
Ġap iece
ious ness
Ġve hement
Ġvi al
Ġvi ew
Ġmaid en
Ġdisc retion
Ġcarry ing
Ġhast ily
og ies
Ġì £
Ġì ķ
Ġì ĺ
Ġpast ors
ĠMa reshah
Ġfeed s
per se
Ġed ifying
Ġcircumc ise
Ġsear ches
Ġsy com
Ġprosper ous
Ġsoj ourner
Where as
Where upon
Ġtempt ations
Ġkid s
Ġreve al
be arer
Ġhard ly
Ġfill ets
Ġmanif old
ĠAsh kelon
Ġpursu es
Ġpursu ing
Ġinstrum ent
Ġhandmaid s
Ġaw oke
Ġaw aked
ĠEt han
ĠGil boa
ĠJa hath
Rem ove
Ġaccus ers
Ġdistress es
Ġfurn iture
Ġchast ened
Ġpurif ication
Ġforgiven ess
Ġyield ed
Ġval ue
ĠJezreel ite
Ġlangu ishes
Ġempt ied
Ġwant ing
Ġconfid ent
Ġcare less
Ġcommun ic
Ġche st
ĠCarm i
Ġherds men
Ġlack ing
ĠJab in
ĠCy ren
ĠCy prus
ĠEthiop ian
Ġrev ive
Ġdescend ing
Ġappro ved
Ġimp uted
Ġliber al
Ġdise ased
Ġdung hill
ĠKad miel
Ġkindred s
Ġê ³
ĠOn an
Ġenl ight
ĠKen ites
Ġsubd ue
Ġtum ors
Ġtast ed
Ġgall ows
ĠSh in
ĠSh ould
Ġweap on
Ġovert urn
atha im
ĠEb al
ĠZib eon
ĠChe bar
ĠRabb i
app uah
Ġbald ness
Ġemb race
Ġforehead s
Ġpersecut ors
Ġpow der
Ġdear th
Ġdear ly
Ġquar ter
Ġgeneal ogies
Ġbru ise
Ġworm wood
Ġdan ger
Ġleap ed
Ġstrait ened
Ġcens ers
Ġunp rofit
Ġexam ple
Ġtorment ed
Ġbal ance
ê³ ¼
ĠMen ahem
Ġcompl ain
Ġpurcha se
Ġsurn ame
Ġsurn amed
Ġsav ior
umm im
Ġagre ed
Ġskill ful
Ġflatter ing
Ġeas ier
ĠShun ammite
Ġpertain ing
ĠMeshe ch
ĠAholib amah
IN G
ura ble
ĠGitt ite
Ġkneel ed
Ġext ortion
ĠNetop hathite
Ġambassad ors
Ġchew s
ĠJet her
ĠPen uel
Ġpierc ed
ĠDin ah
Ġdissol ved
Ġhelm et
Ġreconcil iation
Ġven ison
ĠEd rei
ĠSep har
Ġpear ls
Ġvom it
Ġmagist rates
Ġalmond s
ĠPed aiah
ĠMisha el
ĠChem osh
Ġstru ck
Ġencl osed
Ġastrolo gers
ĠRedeem er
ëı Ħ
Ġtren ch
Ġbery l
ĠAkk ub
ĠCil icia
Ġoutgo ings
Ġunkn own
ĠShereb iah
Ġsycom ore
D eclare
E n
G et
U S
a ver
a ol
b or
b ite
c ent
c ul
c ted
c asts
c iled
c ript
c erity
d e
d iel
e a
f aring
g as
g ion
g ard
g iver
h b
k ind
m ar
m ans
o i
o ot
r ate
r arch
s sed
s mith
t a
t an
t ah
u it
v a
v ished
v aim
z a
z or
z an
z ad
z eel
§ Ģ
© ´
° Ģ
ì ¡
Ġ ver
Ġt et
he an
he let
he arted
Ġa fore
Ġa xes
Ġa ils
in ations
in ner
Ġw el
Ġw ish
ha nd
ha ven
ha il
Ġb att
Ġb ite
hi d
er red
Ġm aim
Ġm ortal
Ġm asons
Ġf ou
Ġf ades
Ġy onder
Ġto es
Ġto ssed
it er
Ġc ow
Ġc row
Ġc rim
Ġc ert
Ġd it
Ġd ash
Ġd yed
Ġhi nds
Ġin k
Ġin s
Ġin asmuch
Ġp av
at or
at ing
at hites
an n
ar ite
ar ned
Ġbe head
Ġbe eves
Ġbe mo
om ed
el zebub
Ġha p
Ġl ump
Ġsha ven
Ġsha kes
ot am
as per
ĠJ abb
ĠL e
ĠL est
Ġsa ves
Ġfor ced
le e
od ice
ĠG a
ĠG ir
ĠG ab
ir ts
al ah
al iel
ere sh
ĠP ath
ĠP repare
Ġre alm
Ġwhi les
ro at
ur ance
Ġth orn
Ġth read
Ġth rew
Ġth roat
Ġan t
ĠM ere
ĠM all
ĠM ol
ĠIs hi
ĠC om
ĠC her
ĠC ush
Ġcom par
Ġst out
Ġst ub
Ġst op
Ġst uck
Ġst ony
il pah
ĠD is
ĠD ishon
ĠD raw
Ġsp ran
Ġout casts
ĠN ic
ĠN im
um ah
um erable
Ġpe cul
ĠH u
Ġde gree
Ġwe aver
ĠB inn
Ġdo ers
Ġhear th
Ġv ol
Ġoff enses
all owed
Ġchild less
ĠK or
ok es
Ġr ough
Ġr ider
Ġr ides
Ġsh one
Ġkn ead
ĠR aam
ĠEz ion
Ġab ility
Ġno ond
Ġpl ot
Ġpl aster
Ġso les
Ġne g
ĠT O
ĠT em
ĠT aan
ĠT arry
ĠT ola
Ġj aw
Ġj avel
Ġj asper
ol is
Ġ6 7
Ġri ot
Ġpr un
res h
Ġsu cc
Ġsu nder
ĠO ut
ĠO reb
Ġ11 0
ill a
Ġ8 7
ath p
hn i
ĠZ ar
ĠZ ilpah
pp er
Ġ14 2
ĠW ord
Ġ12 0
Ġla ught
Ġco ll
Ġsw im
Ġsin cerity
Ġwork mans
ĠAb id
ef iled
ust us
ust ers
Ġset tled
Ġspe eches
Ġfe athers
Ġgl itter
Ġper tains
Ġsm ith
Ġfo es
Ġfo xes
Ġrem ai
Ġun se
Ġdes er
Ġro e
Ġex ped
Ġex chan
Ġfl ag
Ġsc ab
Ġsc our
Ġlaw giver
Ġdis perse
Ġcl im
Ġcl usters
Ġdr own
Ġpray s
Ġret ain
Ġdestroy er
hab le
Ġcan ker
Ġreturn s
Ġra w
Ġra vished
Ġra zor
Ġrep len
Ġdead ly
Ġlight en
Ġlight ly
Ġpres umpt
Ġmeat s
Ġqu ite
Ġqu iver
Ġsec ure
ĠWhat ever
Ġad j
Ġad m
Ġpra ct
Ġbes ides
Ġask ing
Ġcertain ty
Ġdev oted
Ġgar ris
As k
aid a
Ġcam ps
Ġfar mer
Ġspoil ers
Ġdiv iding
Ġdiv iners
Ġtell s
Ġcorn et
Ġsuff ice
ĠU rim
Ġsun k
Ġdef raud
har s
Ġsk y
Ġsk irts
Ġref rained
Ġref rain
ĠSha l
ĠSha ron
op otam
How l
Ġprophes ies
Ġslay ing
Ġcr ushed
ĠBe elzebub
Ġfoot ed
ĠShi lon
Ġfeast ing
ĠNo ph
Ġres c
Ġmess age
Ġcomf orts
semb le
Ġstret ches
Ġsound ing
Ġsold ier
Ġperfect ly
Ġce asing
Ġsupp osing
Ġass urance
iat or
ĠBet haven
ĠAn swer
Ġsleep s
Ġblind ness
Ġcreat e
Ġhast ened
Ġminist ration
Ġì Ĥ¬
Ġgriev ously
Ġworshi ppers
ĠChalde a
ĠMa on
Ġcrown ed
Ġstrengthen s
ĠShem a
Ġcorrupt ible
Ġdam age
Ġmis ery
arm uth
ĠShec haniah
Ġhousehold s
ĠMes opotam
Ġtempt ing
Th ree
Ġnin et
Ġweak ness
ìĿ Ģ
Ġhard ness
ĠAz ekah
ĠAz maveth
Ġhumb les
Ġinn umerable
Ġdro pped
Ġlad en
ĠDo es
Ġfig ure
Ġroot ed
Ġyield ing
Ġharl ots
Ġlangu ages
Ġë ³
ĠGed or
Ġtravail s
Ġsell s
Ġconfess ed
Ġcommun e
ĠLot an
Ġpalm s
Ġmel ts
Ġdrunk ard
Ġroom s
Ġnob le
ĠBeths aida
Ġdrunken ness
Ġhypocr is
Ġmed iator
ĠEn os
Ġsor ts
Ġrev olted
Ġwrong fully
Ġnat ivity
Ġrebuk es
Ġsel ves
Ġstore h
ìĿ´ ëĭ¤
Ġmention ed
Ġprove nder
ĠPel eg
Ġplay ing
ĠZac cur
Ġbottom less
ĠAh inoam
Ġcustom s
Ġkins men
ĠCain an
Ġprincipal ities
ĠLa ish
ĠLa odice
ĠAch bor
ĠMicha iah
Ġfashi oned
Ġcontent ions
Ġacknow led
Ġpull ed
stra ked
ĠZo an
Ġrecon ciled
Jud ge
Ġwithd ra
ĠSheb aniah
Ġtoken s
Ġdan cing
Ġorn ament
Ġtro ops
Ġsteward s
crib ed
Ġdress ed
Ġreven ger
Ġring straked
Ġhoof s
Ġquicken ed
ĠArab ia
Ġbefall en
Sh ow
Ġreli eve
Ġcompl aint
Ġda wn
Ġisland s
Ġund efiled
Ġsigh ing
ĠEsht aol
Ġevid ence
ĠĠĠĠĠĠĠĠĠĠĠĠĠĠĠĠ ĠĠĠĠĠĠĠĠĠĠĠĠĠĠĠĠ
Ġsoft ly
Ġoverse er
Ġoccup ied
Ġpsalm s
Ġham mer
Ġhouseto p
Ġhouseto ps
Ġsom ething
Ġwol ves
Ġfornic ators
Ġstoop ed
Ġalien ated
Ġgnas hing
Ġclo ak
Ġrobber y
Ġod ors
Ġdemand ed
Ġswell ing
Ġdivor ce
Ġvirt ue
ĠMerib ah
Tr ust
Ġdet est
Ġpom p
Ġpott age
Ġew e
ĠSamarit ans
ĠMahal aleel
Ġgrassho ppers
ĠStep hen
ĠZipp or
Ġturtled oves
Ġmidw ives
ìħ ¨
Ġfisher s
ĠJec oniah
Ġeg gs
ĠGam aliel
Ġissu ed
ĠHav ilah
Ġwitch cra
Ġcrafts men
ĠPelet hites
Ġdaub ed
Ġwed ding
Ġfra gments
ĠJam in
ĠShis hak
ĠAri och
Ġhum ility
Ġattent ive
Ġsolit ary
Ġsooths ay
Ġprot est
ĠOth niel
Ġoverwhel med
ĠEln athan
ĠShin ar
Ġunprofit able
cript ion
zad ak
Ġtet rarch
Ġafore time
Ġwel fare
Ġmaim ed
Ġpav il
Ġbehead ed
ĠJabb ok
ĠGir gas
Ġstub born
Ġspran g
Ġpecul iar
ĠBinn ui
Ġnoond ay
Ġjavel in
Ġlaught er
Ġworkmans hip
Ġremai nder
Ġexped ient
Ġgarris ons
ĠMesopotam ia
7 3
B en
D raw
D epart
E S
E li
E ither
F in
F lee
G reet
H el
J os
M o
M ar
O ther
P r
P er
P ass
P ray
R ight
R ep
S US
W as
b on
b ed
b ah
b uk
d ish
e eb
e opard
f ers
f ted
g rim
g lah
i k
i ath
i ph
l or
l ory
m bs
m asters
n ets
o es
p elah
r oth
r owed
s ah
t ings
u ps
v ai
v iousness
w ear
w hich
z ap
» ĺ
ê »ĺ
Ħ ľ
Ġt a
Ġt all
Ġt ails
Ġa ct
Ġa vo
Ġs ard
Ġs odden
in ates
Ġw et
Ġw ake
Ġw are
Ġw aved
re ason
re rs
Ġb on
Ġb ay
Ġb ol
Ġb ath
Ġb rib
Ġb alm
hi mon
er ate
Ġm and
Ġm ote
Ġf ade
Ġf ug
Ġf urious
Ġf olk
Ġto e
Ġto ler
Ġto mbs
or ter
it a
it al
it ful
Ġc ister
Ġc aves
Ġc ups
on ic
on ium
ed i
ed ech
Ġd ying
Ġd ances
Ġd oted
Ġhe el
Ġin formed
Ġp aid
is ho
is ement
at ah
at iah
at har
Ġn av
an oah
ar n
ĠI b
ĠI d
Ġha ven
Ġl as
Ġl ain
Ġl uc
as ah
ĠJ ar
ĠJ ek
ĠJ ared
ĠJ aal
ĠJ ael
ĠJ avan
ĠL ud
Ġg our
ut ion
Ġfor ts
le ct
Ġe mer
am ple
ld ren
ĠG em
ĠG idd
ĠG ihon
ay s
Ġis le
ch o
ch ol
Ġwith stood
ir ath
ent imes
ho l
ri ages
ri kam
et ed
ra kes
ere th
ĠE m
ĠE nt
ĠS hed
ĠS hur
ĠS irs
ĠS uffer
ĠP ot
ĠP ray
ĠP ris
ĠP ahath
ĠP irath
st er
st ain
ĠA v
ĠA qu
ĠA then
ĠA riel
Ġre he
Ġre ar
Ġwhi sp
Ġth reat
Ġh un
ĠM is
ĠM ar
ĠM ass
ĠC ep
ĠC hittim
Ġse ers
il a
il n
Ġman ag
Ġman ners
Ġman kind
if ic
if ter
Ġbr ink
ĠD rink
ĠD estroy
Ġsp ied
Ġsp ouse
ĠN ob
ĠN aioth
ĠH att
ĠH ig
Ġby word
ĠB es
ĠB ak
ĠB eb
ĠB uz
ĠB ukk
ĠB elshazzar
Ġag ree
ab er
to l
ĠK ib
ĠK ishon
ĠK ING
ek od
ev ing
Ġam end
Ġbefore hand
Ġr ub
Ġr ank
Ġr oughly
Ġat tain
Ġkn it
Ġkn ee
Ġkn ife
Ġli ce
Ġab ated
em p
em oth
em ned
Ġpl ates
our y
ĠT ish
ĠT alm
ĠT appuah
Ġj aws
Ġj eopard
Ġshe arers
Ġtw ins
av ah
Ġpro of
Ġsu per
Ġsu cce
Ġlo at
Ġserv ing
Ġour s
ĠZ eeb
ec her
ĠJes himon
ĠW ould
Ġ12 6
Ġ12 8
Ġbrother ly
ĠJos es
ĠJos edech
Ġsw ifter
Ġsin k
Ġdi re
Ġway faring
Ġbu nd
Ġ15 0
ĠAb ib
ĠJe hon
ĠJe hud
Ġar t
ph y
ĠCor inth
Ġcha se
Ġper ce
Ġper vers
Ġun less
Ġro pes
un ity
Ġex cus
Ġex cel
Ġfl int
Ġfl atters
Ġfl anks
Ġsc ra
are el
ag ed
ag ger
ever s
Ġcl ap
Ġcl ods
Ġdr ams
Ġcast les
Ġfa ire
Ġfa irs
Ġsl ug
ĠAs aiah
ci viousness
Ġgold smith
Ġjudg ing
Ġbo at
Ġle opard
Ġret ained
Ġseven fold
Ġpar cel
ru itful
Ġhigh ly
Ġhow ling
Ġent ice
Ġrep utation
ĠF riend
ort unity
Ġrest itut
Ġrece iving
Ġgr ate
Ġcut s
Ġinc urable
ret ched
Ġcomp el
Ġcomp elled
ia el
Ġel ection
Ġwar med
Ġinherit ed
Ġopen ing
Ġstran g
Ġqu it
Ġad o
Ġad orn
Ġten ons
Ġhid ing
Ġsal utation
Ġbes et
ĠJeho hanan
hem ath
Ġconf ed
ĠEl im
ĠEl imelech
Ġgar n
Ġchar ges
Ġcho ked
Ġpit ied
Ġpi pes
ĠRe joice
ĠRe hum
Ġpleas es
Ġdiv ision
ĠMoab itess
Ġhel ps
Ġred dish
Ġread ing
ĠMan ass
Ġprov oking
ĠU n
ĠU r
Ġreb els
ĠAr p
Ġrepro b
Ġtong s
aac hah
Ġdef ied
Ġcloud y
ĠAss hur
ĠGalat ia
Ġdece ives
Ġgu ests
Ġfast en
ĠThessal onic
Ġprophes ying
Ġfors akes
ĠBe eroth
Ġprof its
Ġstre wed
Ġneed ful
oc ations
ĠBaal peor
Ġplag ued
Ġescap es
Ġhor rible
Ġter rib
Ġter aphim
Ġfur b
Ġcor rect
Ġap othe
ĠPhilipp i
Ġappear ing
Ġbed cham
ĠAhi o
ĠAhi ezer
Ġassemb lies
ĠEdom ite
Ġsuffer ing
Ġgird les
ĠGib beth
Ġprosp ect
Ġtra ff
Ġsleep ing
Ġsepar ates
Ġdisc ouraged
Ġì °
Ġì Ħ
Ġwatch ing
Ġworshi ps
Ġcal m
Ġdevour ing
Ġcle fts
Ġtar get
Ġjoin ts
ĠHebron ites
Ġwo olen
Ġthink s
ĠWhere in
rim mon
Ġlep ers
Ġlep rous
Ġpoll s
Ġlow ly
Ġreve als
Ġweight s
ĠBas hemath
Ġunle arned
Ġprofit ed
ĠHaz ars
ĠHaz eroth
Ġexec utes
Ġfill s
Ġcre ation
ĠAz el
ĠAz rikam
Ġpurp oses
ae us
With out
Ġmark ed
Ġdro ps
Ġdig n
Ġlod ging
Ġmet e
ĠHerod ias
ĠElias aph
Ġfurn ished
Ġchast ised
rez er
Ġliken ed
Ġexp ounded
Ġlangu ish
Ġstumb led
Ġblasphem ies
Ġpor ter
Ġaccom pan
Ġfro st
Ġconfess ion
Ġcommun ication
ĠAc han
ĠAi jalon
ĠGibeon ites
Ġdrunk ards
Ġsto le
Ġwand ers
Ġwand ering
Ġhapp ens
ĠBeths hean
Ġvali antly
Ġsor c
Ġoft entimes
Ġrev ived
Ġmemb er
Ġmemor y
ĠAbi ezer
ĠAbi hail
Ġenv ied
Ġimag inations
ĠKirj athar
Ġfort ify
ĠSal ah
ĠSal mon
Ġbeha ve
ĠMed ia
Ġupper most
ĠKen ite
ĠSham mah
Ġpool s
ĠKe ep
ĠRem ember
ĠRep haim
Ġblack ness
Ġunbeli eving
Ġadv ant
Ġpublic an
ĠLa adan
ĠHos anna
Ġcontend ed
Ġlean ed
Ġow ls
Ġglean ed
Ġmyr tle
Ġwithd rew
Ġeffect ual
Ġtri al
Ġoak s
Ġdan ced
ĠLy stra
Ġcommend ed
Ġdesir ous
Ġexam ined
Ġdisob edience
St and
Ġnour ish
ĠJok tan
Ġblot ted
Ġfold s
Ġmedit ation
ĠArab ians
Ġhed ges
Ġconce al
ĠTeman ite
mo ab
Ġur ged
Ġur inates
Ġexerc ised
ĠShim ron
Ġengra vings
ê² Į
Ġsav oury
Ġagre ement
Ġsevent eenth
ĠEsht em
Ġrenew ed
Ġbab e
Ġoverse ers
Ġchamberl ain
Ġpatient ly
ĠJahaz iel
Ġdimin ished
ĠJE SUS
ĠTek oa
Ġdistrib uted
ĠAholib ah
Ġwol f
Ġbere ave
Ġbere aved
ĠGol iath
Jo hn
Ġbount ifully
ĠDel aiah
ĠZab di
Ġchasten ing
Ġê·¸ ë¦
ìł ģ
Ġtale bearer
Ġhal t
Ġlev y
Ġcost ly
Ġexper t
ĠEsh col
ĠShamm ai
Ġphys icians
rehend ed
Ġmal ice
Ġpil grim
Ġrevil ed
Ġconstra ined
ĠTro as
Ġgreed y
Ġexpress ed
ĠEng edi
ĠBu y
ĠBig vai
Ġsmo oth
Ġunic orn
Ġsubtle ty
Ġsnuff ers
Ġpuff ed
Ġsorce rers
Ġassured ly
Ġtask masters
Īì Ī
Ġbeck oned
ĠIc onium
ĠMach pelah
ĠMethus elah
Ġunf ruitful
Ġdisquiet ed
Ġimm ortal
Ġenlight ened
ĠSephar vaim
ì¡ °
Ġbatt les
Ġdit ch
Ġbemo an
Ġhap ly
ĠMere moth
ĠTaan ach
ĠZar hites
Ġglitter ing
Ġdeser ts
Ġexchan ge
Ġcanker worm
Ġpresumpt uously
Ġhypocris y
Ġwithdra wn
Ġdetest able
Ġsoothsay ers
Fin ally
Mo ab
Right eous
zap han
Ġbon nets
Ġbol ster
Ġmand rakes
Ġfug it
Ġtoler able
Ġnav y
Ġlas civiousness
Ġluc re
Ġemer ald
ĠPris c
ĠPahath moab
ĠAqu ila
ĠCep has
Ġmanag er
ĠBeb ai
Ġrub ies
ĠTish bite
ĠTalm ai
Ġjeopard y
Ġpervers eness
Ġslug gard
Ġrestitut ion
ĠThessalonic a
Ġapothe c
Ġbedcham ber
ĠGibbeth on
ĠKirjathar ba
7 4
7 5
A H
B l
C all
C ry
E R
E gypt
G ird
H ide
L ay
M oses
N eb
O ver
P hi
P repare
Q u
R ece
S an
S aul
a ah
a ith
b el
b ra
b ack
c ran
d ess
d ol
e ur
e av
e ase
f olk
g or
g ob
h ors
i oth
i ken
i athan
k ah
m p
o im
o hn
o ving
o vers
p hi
p ing
p ham
p lic
p hni
r ha
r ant
r ites
r ince
t har
u ar
v an
w k
w arks
¤ ëıĦ
¨ ê»ĺ
½ ì¡°
ë §
ë ©´
ì ķ
í ĥ
Ġ '
Ĭ ¤ëıĦ
Ĳ ľ
ĸ ´
Ļ Ģ
Ġt in
Ġt ries
he g
Ġa right
nd ers
Ġs ur
Ġs our
Ġs qu
Ġs odom
Ġo mer
in a
in ent
in ces
in nah
Ġw ink
Ġw akes
re ak
re te
ou rage
Ġb abb
Ġb isho
Ġm ild
es er
Ġf el
Ġf uel
Ġf are
Ġf ins
Ġf ables
Ġy ell
or ies
or la
it or
Ġc el
Ġc ure
Ġc irc
on ti
en gers
Ġd ar
Ġd ashed
Ġp ac
Ġp ence
Ġp ained
is c
is hua
is ome
is ible
hat ha
hat ta
om en
ĠI j
ĠI ra
el iness
Ġha ber
Ġha wk
Ġl ur
Ġl int
Ġl ily
as ure
ĠJ ason
ĠJ armuth
ĠL ift
ĠL ook
Ġg ains
Ġg erah
Ġg ushed
id ents
Ġsa int
us ter
us han
am on
am mon
am phy
od em
od ach
ĠG all
ĠG ood
ĠG un
ah urim
her ah
Ġnot able
ir a
ri x
ri ved
et ha
et ur
et ime
ra ced
ere z
ere rs
ĠS en
ĠS hittim
ĠS idonians
ĠS wear
Ġall ow
ĠP al
ĠP ag
ĠP edah
ĠP urim
ĠP isgah
ĠP allu
ĠP rince
ĠP amphy
ĠP erez
ke m
st al
st ead
ĠA iah
ĠA pp
ĠA way
ĠA his
ĠA zz
ĠA gain
Ġre venge
ad ad
Ġwhi t
Ġwhi ps
The m
Ġth rong
ĠM E
ĠM ith
ĠM agog
ĠM arah
Ġthere upon
Ġwill ows
ĠC on
ĠC al
ĠC hed
ĠC rete
Ġfr ame
Ġse ct
Ġse iz
ers cription
Ġcom eliness
ĠJo iar
ĠJo zadak
Ġst ud
Ġst ring
Ġst ork
Ġst ories
Ġbr amb
ĠD em
ĠD ian
ĠD oe
ĠD eliver
Ġsp ice
Ġsp ots
Ġsp ecially
ĠN evertheless
ĠN ims
um iel
Ġal oes
Ġup side
ĠH em
ĠH ew
ĠH ail
ĠH azar
ĠH onor
Ġde ac
ĠB less
ĠB ild
ĠB eware
ĠB echer
ĠB ahurim
ear ch
to cks
ac le
ul ar
Ġv iv
Ġoff ices
ak ers
ev ous
Ġcon st
Ġcon tained
Ġland m
ous ed
Ġr ot
Ġr ate
Ġr ump
Ġat t
Ġkn ock
Ġkn ives
Ġli vely
Ġab ounded
Ġab olished
Ġab stain
Ġab hors
Ġpl owed
ĠJere moth
ĠT r
ĠT irs
ĠT ahath
ĠT almon
Ġj oint
Ġear ring
Ġ7 0
Ġri b
Ġri gor
Ġpro c
Ġpro cess
Ġsu ng
ĠO z
ĠO phel
ĠO cran
Ġ10 0
Ġho ar
Ġlo g
Ġlo ft
Ġlo athe
Ġ9 3
Ġtr ough
Ġtr ance
ĠZ or
ĠZ em
ĠZ ered
ĠZ uar
Ġdown ward
ale h
Ġpass ages
Ġpass engers
Ġearth ly
ĠJes haiah
li a
li p
ĠW hether
Ġ12 5
Ġ12 7
Ġla p
Ġla vers
qu ire
nder stand
Ġsw add
Ġany thing
Ġfi xed
Ġbu ff
ĠAb ishua
Ġbre eches
Ġar rog
Ġbl ade
Ġbl asting
Ġwr ing
Ġspe w
Ġfe ign
Ġsm iting
Ġsm oking
Ġrem oves
Ġrem oving
Ġun s
Ġen ri
Ġro es
Ġro eb
Ġro ared
Ġown ers
Ġex tend
rist arch
Ġsc um
Ġsc orns
are b
Ġdis semb
Ġdis allowed
Ġfire bra
me on
Ġcl uster
Ġsl and
Ġsl ander
ci le
Ġfound er
Ġtab rets
Ġend ued
Ġle aving
Ġapp ertain
idd ing
ĠRom an
Ġpar lor
ai us
ap e
ap olis
Ġtrib ut
Ġra is
Ġbet imes
Ġent ang
az im
az zar
Ġrep ents
ful ness
ĠF eed
Ġgra fted
Ġrest s
Ġrest ing
ran ged
Ġlight er
Ġlight ened
Ġgod dess
Ġcut ting
Ġpres idents
Ġcomp ared
Ġmo ving
Ġsi ze
ĠShe thar
Ġwar fare
Ġhar ness
Ġwa res
Ġwa fers
Ġcont enti
Ġseed s
ĠPhara ohn
Ġsanct ification
Ġte nds
ĠEli zur
Ġsub ver
Ġwall ow
Ġpur se
Ġsal utes
ĠTim nah
Ġhere in
Ġhere by
ĠJeho s
Ġob lations
Ġconf ound
Ġexce ed
ĠEl ath
Ġhold ing
Ġpit chers
Ġcry stal
Ġest ranged
ĠMo za
ĠRe u
ĠRe habiah
ĠRe kem
Ġspoil ing
ĠGo zan
ĠEp hah
Ġtest ifies
Ġsuff ers
med atha
Ġutter ance
Ġtransgress or
ĠAr gob
Ġste ep
Ġmar ch
Ġmar red
Ġmar row
Ġmar ble
Ġmar iners
ĠEphraim ites
Ġclean ness
Ġdef y
Ġord ain
Ġconsum ption
ĠIt al
Ġsk ies
Ġsk ull
ĠHo ld
ĠHo phni
Ġref ined
ĠAss ir
Ġcontinu es
Ġcontinu ance
Ġkill ing
ĠSha al
Ġdecl ine
Ġdra ught
Ġgu ided
ĠAd in
ĠAd mah
ĠHam medatha
Ġslay s
Ġsanctu aries
Ġmust ard
Ġestabl ishes
ĠBe fore
Ġcompass es
Ġgri eve
ĠNa hath
ĠNo e
Ġprom ote
Ġprom oted
Ġpresent ly
Ġspread ing
Ġopp ortunity
Ġres orted
ĠBaal hanan
Ġsound ness
Ġfore part
sha i
Ġoppress es
Ġfur long
Ġsweet ness
Ġsupp ly
Ġrememb ers
Ġsit u
Ġfight s
Ġhorse back
ĠAhi ra
ĠAhi lud
chi cus
Ġcharge able
Ġvi als
Ġtop az
ĠZeb oim
Ġblind ed
ĠHan och
Ġì Ŀ
Ġworshi pping
Ġreason ing
Ġhair y
ĠEle aleh
Ġbas in
Ġled ges
ĠIsh meel
ĠZer ahiah
Ġcomfort ers
Ġcomfort ably
Ġgro pe
Ġenc ouraged
Ġforb ade
Ġnet tles
Th ink
ĠMer aioth
ĠTy chicus
Ġsince re
Ġcre w
pht or
Ġpursu ers
ĠHagg ith
Ġaw are
Ġmark s
ĠEt am
Ġdoctr ines
ĠSe ek
ĠCa phtor
ĠHar arite
Ġbra ke
Ġpat ri
Ġmischi evous
ĠJa az
Ġoverth rows
Ġbar n
Ġchast ens
Ġchast isement
Ġbelong ing
ĠJezreel itess
Ġadul teries
Ġblasphem es
Ġwant on
Ġtravail ed
Ġpress es
Ġinnoc ence
Ġche eks
Ġperver ts
Ġperver ted
ĠGideon i
Ġdep uty
Ġlack s
ĠHas hub
ĠEn an
Ġascend ing
Ġdisp ut
Ġdisp uted
Ġdisp uting
Ġhail stones
Ġsim plic
ĠAbi jam
ĠAmm iel
ĠAmm ishaddai
Ġenv ying
ĠPers ians
Ġdisple ase
Ġdisple asure
ĠJed iael
ĠAra d
Ġvict ual
ĠOn o
aren es
ĠCarmel ite
Ġcust ody
ĠAbisha g
Ġcontr ite
Ġoint ments
ĠPe or
ĠMed eba
Ġsuck ing
Ġmock s
Ġmock ing
Ġmock ers
ĠLib y
ĠLib ni
ĠAho hite
ĠAho lah
Ġoverfl owed
Ġburdens ome
ĠGom er
ĠSh ut
ĠHus hathite
ĠTh ummim
ĠTars us
ĠNaam ah
Ġbud ded
ĠHel on
Ġspring ing
Ġmyst eries
ĠRep ent
ĠRep haiah
ĠRep hid
Ġcourage ous
ĠAch or
ĠHos ah
Ġlean ness
Ġbef ell
Ġemb raced
Ġcruel ty
Ġtrad e
Ġtrad ed
Ġrequest ed
ĠGomor rha
Ġglean ing
ĠAmas ai
ĠElip helet
Ġrecon cile
Ġclear ly
ĠPerizz ite
Ġpots her
ĠShu ah
ĠShu hite
ĠPar osh
Ġconsent ed
iam in
Ġadultere ss
Ġdoubt less
Ġbank s
Ġraven s
Ġraven ing
ĠAholi ab
Ġconce it
ĠShel umiel
ĠJap hia
Ġreli gion
Ġspit efully
Ġbuck lers
Ġinv aded
Ġinv isible
Ġhaught iness
Ġund one
Ġovers had
Ġevid ent
Ġdebt ors
la ud
Ġsed uc
Ġsed ition
Ġsli p
Ġpound s
Ġesp oused
Ġoccup ation
ëĬĶ ê²ĥ
arc hable
ĠShes han
Ġhandful s
ĠTek o
Ġdelic ate
ĠEphr ath
ĠEphr atah
Ġforesk ins
Ġdistrib ute
pan hes
Ġblast ed
ĠAgag ite
Ġambassad or
ĠGeshur ites
El se
Ġhind ered
ĠJas hub
Ġunt emp
ĠDel ilah
Ġclo ven
Ġadmon ished
Ġlev iathan
Ġrid ers
Ġidolat ers
Ġdecre ed
Ġcraft iness
ĠEbed melech
ìĹĲ ê²Į
Ġphys ician
Ġrotten ness
ĠTah panhes
Ġsup erscription
ĠZur ishaddai
Ġtambour ine
Ġtambour ines
ëĵ ¤
Ġbul warks
Ġmat rix
Ġgent le
ĠAlex ander
ĠChen aanah
ĠDod o
Ġdisgu ised
Ġincorrupt ible
Ġterrif y
ĠAlpha eus
ĠMalchi jah
Ġmedd le
Ġbenef it
ìľ¼ë ¡ľ
Ġcaterpill ar
¬ì Ĭ¤ëıĦ
Ġíķ ¨ê»ĺ
Ġsine ws
Ġinvent ions
Ġevent ide
Ġthist le
ĠHash um
Ġswarm s
Ġperple xed
Ġprefer red
Ġbegu iled
Ġlawy ers
ĠGalilae ans
ĠArchi te
Ġvehement ly
Ġê³ Ħ
Ġfou l
Ġcrim son
Ġcert ify
Ġins urrection
ĠPath ros
Ġant ich
ĠMall uch
ĠDis han
Ġvol unt
ĠRaam ah
ĠTem a
ĠAbid an
Ġunse archable
Ġdrown ed
Ġreplen ished
Ġadj ure
ĠShilon ite
Ġstoreh ouses
ĠLaodice a
Ġdawn ing
ĠGirgas hites
roth hatta
Ġgour d
ĠGem ariah
ĠShed eur
ĠPot ip
ĠPirath onite
ĠAthen s
ĠHig hest
ĠBak buk
ĠKib rothhatta
Ġado ption
Ġgarn ished
Ġfurb ished
Ġtraff ic
Ġì° ½ì¡°
Ġsorc eries
ĠEshtem oa
Ġê·¸ë¦ ¬ìĬ¤ëıĦ
Ġimmortal ity
ĠPrisc illa
Neb uchad
Phi lip
San ctify
iken ard
Ġmild ew
Ġfel t
orla omer
Ġgerah s
odem us
ĠPag iel
ĠPedah zur
ĠPamphy lia
ĠChed orlaomer
ĠJoiar ib
ĠDian a
ĠDoe g
ĠNims hi
ĠBild ad
Ġviv ifies
ĠTirs hatha
Ġarrog ance
ristarch us
Ġcontenti ous
ĠPharaohn ech
Ġfurlong s
Ġsimplic ity
ĠRephid im
Ġuntemp ered
ĠKibrothhatta avah
7 6
7 7
7 8
7 9
8 0
A R
B u
B ow
B ind
C hi
C ircumc
C ease
D est
D ef
E L
G ilead
G lory
H O
H ell
L ove
L ittle
M ark
M uch
P le
P hara
R ise
S T
S er
S erv
T H
T hir
U n
V AH
W S
W ere
b et
b one
b un
b ecause
b raid
b oz
c he
c ians
c els
d y
d am
d em
e h
e ans
e ath
f ort
f rom
f act
f oot
g am
g ent
g um
g ai
g aber
i ha
j es
k in
k ath
l al
l ites
l ock
m y
m ai
m aster
m aachah
n ings
n ts
n ites
n els
n ally
p in
p hew
r as
s ation
s han
t on
t hat
t ly
t han
t hol
u ia
u him
v y
v ad
y e
y s
° Ħ
¸ °
ê °Ħ
ë Ĳľ
ì ĺ
ì ŀ
ì §Ģ
ì Ħľ
Ġ =
Ġt are
Ġa pt
Ġa vail
Ġs en
Ġs ill
Ġo per
Ġo pin
in ist
in ence
in ced
Ġw ha
Ġw ak
ha v
ha res
ha ath
ou ts
Ġb are
hi as
er be
er ior
Ġm od
Ġm ul
Ġm ice
Ġm ammon
Ġf resh
Ġy okes
Ġy arn
Ġto il
Ġto ol
it iz
Ġc red
Ġc of
Ġc ured
Ġc inn
Ġc umm
Ġc itiz
on aim
en ch
en ants
ed ad
ing es
Ġd ow
Ġd ish
Ġd are
Ġd inner
Ġhe res
Ġhe els
Ġhe als
Ġhe arers
Ġin t
Ġp red
Ġp ains
Ġp air
at hiel
at nai
at ira
Ġn ests
Ġn avel
hat haim
an c
an ced
ar a
ar ation
ar aim
ar rows
Ġbe ards
el uia
Ġsha ved
Ġsha ft
ot es
ot han
ĠJ i
ĠJ att
ĠL o
ĠL u
ĠL ay
ĠL ight
ĠL ove
Ġg ap
Ġg ross
Ġg irt
id a
ut ies
ut ton
ut enants
us ed
us hes
Ġfor ms
Ġfor tieth
am oth
am ond
ow ard
ĠG reat
ĠG ird
ĠG aius
ir ation
se pher
ho ly
ri a
ri ve
et ite
Ġk ick
ere r
Ġwi ped
ĠE at
ĠE ve
ĠE ld
ĠS i
ĠS ing
ĠS ac
ĠS ard
ĠS alem
ĠS hen
ĠS alm
ĠS eba
ĠS lay
ĠP ur
ĠP ul
ĠP hen
ĠP onti
ĠP etha
ĠP iha
st able
ĠA M
ĠA in
ĠA ter
ĠA ng
ĠA rim
ĠA ug
ĠA taroth
ĠA ristarchus
Ġre vel
ad s
ad on
ad ing
ad em
ore h
Ġth ong
Ġan ch
ĠM in
ĠM or
ĠM ess
ĠM ak
ĠM ish
Ġthere after
Ġas ps
Ġas cent
ic an
ic ular
ĠC as
ĠC ho
ĠC reat
ĠC his
ĠC hel
ĠC har
ĠC ruc
ĠC him
ĠC arry
ĠC onsider
ĠC laud
Ġfr amed
Ġcom dem
Ġst alk
Ġst rif
Ġst ump
Ġst ank
Ġst rings
Ġwhe t
ame el
Ġthi ckets
Ġbr own
ĠD umah
ĠD erbe
Ġsp ares
Ġsp arks
Ġsp ikenard
Ġsp arrows
Ġout er
Ġout most
ter ous
ĠN is
ĠN emuel
ĠN ekod
im ely
Ġal as
Ġal ter
Ġup braid
ĠIsrael ite
ĠH a
ĠH ol
Ġwe b
Ġwe ather
ĠB oc
ĠB ezer
Ġag es
est ore
ĠCh inn
ĠCh ushan
Ġchi de
ab or
ab ond
ab eel
ab zeel
ul ations
Ġv ag
Ġv ult
Ġv ined
ak an
Ġhand ed
Ġhand les
ast us
ĠK er
ĠK el
ĠK ore
ĠK etur
Ġam iss
ĠSam lah
For b
For ty
os ition
Ġr ush
Ġr anks
Ġsh od
Ġsh orn
Ġsh ower
Ġkn ocks
ĠR u
ĠR es
ĠR ames
ĠR iz
Ġli ed
Ġab ase
Ġab ased
em ents
Ġno ised
Ġno isome
ĠJud ge
Ġpl umb
Ġpl ows
our se
Ġso p
Ġne phew
ĠT a
ĠT il
ĠT ill
ĠT hy
ĠT og
ĠT wo
ĠT ouch
ĠT hars
ĠT reason
ĠT atnai
Ġj un
Ġshe ar
ep h
Ġpr int
Ġpro sely
Ġsu bs
ĠO me
Ġor g
Ġho ary
Ġho sp
bs am
Ġlo aths
Ġlo osing
Ġlo vely
ĠZ et
ĠZ are
ĠZ iz
ĠZ ip
ĠZ eresh
ĠZ anoah
ec ts
hu al
Ġpass age
Ġearth y
eb er
ĠDe uel
Ġ12 3
Ġla un
qu ent
Ġco al
Ġright ly
Ġdi amond
Ġdi adem
ĠThe ir
Ġbu n
ĠAb iah
ĠAb ia
ĠAb inoam
ĠAb arim
Ġbehold s
Ġbl ame
Ġbl own
Ġbl ows
Ġwr ung
Ġwr iter
ĠAm ong
ub ah
Ġfe igned
Ġgl utton
Ġper mit
Ġprop er
ome w
Ġun fe
Ġun wise
Ġun ruly
Ġun mar
Ġun holy
Ġen ge
Ġdes cribe
He z
He aven
Ġbeg gar
Ġex hor
Ġex cess
Ġex tol
Ġfl at
Ġfl ames
Ġfl ute
Ġsc ape
ink ling
Ġdis pen
ham ah
Ġdr omed
Ġbur ying
ĠAs han
ĠAs hur
ĠAs semble
ĠDan ites
Ġtab ret
Ġend eav
erc y
Ġbo ot
Ġbo asts
Ġle es
Ġle nds
ress ers
Ġdestroy ers
Ġapp etite
idd im
Ġreturn ing
Ġtrib ulations
Ġra ce
Ġra gs
Ġra ging
Ġra iling
Ġhow soever
Ġgat here
oss ess
az in
ĠF ill
Ġglory ing
Ġfall ow
Ġdeath s
Ġcar bun
Ġcar nally
Ġsil k
Ġfaith less
ps es
Ġgr ud
Ġcomp are
Ġel ements
Ġfull er
Ġcont emned
In cl
ars ed
Ġcovenant ed
ĠBabylon ians
Ġrej ect
Ġqu ake
Ġqu ails
Ġconc ern
Ġconc lud
ber ry
Ġsanct ifies
Ġad ds
oub le
ĠEli zaphan
Ġpart ly
Ġpart ial
Ġpart icular
cl aim
Ġfif tieth
Ġlong s
Ġwall ed
Ġsal ted
ĠTim na
ĠJeho zabad
Ġconf erred
ĠEl p
ĠEl hanan
Ġaff ect
Ġcoun cel
Ġpi pe
Ġpi ped
Ġpi erce
Ġbod ily
Ġfar ther
bb im
Ġjoy ous
Ġsheep fold
hel ah
ĠEp her
ĠEp aph
iz im
Ġtrans l
Ġwitness ed
jam in
Ġjust ifies
Ġread s
ne am
ĠU N
ĠU lam
Ġbow ing
Ġtransgress es
ĠCan a
ĠAr d
ĠAr ah
ĠAr vad
Ġste el
Ġmar ries
Ġrepro ves
ĠSpirit s
Ġord ered
Ġconsum es
ĠBeth zur
ĠBeth peor
ĠBeth jes
Ġsk i
ĠHo glah
Ġlie utenants
Ġsign ed
Ġsign ify
Ġsign ifying
Ġcontinu ing
Ġdecl ines
Ġdecl ares
Ġdecl aration
here th
ĠAd ram
Ġfast ings
Ġpill ows
Ġmourn ers
ĠHam ul
Ġcaus ing
ip er
Ġbegin nings
Ġcr ush
ĠBe aut
ĠNa hal
Ġswe pt
Ġswe ep
Ġres ort
Ġres ists
ĠBaal ah
ĠBaal ath
ĠBaal per
ĠBaal zebub
ĠAmmon itess
Ġesc hew
Ġcomf orter
Ġdream er
Ġfore ign
Ġdri ves
Ġdri ving
Ġcor re
Ġcor mor
Ġcor pses
Ġsupp orts
eal th
Ġass ayed
Al though
au nt
iat haim
ĠGilead ites
ĠAhi ah
ĠAhi man
Ġsore s
ĠBar thol
Ġvan ish
Ġac cepts
Ġgird s
ba oth
Ġprosp ers
Ġtra p
Ġweep s
Ġdisc reet
ĠHan ameel
Ġì §
Ġì ĭ
Ġì ŀ
Ġì ł
Ġì ŀĲ
Ġlabor ing
Ġgovern ment
pl oy
ĠEle asah
ĠOb oth
ĠOb ey
Ġreg ions
ĠJez er
Ġvisit ing
Ġed ges
Ġed ification
Ġbeat ing
Ġleng then
Ġdeep s
Ġsmell ing
ĠShem iram
Ġappe aled
Ġtremb les
Ġkindness es
Ġwo ven
Ġbaptiz ing
Ġden ud
Ġden ies
Ġden ying
arm ah
Ġenc ourage
Ġfavor able
Ġsack but
Ġhousehold er
Ġcond uit
Where unto
ĠUzz ah
Ġran ges
Ġtrumpet ers
ìĿ ¸
ĠHaz aren
ĠRehob oth
Ġapostles hip
for ter
Ġforget s
ĠAz gad
ĠAz areel
ĠAz ubah
Ġdoub ted
Ġdoub led
Ġdoub ting
Ġsprink ling
ĠAsh bel
Ġthirst s
Ġconsider ing
Ġwidow hood
Ġbind ing
Ġem inent
Ġem ploy
Ġswear ing
With hold
Ġmir y
Ġmark ets
Ġlad y
Ġlad ed
ĠEt ham
Ġhy m
ĠSe ven
ĠAll eluia
Ġreap s
Ġreap ed
Ġthres h
ĠMiz raim
Ġbra w
Ġadd er
Ġforgi ving
Ġbreat he
Ġbreat hed
ĠJa ph
ĠShime ah
ĠBethlehem ite
ĠKo z
itting ly
ĠKir iathaim
Ġcloth s
Ġsearch ing
Ġbar bar
Ġbar ns
Ġmale fact
Ġfurn ish
Ġperform es
íķ ľ
Ġyield s
Ġval ued
Ġexp elled
Ġtread ing
Ġstumb les
Ġadul terous
ĠGed er
ĠNathan ael
Ġharden s
Ġcare fully
Ġinf erior
Ġsell er
Ġthick ness
Ġcommun ion
Ġtreasure rs
Ġmurd ers
Ġmel ody
Ġflo ors
Ġappoint ment
Ġwonder fully
Ġbus y
Ġsto ps
Ġhapp en
ĠJab ez
Ġconsecr ations
Ġmed ic
ĠEn rog
Ġdisp osed
Ġdisp ossess
Ġignor antly
Ġrev olt
Ġblow ing
Ġappro ve
Ġimp over
Ġimp rison
ĠGre et
ĠGre cians
ĠGath rimmon
Ġenv ious
Ġscorn ers
Ġfort ified
Ġê °Ģ
Ġlus ted
ĠSal vation
ĠSal athiel
ĠOn es
ĠOn am
Ġgracious ly
Ġbri cks
ĠHor i
ĠHor onaim
Ġsuck lings
Ġpubl ishes
Ġungod liness
ĠSham ir
Ġdedic ate
Ġcra fty
Ġgall eries
ĠSh ow
ĠPel atiah
ĠMaac hathites
ĠMaac hathite
Ġexhort ing
ĠHus ham
ĠHus him
ĠHere by
ĠZac hariah
Ġpriv y
ĠNaam athite
Ġerr ors
go at
Ġfaul ts
atha ea
ĠHel ez
Ġconv inced
Ġfurther more
Ġforbear ing
hir oth
ĠChe phi
Ġunbeli evers
Ġadv anced
Ġfre ed
ĠAch zib
ĠAch sah
Ġrend ered
Ġrele ased
ĠKirjath sepher
Ġfashi ons
Ġow e
Ġswift ly
ĠUri el
Ġsickness es
Ġpersecut ions
ris hathaim
ĠSer ug
ĠZo har
Ġquar rel
Ġpan eled
ĠSil van
ĠMel chi
ĠMah lon
ĠMah lah
Ġdiscern ed
Ġtempest uous
Ġorac les
Ġfain ts
ĠBeli eve
Ġleap ing
Ġfit ly
Ġfit ches
ĠLy d
ĠLy s
Ġcommend s
Ġesteem s
Ġfootst eps
kl oth
ĠShob ab
ĠMep haath
ĠJok shan
ĠJok neam
ĠBil han
Ġplent iful
Ġfold ing
Ġenj oin
ĠArab ian
Con f
Look ing
Ġreach ing
Ġstorm y
Ġcock at
Ġattend ance
Ġplow ing
ĠShim shai
Ġbacksl idings
ĠRechab ites
Ġcheer ful
Ġdebt or
Ġsli ps
Ġwreat h
ĠGer izim
Ġkin sw
Ġcontempt ible
Ġlabore r
Ġesp ecially
ĠHanan eel
Ġinterpre ter
Ġham st
ĠJE HO
ĠJE WS
Ġeas y
ĠShes hb
Ġthund ered
Ġdelic ately
ĠMeshe lemiah
hara i
ĠIth rite
ĠGol an
Ġuphold s
ĠProp het
Ġbetr oth
Ġcarpent er
ĠMi kloth
Ġunt imely
ĠNep heg
ume a
Ġadmon ish
Ex cept
Here by
Ġbell s
Ġlent ils
Ġexper ience
Ġdivor ced
Ġprofess ion
Ġidolat ry
ĠMerib baal
Ġmarket pl
Ġcareful ness
ĠShamm ua
Ġrenown ed
Hold ing
Ġsust ain
Ġpil ots
Ġlick ed
ĠChi l
ĠBeer othite
Dan iel
Ġgent leness
Ġwithhold s
ĠSab eans
ĠSib b
ĠSib mah
ĠAlex and
ĠHen adad
ĠHat ach
Ġincorrupt ion
Ġterrif ied
ĠMalchi el
Ġsharpen ed
ìĭľ ëĬĶ
Jeho i
Ġcaterpill ars
Ġsham efully
ĠMig dol
ĠJoi akim
ĠJoi ada
Ġstall s
Ġvap or
Ġvap ors
Ġvip er
Ġvip ers
Ġrud dy
ĠTib er
ĠZop har
Ġtemper ance
Ġview ed
Ġìĺ ĪìĪ
Ġcommunic ate
ĠCyren e
En ter
ann im
ĠGa ash
ĠGab riel
ĠMol adah
ĠCom forter
Ġcompar ison
ĠNim rod
ĠKor hites
ĠEzion gaber
Ġneg lect
Ġprun ing
Ġsmith s
Ġscour ged
Ġclim b
Ġadm inist
Ġpract ice
Ġdefraud ed
Ġninet eenth
Ġwitchcra fts
Ġpavil ion
Ben aiah
ES S
Jos hua
Mar vel
Other s
Pr inces
Ġta xed
Ġavo id
Ġsard ius
ital ity
Ġcister n
ĠId umea
ĠJaal am
ĠGidd el
Ġrehe arsed
Ġthreat en
Ġhun ter
ĠMass ah
ĠHatt ush
ĠBukk i
Ġsuper fl
Ġbund le
ĠJehud i
Ġart ific
Ġstrang led
Ġadorn ed
ĠArp ad
ĠHazars hual
Ġdign ity
Ġaccompan ied
Ġadvant age
Ġpilgrim age
Ġfugit ives
Ġapothec ary
Bl ow
Rece ive
aith ful
Ġsodom ites
Ġbisho p
Ġyell ow
Ġlint el
ĠGun i
ĠPal est
Ġseiz e
Ġbramb le
Ġlandm ark
Ġtrough s
Ġroeb uck
Ġtribut aries
Ġrais ins
ĠShethar boz
ĠItal y
ĠShaal b
ĠIshmeel ites
Ġpatri arch
ĠJaaz aniah
ĠShut helah
Ġpotsher d
Ġantich rist
Ġvolunt ary
Nebuchad nezzar
ĠPharaohnech oh
Chi ldren
Dest ruction
Phara oh
Serv ants
Thir ty
Ġavail s
Ġsill y
Ġbare foot
Ġmul berry
Ġcinn amon
Ġcumm in
Ġdow ry
Ġpred est
ĠJatt ir
ĠPonti us
ĠPetha hiah
ĠPiha hiroth
ĠAng el
ĠArim athaea
ĠAug ustus
Ġthong s
ĠCreat or
ĠCruc ify
ĠChim ham
Ġcomdem ns
Ġstrif es
ĠNekod a
ĠChinn ereth
ĠChushan rishathaim
Ġvag abond
Ġvined ressers
ĠKetur ah
ĠRames es
ĠRiz pah
ĠThy atira
ĠTog armah
ĠThars hish
Ġjun iper
ĠOme ga
Ġhosp itality
Ġloaths ome
Ġlaun ched
Ġunfe igned
Ġunmar ried
Ġscape goat
Ġdispen sation
Ġcarbun c
Incl ine
Ġcouncel ed
ĠBaalper azim
Ġcormor ant
ĠBarthol omew
ĠShemiram oth
ĠHazaren an
ĠEnrog el
ĠChephi rah
ĠSilvan us
ĠJEHO VAH
ĠSheshb azzar
ĠShetharboz nai
8 1
? )
A K
A N
A T
A h
A mon
A haz
A dd
B reak
C ut
C har
D es
D el
E vil
F if
F ool
G iving
H o
H ad
I S
I ra
J er
K ings
L IN
M a
M ic
M att
M ercy
N D
N E
N am
N ic
O bs
O LIN
P e
P re
P our
S ub
S ham
S uch
S aid
S ihon
S lay
S uffer
S earch
T O
T w
T re
T er
U p
U nderstand
W ash
W ealth
Z ion
Z edekiah
a it
a ham
a hel
b i
b ach
b ai
b ez
b read
c im
c ast
c hem
c har
d a
d an
d ai
d ict
d raw
e am
e iah
e qu
f ig
g ot
g ub
g ia
g als
g athp
h orn
i o
i pt
i kam
i ency
j a
j o
j air
k s
k now
l om
l ter
l ish
l its
l aim
l athaim
l athp
m i
m us
m ation
m els
m aim
n sel
o lly
o quent
p r
p us
p ans
p enes
p him
p isgah
r na
s ar
s ion
s ake
s ses
s hiah
t ha
t hi
t us
t ore
t ense
u ct
u ppim
v ide
v ior
w omen
x ity
y n
y mus
z am
z ep
z abeel
£ ¼
° íķ
² °íķ
´ ë
ê °Ģ
ë ¥
ë ¬
ì Ĥ¬
ì ŀĲ
ì ĸ´
ì ĻĢ
ì £¼
Ġ í
Ġ ice
Ģ í
Ħ ëĭ
Ħ ìĿ´
į °
Ľ Ĳ
Ŀ ¼
Ġt ing
Ġt an
Ġt rim
Ġt ax
Ġt inkling
Ġt aunt
he le
he res
Ġa ha
nd or
Ġs ch
Ġs ift
Ġs ighed
Ġs quare
Ġo h
Ġo aths
in ity
in ct
in ite
in ated
Ġw on
Ġw ards
Ġw edge
Ġw retched
ha ch
ha ir
ha ps
ha rezer
re a
re m
re es
re ph
re acher
ou nsel
Ġb or
Ġb it
Ġb at
Ġb ast
Ġb akers
hi l
hi ef
er ation
er ly
er acy
ll or
ll em
Ġm ut
Ġm idd
Ġm ort
es are
Ġto ll
Ġto mb
Ġto ss
or us
or im
or ge
or thy
it ha
it ors
it ched
it iation
it eful
Ġc at
Ġc ri
Ġc ass
Ġc rib
Ġc aul
Ġc ared
Ġc ott
on i
on ing
on ah
on tle
en ath
en ezer
ed y
Ġd ain
Ġd ul
Ġd ine
Ġd ull
Ġd aint
Ġd art
Ġd irt
Ġd agger
Ġhe ws
Ġp in
Ġp el
Ġp ant
Ġp ants
Ġp ities
Ġp ict
Ġp olished
is ons
is sed
is ition
at am
at red
Ġn umbers
Ġn ap
an es
ar ce
ar had
ar ily
Ġbe es
Ġbe arers
ĠI S
ĠI nd
ĠI ri
ĠI ble
ĠI kk
ĠI vah
el p
Ġha y
Ġha unt
Ġl ing
Ġl im
Ġl att
Ġl ade
Ġl ate
Ġsha med
ot hi
ot ion
ot ions
as ar
as hah
ĠJ an
ĠJ im
ĠJ ul
ĠJ ust
ĠJ up
ĠJ add
ĠJ ustus
ĠL ub
Ġg n
Ġg in
Ġg ut
Ġg orge
id el
ut al
ut ions
Ġsa le
Ġsa ws
Ġsa iling
ve red
Ġfor ds
le el
am iah
am ine
am ach
am ples
ĠG inn
ĠG enn
ĠG rant
ĠG areb
ĠG atam
ch oh
Ġnot e
se e
ent ec
ho s
ho lah
ri on
ri us
et hy
et imes
et rius
al med
ra i
ra nd
ra hiah
ra bbim
Ġwi ck
ĠE th
ĠE der
ĠE ndor
ĠS el
ĠS us
ĠS em
ĠS hab
ĠS op
ĠS iddim
ĠP is
ĠP at
ĠP ith
ĠP ek
ĠP ass
ĠP un
ĠP eth
ĠP ase
ĠP ont
ĠP uah
ĠP reacher
ĠP entec
ke ep
st ru
st retched
ĠA k
ĠA ven
ĠA tar
ĠA ner
ĠA lem
ĠA ccording
ĠA wake
ĠA jalon
ĠA ND
Ġre lied
Ġre verse
Ġme nd
Ġme ad
Ġme ant
Ġme ets
ad ise
ur se
ĠM as
ĠM os
ĠM em
ĠM ile
ĠM ib
ĠM oreover
ĠM inn
ĠM oreh
ord erly
and s
Ġthere at
Ġthere from
ĠIs shiah
ic al
ĠGod head
ĠC le
ĠC ause
ĠC hes
ĠC ry
ĠC oz
ĠC arc
ĠC oniah
Ġfr ay
Ġfr ust
Ġfr oward
Ġfr ontle
Ġse w
Ġse ething
Ġse vered
Ġcom ple
ĠJo g
ĠJo anna
Ġst ain
Ġst agger
Ġman s
Ġman ger
Ġbr oth
ĠD al
ĠD ec
ĠD imon
ĠD aughter
ĠD eclare
ĠD othan
Ġsp in
Ġsp ong
Ġsp ark
Ġsp illed
Ġsp ect
Ġsp ittle
Ġsp ider
Ġsp aring
Ġsp lits
ud ent
Ġout stretched
ĠN ear
ĠN one
ĠN ach
ĠN obah
Ġday time
um ed
Ġal ab
Ġal gum
Ġup held
Ġpe ac
Ġpe eled
ĠIsrael itish
ĠH ot
ĠH al
ĠH idd
ĠH achi
ĠH alah
ĠH OLIN
Ġbut tocks
Ġwe ave
ĠB ith
ĠB ern
ĠB ran
ĠB rother
ĠB amoth
Ġag ate
est ry
ĠCh or
ren ess
to b
Ġher s
ac ted
ac hah
ul on
ul ts
Ġv ent
all ed
all ai
Ġhand led
Ġhand bread
ast e
ĠK anah
ĠK emuel
ĠK abzeel
ek el
Ġam ber
Ġam ethy
Ġcon ve
Ġcon qu
Ġcon cept
For sake
umb s
umb le
Ġmen stru
Ġr ust
Ġr ins
Ġr ash
Ġr ubb
Ġr ushed
Ġsh red
Ġat e
ĠR un
ĠR ap
Ġli g
Ġli p
Ġli en
Ġli qu
Ġli kes
ass on
att u
Ġab use
em inence
Ġpl ate
Ġpl atter
Ġpl umm
Ġpl atted
Ġpl anks
Ġso b
ĠT an
ĠT eb
ĠT ig
ĠT ert
ĠT art
ĠT ik
urn ing
Ġshe aring
ol ence
ep ress
Ġri pen
Ġri pped
ist ed
av or
av iah
Ġpr ating
Ġpr isons
han as
ge ber
Ġsu it
ĠO pen
ĠO ded
ĠO mar
ĠO rion
ill ah
Ġho li
ĠEx ec
Ġlo ver
Ġlo af
Ġtr ample
Ġlet s
ĠZ ob
ĠZ aan
ĠZ abb
ĠZ uph
ĠZ almon
ĠZ attu
ĠZ illah
hu ah
pp ery
ĠMatt an
ĠMatt enai
oth jair
oth pisgah
Ġpri cks
ark on
eb ar
eb rate
ĠJes hur
ĠW alk
ĠW atch
Ġ13 1
Ġ13 3
Ġ13 4
ĠDe al
Ġco ok
Ġco pul
ĠPro claim
Ġacc ess
Ġcommand ing
Ġdi gs
Ġwhere to
ĠThe bez
Ġeat er
ry gia
ĠAb iel
ĠAb ide
ĠAb ba
ĠAb di
ig s
ĠJe hi
Ġbl ush
Ġset ting
Ġset tings
Ġdwell ers
Ġlif etime
Ġdel ay
ĠAm inadab
Ġspe nds
Ġunder ne
Ġcha mp
Ġper il
Ġper haps
Ġprop ortion
Ġprop itiation
Ġfo al
Ġrem edy
Ġun l
Ġun ity
Ġun lo
Ġun stable
Ġun equ
Ġdes cent
Ġro ars
un at
un ni
Ġhundred th
Ġpre aches
Ġpre tense
Ġpre eminence
Ġbeg ets
Ġbeg ged
Ġbeg ging
Ġex cels
Ġfl ay
Ġfl owed
get ables
Ġsc ent
Ġsc orning
Ġsc abb
Ġsc arc
Ġsc arce
Ġdis hes
Ġdis sen
Ġdis app
Ġdis orderly
ob abel
Ġfire pans
Ġdest ruct
me holah
Ġcl aws
Ġglor ies
ham ites
Ġsl ide
Ġsl ime
ĠAs riel
ĠAs enath
ci us
ci ent
Ġend uring
ach mon
Ġhead ed
Ġhead long
erc hief
Ġbo iled
ĠPhi chol
Ġret ains
Ġapp les
Ġapp ly
Ġapp lied
Ġapp rehended
Ġcan cel
Ġmou nts
ĠNe cho
Ġpar adise
Ġfam ines
Ġflesh ly
Ġra iled
ĠNehe lam
Ġpo nds
Ġpo nders
Ġent iced
Ġspirit ually
az e
ĠF all
Ġwater ing
rif ice
ĠPha res
Ġgra vel
Ġrest rain
Ġrece ipt
Ġcar ries
Ġcar riage
Ġcar riages
Ġcongreg ations
ran gers
Ġstand ards
Ġunc ertain
Ġunc overs
iver s
Ġlight ness
Ġcut tings
ez ek
ez ite
ez rites
ib lathaim
ib ezek
Ġcomp rehended
Ġmo ist
Ġel oquent
ĠShe pher
Ġwar ri
Ġwar ring
Ġburn ings
Ġwa il
Ġwa fer
Ġrighteousness es
Ġcont ra
In stead
Ġcoven ants
Ġchief ly
ĠPhilist ia
ick ed
Ġconc up
Ġsix teenth
Ġpower ful
Ġte ats
ĠEli ada
Ġpart ner
Ġkind les
Ġlong ing
Ġsub tly
Ġten s
ail ed
ĠJeho vah
ĠGal al
Ġdre gs
Ġbuild ings
Ġexce eded
ĠEl iah
ĠEl oth
Ġaff irm
Ġaff irmed
Ġaff inity
Ġcoun ts
Ġchar gers
Ġcho oses
As s
Ġpit iful
Ġhat ing
Ġhat eful
ĠRe aiah
ĠRe nder
Ġmin st
Ġfar thing
Ġperf ume
Ġjoy fully
Ġsheep c
Ġtell ing
ĠMic hah
Ġwind ing
Ġground ed
Ġdoor keep
Ġtrans formed
Ġvis age
ĠMoab ite
Ġsuff iced
Ġblessed ness
iv ings
Ġjust ly
Ġjust ification
Ġwomen servants
Ġread iness
ĠMan a
ĠMan ahath
Ġprov okes
Ġprov ocations
Ġtill age
ne iah
ĠU ntil
Ġrul ing
ĠAr od
ĠAr ba
Ġprep ares
Ġste als
Ġmar ty
Ġmar riages
Ġhelp ing
Ġsing leness
eem s
Ġdef er
Ġdef erred
Ġconsum ing
ĠIt hiel
ĠBeth d
ĠBeth p
ĠBeth ha
ĠBeth ho
ĠBeth pha
ĠAss ured
Ġeight y
ĠEs rom
ĠEs arhad
Whi les
Ġport rayed
Ġdecl aring
ĠHe gai
Ġcove ted
band s
Ġgu est
ĠAd iel
ĠNeb aj
Ġstri ved
Ġstri ving
Ġstri kes
Ġstri vings
Ġid leness
Ġpill ow
ĠHam utal
ĠWe ep
Ġthank ed
Ġthank ful
Ġcr umbs
Ġcompass ing
ĠNa ar
ĠNa arah
ĠNa asson
ĠShi mri
ĠShi llem
Ġswe at
Ġswe eter
Ġdesp air
Ġdesp iteful
Ġmaster y
Ġneed le
Ġpal mer
Ġres erve
ĠBaal gad
ĠBaal meon
ĠBaal zep
Ġcourt eous
up ha
Ġhor ror
Ġfore most
Ġfore know
sha ph
Ġdri es
Ġoppress ing
Ġoppress ions
uc an
Ġass aul
Ġass igned
Ġobey s
Ġobey ing
phat h
the y
the arted
Ġfight ing
Ġap ace
ulf ill
Ġflee ing
Ġve getables
lem an
Ġjourney ing
ĠBet hara
Ġgird ing
ĠAn am
ĠAn nas
ĠAn cient
Ġfriend ly
Ġru ins
Ġru ined
ba el
Ġsho ots
ĠAl though
Ġthither ward
Ġhour s
Ġchan nels
Ġmultip lies
ĠGad arenes
Ġì Ĺ
Ġì §Ģ
Ġfow ler
Ġget ting
Ġbond women
hob eam
Ġcle ft
ĠMa hath
achi ah
Ġinqu isition
zz le
Ġreg ister
Ġed ify
Ġed ifies
ari wise
Ġshad ows
ĠHow ever
ĠMal chis
Ġdeep ly
ĠHag ab
Ġlead er
Ġlead ers
ĠShem uel
ĠShem ariah
ĠShem ida
Ġskin ney
Ġship men
Ġdam ned
ĠRam ath
Ġmis sed
Ġmis erable
Ġtable ts
Ġshadow ing
peak able
ĠWhere ver
ĠWhere unto
Ġforb idden
man uel
man nah
Ġobs er
Ġobs cur
Ġbitter n
ĠHer m
Ġcond uct
Where ver
Where of
Where by
Ġbeaut ify
ĠMes hill
Ġdec ays
Ġbeseech ing
Ġdraw ers
Ġpoll ed
ĠMidian itish
ĠMer ab
Ġhurt ful
Ġweak er
Ġweak ened
Ġsojourn ing
Ġsojourn ers
ĠHab or
Ġexec uting
Ġhard er
xt ure
hal im
Ġfill eted
ĠAz mon
ĠAz aziah
ĠAz riel
Ġdoub ts
Ġheav ed
Ġheav ily
Ġheav ier
Ġpu reness
Ġsatisf ies
ĠAsh tore
Ġlament ations
ĠTo i
Ġer rand
Ġhandmaid ens
Ġbuy s
Ġbuy er
Ġqueen s
Ġmarvel ously
Ġaw e
Ġdro pping
ĠSe gub
ĠAll on
Ġreap ing
Ġthres hed
ĠMiz zah
ĠHar od
ĠHar osheth
Ġmet ed
ĠHerod ians
ĠIn quire
ĠShime a
Ġmanifest ation
Ġspeech less
ht halim
ĠSimeon ites
Ġfig ures
ĠAmalek ite
Ġbar rel
Ġchast e
Ġdamsel s
Ġmischief s
Ġinward ly
uri ously
Ġë ¨
Ġë ª
Ġë ¶
Ġwant ed
ĠHad oram
Ġglorious ly
Ġtravail ing
Ġinf am
Ġinf ants
Ġinf inite
Ġconfess es
Ġconfess ing
Ġtor ches
Ġarmor y
Ġche es
Ġperver sely
Shall um
Ġtit le
Ġplead s
Ġplead ed
Ġrecord s
Ġdep rived
Ġdep uties
ĠBo oz
Ġwonder ing
Ġbus hes
Ġbus hel
ĠAha va
ĠHas hab
Ġforest s
ĠPer ga
Ġnob leman
ĠBeths han
ĠJew ry
Ġproclaim ing
him oth
Ġoverc ame
ĠZi ha
Ġdivers ities
Ġimp ute
Ġimp udent
ĠGre cia
Ġimag ined
ĠKirj athaim
Ġsolemn ities
iff s
Ġdism issed
ĠAdon ikam
ĠAdon ibezek
Ġê ²°íķ
ĠSal ute
ĠSal cah
ĠAt tai
dd a
Ġbri er
Ġev ang
Ġwear ing
Ġwear iness
Ġbeha vior
Ġcontr ariwise
ĠElis hah
Ġcol ts
Ġsand als
ĠNer gals
ĠHor ites
ĠHor onite
ĠKen ezite
Ġsuck ling
Ġperpet ually
Ġsubd ues
Ġbreastpl ates
Man asseh
Re uben
Re jo
Ġtum ults
Ġaven ging
Ġpain ted
Ġless er
ĠGershon ite
ĠPel aiah
ĠPel onite
Ġmean ing
ĠMe het
ĠMaac ah
Ġtemp ered
Ġtur tles
ĠTh ink
Ġjew el
Ġprud ence
ĠZac cha
Ġglorify ing
Ġbacks ide
Ġbirth day
ias aph
ĠJot b
ĠEb enezer
ĠEb iasaph
ĠHel ek
Ġconv ocations
ĠRep ha
Ġadv ise
Ġban ner
Ġban ners
ĠAch shaph
ĠHos haiah
Ġcontend s
Ġabound s
Ġabound ing
Ġlean ing
Ġcalam us
Ġcalam ities
ĠAshd othpisgah
Ġoccas ions
Ġow ed
Ġmu zzle
Ġemb ro
Ġemb almed
Ġthigh s
Ġfulfill ing
Ġdeceitful ness
Ġcenturi ons
ris ts
Ġdeb ate
ĠBer achah
ĠAbel meholah
Ġbetray s
An other
ĠSil oam
ĠShu bael
Ġnecess ities
Ġwhor ish
ĠSheb uel
Ġfain thearted
ĠDid ymus
ĠRab sar
ĠTob ijah
Ġwin epress
Ġfit ted
Ġbew itched
Ġbew ailed
ĠLy dda
ĠZim mah
Ġdesir able
Ġexam ine
Ġadultere r
Ġadultere sses
Ġconfirm s
Ġgroan ings
St reng
St rangers
Ġpard oned
ĠGes hem
Ġreven ges
Ġreven ue
Ġreven ues
ĠBil gah
Ġplent ifully
Ġearthqu akes
Ġraven ous
Ġharm less
Ġquestion ed
Ġtumult uous
Ġbefall s
Ġmusic al
Ġdishon ors
Ġhed ged
Ġconso lations
Ġattend ed
Ġens ample
Ġens amples
Ġthreshold s
Ġengra ver
Ġengra ving
Ġwing ed
Ġinv ited
Ġali ens
Ġransom ed
Ġsuffic iency
Ġrefres h
Ġenlar ges
Ab ove
Ġsed uce
Ġsli ppery
Ġkin folk
ĠMil com
ĠBez ek
ĠBez ai
Ġflatter ies
Ġscor ched
ĠBethan ath
ĠHagar ites
Ġbag s
Ġnur sing
Ġham mers
ĠSan ctify
ĠShes hai
ĠShun em
Ġbrid al
ĠTek oah
Ġunw ashed
Ġunw ittingly
Ġunw alled
ĠEphr athite
Ġruin ous
Ġenchant ment
Ġsom etimes
Ġmi xture
ĠIth ran
ĠJah zeel
ĠJah leel
ĠGol got
Ġwhel p
Ġalm ug
ĠBere a
Ġkneel ing
ĠAsk elon
Ġsubmit ted
Ġfornic ations
Ġfornic ator
iles er
Ġbount y
Ġbount iful
Ġhind most
ĠJas hobeam
Ġgnas hes
Ġsapphi res
ĠPen innah
ĠMi bsam
ĠNep hthalim
ĠNazar ites
ĠZab ulon
Ġadmon ition
Ġgreet ing
Ġgreet ings
ĠíķĺëĤĺëĭĺ ìĿ´
Ex alt
Here in
ĠHod ijah
ĠHod aviah
ĠAdullam ite
Ġgrind ing
Ġvirt uous
Ġdecre es
Ġreconcil ing
ĠIzhar ites
Ġsust ained
Ġsust enance
Ġmal ic
Ġpom mels
Ġpott ers
Ġew es
ĠTah penes
ĠTro phim
Ġhonest ly
ĠSamarit an
Ġgreed ily
Ġgrassho pper
Ġnetwork s
Ġexpress ly
ĠStep hanas
ĠZipp orah
Ġturtled ove
Ġmidw ife
Ġwrest led
¸ì ķ
Ġfret ting
Ġintend ing
Ġnaught y
Ġnaught iness
ĠLike wise
ĠEng annim
Ġthumb s
ĠChen aniah
ĠHen a
ĠBu ild
Ġunic orns
Ġdisgu ise
Ġtravel ing
Ġtravel ers
Ġchance llor
Ġpuff s
Ġsharpen s
ìĭł ëĭ¤
Jeho shaphat
Ġbenef its
Ġcaldron s
Ġë§ĲìĶĢ ìĿ´
Ġíķ ľ
Ġsine w
ĠLod ebar
Ġthist les
ĠTib ni
Ġperple xity
Ġroast ed
Ġlawy er
Ġtemper ate
ĠGalilae an
Ġdeceiver s
Ġì£ ¼
Ġì£ Ħ
Ġìķ ħ
Ġìķ Ħëĭ
Ġcareless ly
Ġoverturn s
Ġextortion ist
Ġextortion ists
Ġver ified
inner oth
Ġink horn
ĠLe hi
ĠGab a
ĠCher ub
ĠHu ppim
Ġknead ed
ĠEzion geber
Ġjaw bone
Ġriot ous
Ġsucc or
Ġcoll ection
Ġflag s
Ġflag ons
ĠShal man
Ġresc ue
Ġresc ued
ĠìĤ¬ íĥ
Ġninet een
Ġacknowled ging
Ġstewards hip
ĠĠĠĠĠĠĠĠĠĠĠĠĠĠĠĠĠĠĠĠĠĠĠĠĠĠĠĠĠĠĠĠ ĠĠĠĠĠĠĠĠĠĠĠĠĠĠĠĠĠĠĠĠĠĠĠĠĠĠĠĠĠĠĠĠ
ìħ¨ ê³ł
Ġwitchcra ft
Ġprotest ed
Ġpavil ions
Hel p
Per sec
Rep ent
Rep ro
Ġbrib es
ĠJar ib
ĠEnt reat
Ġwhisp er
iln eser
ĠBes or
Ġsucce ed
Ġsucce eded
Ġloat hes
Ġloat hed
Ġdire cts
Ġdire cted
ĠJehon athan
ĠJehon adab
Ġperce ives
Ġperce iving
Ġexcus e
Ġscra pe
Ġfaire r
Ġfaire st
Ġconfed erate
Ġconfed eracy
ĠManass es
ĠManass ites
ĠUn c
ĠUn ni
Ġreprob ate
Ġreprob ates
Ġterrib ly
Ġterrib leness
Ġtarget s
Righteous ness
ë§ Į
Ġsur pr
Ġfare well
Ġcel ebrate
Ġcirc uit
Ġdar ts
isc ence
ĠIj on
Ġhaber geon
Ġlur king
Ġgains aying
ĠGall io
ĠAhis amach
ĠAzz ah
ĠME NE
Ġstring ed
ĠDem as
ĠHem ath
Ġdeac ons
Ġconst antly
Ġatt ire
ĠZor obabel
Ġswadd ling
Ġbuff eted
Ġuns peakable
Ġenri ch
Ġdissemb led
Ġfirebra nds
Ġsland ers
Ġappertain ed
Ġentang led
Ġsitu ate
ĠìĿ ¸
Ġsincere ly
ĠLiby a
Ġovershad owed
Ġseduc ed
ĠTeko ite
ĠPotip herah
ĠBakbuk iah
Ġì°½ì¡° ì£¼
Ple ad
bet hai
Ġoper ation
Ġopin ion
Ġwha le
Ġcred itor
Ġcof fer
Ġheres ies
ĠJi pht
ĠLo ose
ĠSi hor
ĠSard is
ĠSalm a
ĠPhen ice
Ġanch ors
ĠMin iamin
ĠMish ma
ĠCho ose
ĠChel ub
ĠHol on
Ġvult ure
ĠKel ita
Ġplows hares
ĠTa han
ĠTil gathp
Ġorg an
ĠZare phath
Ġbun ches
Ġexhor ted
Ġdromed aries
Ġboot y
Ġconclud ed
ĠElp aal
Ġsheepfold s
Ġtransl ated
ĠUN TO
ĠBethjes himoth
Ġski pped
ĠAdram melech
Ġdenud es
ĠJaph let
Ġmalefact ors
Ġbusy b
Ġimpover ished
ĠLyd ia
ĠLys ias
Ġenjoin ed
Ġcockat rice
Ġwreath s
Ġkinsw oman
Ġhamst rung
Ġmarketpl ace
ĠChil ion
ĠAlexand ria
ĠTiber ias
ĠìĺĪìĪ ĺëĭĺ
Ġsuperfl uous
ĠPalest ina
Ġcarbunc le
Jer usalem
Nam ely
Nic odemus
Obs erve
Pe ace
Ter rors
cim er
dict ion
lathp ileser
Ġting le
Ġtan ner
Ġsch ool
hair oi
Ġbor rowed
Ġmidd ay
esare t
Ġcat ches
Ġcass ia
Ġdain ty
Ġdul cimer
Ġdaint ies
Ġpel ican
Ġpict ures
Ġnap kin
ĠIble am
ĠIkk esh
Ġlatt ice
ĠJup iter
ĠJadd ua
ĠGenn esaret
ĠShab bethai
ĠPek ahiah
ĠPase ah
ĠPont us
ĠPentec ost
ĠAlem eth
ĠMem ucan
Ġfrontle ts
Ġcomple te
ĠDec apolis
Ġspong e
Ġspect acle
ĠNear iah
Ġalab aster
Ġpeac ocks
ĠHachi lah
ĠHOLIN ESS
ĠBern ice
ĠBran ch
Ġhandbread th
Ġamethy st
Ġconcept ion
Ġmenstru ous
Ġrins ed
Ġplumm et
ĠTig lathpileser
Ġripen ing
ĠExec ute
ĠJeshur un
Ġcopul ation
Ġunderne ath
Ġchamp ion
Ġunlo ose
Ġdissen sion
Ġdestruct ions
erchief s
ĠNehelam ite
ĠShepher d
Ġconcup iscence
ĠBethpha ge
ĠAssured ly
ĠEsarhad don
ĠNebaj oth
Ġpalmer worm
ĠBaalzep hon
ĠBethara bah
ĠMalchis hua
Ġobscur ity
ĠAshtore th
Ġê²°íķ į
Ġevang el
ĠNergals harezer
ĠZaccha eus
ĠRabsar is
Ġwinepress es
Ġkinfolk s
ĠGolgot ha
ĠTrophim us
ĠìĤ¬íĥ ĦìĿ´
Ġsurpr ised
ĠTilgathp ilneser
! )
, ,
8 2
8 3
8 4
8 5
8 6
8 7
8 8
8 9
A c
A z
A hi
A ra
A cc
A pp
A aron
A vo
A ST
B o
B ab
B read
B eli
B elshazzar
B urning
C H
C h
C or
C ame
C ons
C asting
C ont
C ounsel
C urse
D ay
D ear
D oub
D eal
D amascus
D ead
D edan
D rink
D estroy
D ivers
E K
E s
E t
E at
E st
E sther
F ather
F our
F ill
F ret
F eed
F ollow
F aithful
F olly
F ulfill
G H
G ood
G rant
H ar
H us
H am
H od
H ard
H eshbon
H aste
H umble
I V
I b
I m
I ron
I GH
J ust
J ose
J armuth
K ed
K ing
L O
L e
L ead
L ie
L aying
L abor
M er
M es
M ed
M al
M ish
M aster
M aking
N athan
O ught
O ff
O OD
P h
P ur
P res
P art
R ed
R ic
R eb
R un
R estore
R AN
S p
S hi
S olomon
S hem
S orrow
S har
S erve
S imeon
S eems
T en
T ouch
U riah
V i
V an
W ould
W ell
W alk
W ives
W rite
W ait
Z el
Z eb
Z adok
a oth
a ff
a pped
a pht
a onia
b en
b id
b ow
b al
b az
b athite
b eloved
c re
c as
c al
c ain
c our
c ies
c hen
c ai
c oh
c hable
c aonia
d le
d ell
d ained
e x
e ab
e nder
e har
e ats
e ja
f at
f us
g on
g en
g el
g id
g od
g her
g and
g ings
g em
g ment
g az
g ious
h od
h to
h zib
h de
i est
i ate
i ors
i able
i ander
i ades
j ael
j ured
j esty
k iah
k ers
k ite
k ful
k ins
k ijah
k neiah
l ant
l uhim
m ad
m il
m im
m ath
m ag
m iz
m elah
m arc
m ission
m akers
n o
n ut
n iah
n ath
n ite
o le
o hes
o its
o omin
o hah
o cia
p el
p hen
p are
p ring
p hesy
r id
r ud
r ought
r ath
r ust
r un
r ously
s im
s ia
s hemesh
s hea
s cour
t ise
t ec
t less
t his
t ower
t hai
t abor
u x
u zz
u hamah
v i
v ou
v ity
v ath
v ites
v able
w re
w or
w it
w ing
w ho
w illed
w hom
w hether
y ou
y men
z i
z o
z ed
z el
z iah
z ard
¡ ìĭł
¤ ë¥
§ Ī
¬ íķĺ
¯ ¿
¯ ¸ìķ
µ ìĿ
µ ¬ì
¶ ģ
· ¹
¸ Ī
¹ ĺ
½ ìłģ
ê ¸°
ê ·¹
ê ¸Ī
ë ª
ë ¶
ë ŀ
ë ¡ľ
ë į°
ë ¯¸ìķ
ì Ĩ
ì ļ
ì ĽĲ
Ġ ?
Ġ ing
Ġ íĥ
ģ ìĽĲ
ĥ ģ
Ħ íķľ
Ī ë
Ī ìĹĲ
ĭ ¤ë¥
Į í
Į Ģ
Ĳ ĺ
Ĳ ë¯¸ìķ
Ķ ìķ
ĸ ¸ì
Ļ ľ
Ļ ìŀ
Ġt ith
Ġt ame
Ġt ap
Ġt illed
Ġt ack
Ġt ie
Ġt ires
Ġt amed
he pher
he be
Ġthe at
Ġthe ft
Ġthe fts
Ġa ust
Ġa vou
nd ed
nd ered
Ġs od
Ġs her
Ġs ir
Ġs chol
Ġo ars
Ġo sp
Ġo stri
Ġo lives
Ġo ss
in er
in on
in ath
in ue
Ġw ished
Ġw ines
Ġw inn
ha re
ha hel
ha gid
re am
re me
re ls
re hob
re stri
re kah
ou sal
Ġb er
Ġb ot
Ġb le
Ġb ark
Ġb ites
Ġb itten
Ġb atter
Ġb ier
Ġb dell
hi re
hi on
hi th
hi ly
hi lo
er ately
ll u
ll ed
ll asar
Ġm ast
Ġm int
Ġm ate
Ġm ites
Ġm ail
Ġm aint
es hem
Ġf att
Ġf ist
Ġf ath
Ġf ried
Ġf ading
Ġf uriously
Ġto day
or uhamah
it re
it ness
it ate
it anes
it ical
Ġc ab
Ġc ous
Ġc ell
Ġc ran
Ġc age
Ġc ircum
Ġc uc
Ġc uck
on ias
en an
en ge
en ub
en sed
en ances
en eration
en chable
ed ges
ed ged
ing e
Ġd as
Ġd ale
Ġd au
Ġd urable
Ġhe n
Ġhe ron
Ġhe ath
Ġhe arer
Ġhi t
Ġin ord
Ġin sp
Ġp ol
Ġp ale
Ġp ap
Ġp ile
Ġp illed
Ġp inn
Ġp aw
Ġp aved
Ġp aws
Ġp hilo
is ers
at in
at ham
at hered
at hias
Ġn ut
Ġn oses
Ġn ursed
Ġn itre
hat hi
an a
an im
an nah
an cing
ar at
ar se
ar ate
ar ib
Ġbe ho
Ġbe th
Ġbe ans
Ġbe nds
om s
om ely
ĠI r
ĠI im
ĠI ram
ĠI mri
el ve
el im
el eel
Ġha re
Ġl ic
Ġl ines
Ġl ime
Ġl isted
Ġl unat
Ġsha pe
ot ai
ot hites
ot hai
as ion
ĠJ ut
ĠJ akim
ĠJ ada
ĠJ arah
ĠJ emuel
ĠJ areb
ĠL ah
ĠL ive
ĠL uc
ĠL ie
ĠL asha
ĠL emuel
ĠL eg
ĠL eshem
ĠL oruhamah
ĠL atin
Ġg ir
Ġg ins
Ġg ored
Ġg na
Ġg ently
id ah
id al
id ence
id ia
id erer
ut ha
Ġsa bach
us hites
Ġfor cing
le k
le u
le ph
le ful
le iades
Ġe ased
am or
am ant
am ite
am ai
am ti
od ad
od ies
ld y
ld ah
ĠG ent
ĠG ur
ĠG ud
ĠG ale
ĠG eb
ĠG ree
ĠG ob
ĠG eth
ĠG abb
ĠG OOD
ĠG inath
ĠG enub
ith mah
her u
her mon
her sha
ver ing
ver tise
ch us
ch onias
Ġnot ice
ir y
ir ing
ir ah
ir st
se es
se man
ent ed
ho les
ho ze
ri gs
ri ety
et ch
et ho
et hah
Ġk ite
Ġk iln
Ġk erchiefs
al ai
al ia
al ti
Ġit ch
ra phel
ere n
Ġwi les
Ġwi pes
ĠE u
ĠE ri
ĠE ther
ĠE vil
ĠE ran
ĠE vi
ĠE llasar
ĠS om
ĠS ad
ĠS ered
ĠS ec
ĠS hua
ĠS ave
ĠS ome
ĠS un
ĠS ia
ĠS ost
ĠS eal
ĠS hom
ĠS erah
ĠS leep
ĠS eled
ĠS word
ĠS allu
ĠS earch
ĠS my
ĠS allai
ĠS otai
Ġall ure
ĠP or
ĠP ri
ĠP ub
ĠP hy
ĠP ap
ĠP hur
ĠP oc
ĠP ekod
ĠP adon
ĠP inon
ĠP leiades
st inate
ĠA hu
ĠA ran
ĠA har
ĠA chi
ĠA has
ĠA ene
Ġre el
Ġre semb
Ġre asons
ad mor
ad elp
ad ocia
ore r
Ġwas ter
Ġwas ting
Ġwhi ter
ro ll
ro ch
ro be
ur an
ur us
ur vy
Ġh inges
Ġan k
ĠM O
ĠM ay
ĠM ered
ĠM eron
ĠM ez
ĠM ars
ĠM eon
ĠM elech
ĠM eah
ĠM atred
ĠM ushites
ain y
ain ted
ĠIs m
Ġas cribe
Ġas cribed
ic est
ic ted
ic ient
les ome
ĠGod s
ĠC ab
ĠC han
ĠC ertain
ĠC over
ĠC ris
ĠC alah
ĠC ench
Ġfr ames
Ġfr ying
Ġfr ont
Ġfr inges
Ġfr inge
Ġse wed
ĠJo ha
ĠJo che
ĠJo atham
Ġst ing
Ġst om
Ġst ings
Ġst ag
Ġst illed
Ġst able
Ġst akes
Ġst ory
il ant
ame am
Ġgo ads
if rage
Ġbr ow
Ġbr ay
Ġbr ute
ĠD i
ĠD ev
ĠD ik
ĠD aber
ĠD arkon
Ġsp ec
Ġsp un
Ġsp arrow
Ġsp ouses
Ġsp rigs
Ġout li
ĠN A
ĠN od
ĠN oth
ĠN ap
ĠN umber
im us
im ents
im ael
im rah
Ġal ters
Ġal be
Ġal tered
Ġpe ep
ĠH ac
ĠH ul
ĠH ak
ĠH ass
ĠH ill
ĠH ob
ĠH ai
ĠH ars
ĠH iz
ĠH up
ĠH elah
ĠH akk
ĠH appy
ĠH allowed
ĠH achmon
ĠH AST
ĠH ymen
ĠH irah
ron s
ron ah
ight ly
Ġwhen ever
Ġde er
Ġde ck
ĠPsalm s
Ġbut lers
Ġwe aries
ĠB l
ĠB id
ĠB ow
ĠB ir
ĠB os
ĠB ered
ĠB ine
ĠB ark
ĠB az
ĠB ars
ĠB iz
ĠB ils
ĠB edan
ĠB reak
ĠB edad
ĠB ands
ĠB unni
ĠB RAN
est ments
est ial
ĠCh rists
ĠCh inneroth
red ath
ab us
ab oth
ab ib
ab ility
ear n
ear ing
Ġdo leful
to ld
to ck
to lled
Ġpeo ples
ac hel
ac inth
ul us
ul un
ul amite
Ġv il
Ġv ig
Ġv ari
Ġv estments
Ġoff ender
Ġoff scour
Ġchild hood
Ġhand ling
ast ered
ast hite
âĢĻ .
âĢĻ :
âĢĻ ;
ĠK is
ĠK ol
ĠK ark
ĠK itt
ĠK ez
ĠK art
ather ing
ek ashah
so s
Ġcon ies
Ġcon ey
umb ered
Ġland ed
Ġr att
Ġr owed
Ġr idd
Ġr ye
Ġr ushes
Ġsh r
Ġsh un
Ġsh ran
Ġsh orter
Ġaf oot
ĠR ef
ĠR ag
ĠR ip
ĠR oboam
ĠR og
ĠR akk
ĠR iss
ĠR estore
ĠR hod
ĠR ithmah
Ġli king
ĠEz bon
Ġab us
em ah
em ly
Ġus ing
Ġpl at
Ġpl edges
Ġpl astered
Ġso ap
ĠJere d
ĠJere my
Ġne arer
ĠT ou
ĠT ar
ĠT ry
ĠT op
ĠT arah
ĠT hadd
ĠT eresh
ĠT iph
ĠT idal
ĠT admor
Ġwor thi
Ġser ge
Ġser aphim
Ġj acinth
But ter
Ġshe et
Ġshe ets
Ġshe ds
Ġshe lter
Ġtw igs
Ġwho res
Ġwho lesome
ong ad
ong og
ep her
Ġri bs
av ory
Ġpr anc
han ah
han kful
Ġsu cked
ĠO had
ĠO live
ĠO shea
Ġ11 7
ĠEzek ias
Ġor ator
Ġor char
cc up
Ġho ping
Ġlo ck
Ġlo oses
Ġlo cked
Ġserv itude
Ġcomm itting
Ġevery thing
hn ah
hn imrah
ĠZ a
ĠZ if
ĠZ ilt
ĠZ elah
ĠZ art
ĠZ arah
ĠZ edad
ec hai
hu ri
hu jael
pp us
pp ose
pp adocia
ĠMatt hat
ĠMatt han
ĠMatt anah
ĠMatt hias
ĠMatt athias
ale t
Ġpass ions
oth maim
oth tabor
ĠJer us
ĠJer iah
ount ing
Ġpri cked
Ġpri ze
eb ted
eb ody
ĠJes iah
ĠJes aiah
li us
li gent
ĠW icked
ĠDe f
ĠDe ath
ved ge
Ġbrother hood
Ġla ps
Ġla pped
ĠJos ap
ĠJos ias
ĠJos hb
qu enchable
qu iry
Ġco ol
ĠPro vide
Ġsw o
Ġsw an
Ġsin ning
Ġnor ther
Ġdi et
Ġdi al
Ġdi ps
Ġdays pring
ĠThe op
Ġwat erc
Ġwat cher
Ġwat chers
ĠAb out
ĠAb ish
ĠAb ital
ĠAb da
ĠAb imael
ef ly
Ġbre ed
ĠJe hal
ĠJe ezer
ĠJe hde
ĠJe chonias
Ġar cher
Ġar chan
Ġar rived
Ġbl o
Ġbl ains
Ġbl ocks
ph kah
Ġwr ink
Ġdel ayed
Ġdel usion
Ġdel ays
ĠAm p
ĠAm ok
ĠAm itt
ĠAm zi
ĠAm raphel
Ġfe athered
Ġsent ences
Ġgl ister
Ġgl oomin
Ġcha l
Ġgi er
Ġgi ver
hen es
Ġfo x
Ġfo ams
Ġfo aming
rib ly
Ġrem it
Ġun m
Ġun mo
Ġun reason
Ġun quenchable
Ġen quiry
Ġdes crib
Ġdes cribed
Ġro asts
Ġey ed
Ġey ew
un ci
He al
Ġown es
Ġwom bs
ct urus
Ġex pen
Ġex ile
Ġex cl
Ġex pl
Ġex acted
Ġex tolled
Ġspeak er
Ġang le
Ġfl agon
Ġfl avor
Ġsc of
Ġsc ience
Ġsc roll
Ġsc urvy
Ġlaw fully
Ġdis dained
Ġdis sim
ĠChrist ian
me nded
Ġcl ad
Ġcl outs
Ġcl apped
Ġcl amor
Ġfour fold
Ġsl ightly
ĠAs er
ĠAs uppim
ĠAs sos
ĠAs hnah
Ġprophe cies
par ted
Ġend less
Ġhost ages
hus ht
Ġbo oth
Ġbo asters
Ġbo ils
Ġbo ys
Ġle g
Ġle ans
Ġle ather
Ġle nder
Ġle op
Ġle asing
ress ed
Ġret ire
Ġret ired
Ġseven s
Ġapp eal
Ġapp ert
Ġapp rehend
hab od
hab ah
hab im
hab eath
Ġcan e
Ġmou se
ĠRom amti
te keh
ĠNe xt
ĠNe ziah
ĠNe husht
Ġfam ish
Ġfam ished
mb le
Ġhigh ness
Ġra il
Ġra ising
ull us
Ġpo le
Ġpo ints
Ġpo pl
Ġpo pul
Ġent ertain
Ġent icing
Ġrep uted
ĠF ar
ĠF ight
ĠF ive
ĠF are
ĠF etch
ort hily
Ġprin cess
ĠPha l
ĠPha r
Ġgra ved
Ġgra vity
Ġmiddle most
eth on
Ġcar ving
ran ces
Ġunc ond
Ġunc omely
Ġcount enances
Ġlight ing
Ġlight ens
Ġcons ult
ĠAaron ites
ond iblathaim
Ġsacrif icing
Ġim per
Ġim part
Ġim parted
Ġpres ume
Ġcause way
ib b
Ġinc ont
Ġinc ensed
Ġcomp ound
Ġcomp rehend
Ġcomp osition
Ġmo ldy
Ġsi eve
Ġbeli evers
ĠShe p
ĠShe th
ĠShe mer
ĠShe ariah
ĠShe va
ĠShe pham
ĠShe leph
Ġwar ms
oin ts
Ġhar ts
Ġhar rows
Ġwa vering
Ġdeliver ing
ĠBab el
Ġcou ches
Ġcou ched
Ġcou ples
Ġarm holes
ĠPhil adelp
Ġworld s
Ġworld ly
Ġqu aked
Ġqu aking
Ġspok es
Ġple a
Ġsan k
Ġinhab its
itud es
Ġconc ourse
ber ith
Ġsec urely
sp ect
lic t
Ġwell spring
Ġad orning
Ġad venture
Ġad amant
Ġad vertise
Ġlam a
ĠEli am
ĠEli ud
ĠEli pha
ĠEli athah
Ġpart ies
Ġpart ners
Ġpart ition
Ġpart rid
Ġpossess es
Ġpossess or
Ġpossess ors
Ġsat y
Ġsat iate
Ġten or
ĠBen o
ĠBen eja
Ġwall owed
mon ah
Ġpur ity
Ġwine fat
Ġhere of
Ġhere unto
ĠJeho add
ĠJeho adah
ĠJeho zadak
Ġob tains
Ġob stinate
hem ish
hem ite
Ġbuild er
Ġgener al
Ġgener ally
Ġconf ection
Ġconf ormed
Ġconf used
Ġconf lict
ĠEl zabad
ĠEl oi
ĠEl asah
ĠEl tol
ĠEl zaphan
ĠEl tekeh
Ġaff ected
Ġgar ner
Ġgar ners
Ġchar ging
Ġchar mers
Ġcho ke
Ġcho ler
Ġcho icest
As h
As semble
Ġhat ch
Ġhat ers
Ġpi geon
Ġest ates
ĠMo st
ĠRe ad
ĠRe ceive
ĠRe gem
Ġlisten s
Ġways ide
Ġback bit
Ġperf umed
Ġpleas ers
Ġoil ed
ĠEph lal
Ġtroub ling
Ġwrath ful
aan a
hel oth
hel athah
iz edec
Ġtrans fig
Ġbroken hearted
Ġtest ator
Ġcorn ets
Ġheat ed
Ġjust ifying
Ġtill s
ne el
Ġcountry men
ĠU lai
ĠU nderstand
ĠSp ain
ĠSp oke
Ġnumber ing
Ġtransgress ing
Ġforg ives
ĠAr m
ĠAr is
ĠAr id
ĠAr men
ĠAr bathite
ĠAr kite
ĠAr arat
ĠAr cturus
Ġbreak er
Ġbreak ers
haz or
Ġmar ched
Ġrepro ver
Ġinst antly
Ġram part
Ġsing er
Ġsing le
eem ing
har ge
har ged
har sac
ĠCanaan itish
ost le
ĠBeth bar
ĠBeth maachah
ĠBeth marc
ĠBeth rehob
Ġsign ified
Ġref iner
ĠSha sha
ĠSha pher
ĠSha aph
ĠSha veh
ĠSha rezer
ĠSha araim
Ġnew ly
Ġnew ness
Whi lst
hit tah
Ġdece its
Ġdece ase
Ġdece ased
Ġdece iving
op ag
ĠHez ir
Ġmoney chan
Ġcove ts
Ġhus k
Ġgu ides
ĠAd be
ĠAd na
ĠAd nah
ĠAd oram
ĠAd riel
ĠAd ummim
ĠNeb aioth
Ġstri ves
Ġstri pe
Ġstri ker
ircumc ision
Ġhusband ry
ĠHam mon
ĠHam melech
ĠHam athite
ĠHam ongog
Ġmust ered
Ġcaus eless
ĠSo coh
Ġcamp hire
ip ha
ip hia
Ġfors aking
ump hed
Ġmeet ing
Ġcompass ions
ĠNa ham
ĠShi hor
Ġcover ings
Ġdesp ite
Ġdesp erate
Ġdesp isers
Ġredeem s
Ġredeem ing
su al
ĠNo adiah
ĠNo gah
Ġneed ed
Ġprom otion
Ġidol ater
Ġopp ose
Ġres erves
ĠBaal hermon
ĠBaal berith
mer ing
mer odach
Ġfle a
Ġfle w
Ġdream ers
Ġhor ribly
Ġstra its
Ġstra kes
Ġdepart ure
Ġsound s
Ġfore w
Ġfore cast
Ġfore sees
Ġfore told
Ġdeal ers
Ġdeal ings
Ġperfect ing
Ġter med
Ġter restri
Ġdri ver
Ġchur l
Ġcor al
Ġcor iander
Ġsweet ly
Ġsupp ort
Ġsupp lied
Ġsupp lies
Ġsupp lant
uc ted
Ġind ebted
the el
ĠAsa hiah
Ġap es
Ġap rons
Ġhorse man
Ġtrespass ing
Al as
Al ways
Ġappear ances
ious ly
Ġbed stead
ĠBal adan
ĠAhi ram
ĠAhi hud
Ġassemb ling
Ġlion ess
Ġsore ly
ĠBar j
ĠBar bar
ĠBar achel
ĠBet har
ĠBet hnimrah
Ġvan ished
Ġvan ishes
Ġrain bow
ĠFor bid
ĠAn ab
ĠAn aiah
ĠAn aniah
Ġburden ed
ĠAl am
ĠAl so
ĠAl ush
Ġpure r
Ġgre y
Ġsmall est
Ġtra in
Ġtra vels
ĠCol hoze
ĠJehoi arib
Ġcher ishes
Ġchan gers
ĠZeb aim
ĠZeb oi
Ġdisc ord
Ġdisc erning
Ġdisc ont
Ġdisc overs
ĠMy sia
ĠGad i
Ġì ²
Ġì Ĥ
Ġì Ĩ
Ġì Ļ
Ġì ļ
Ġì ĸ¸ì
Ġrequ ires
Ġrequ ited
Ġwatch ings
Ġwatch tower
Ġgriev es
Ġbond maid
Ġworshi pper
Ġreproach fully
Ġcal ve
ĠChalde an
Ġplant ing
ĠMa hazi
ĠMa harai
ĠMa jesty
ĠMa hersha
Ġvill ainy
Ġtar ries
Ġwond rously
Ġinter med
Ġhang s
Ġfail ing
Ġsn ail
On ce
Ġreg eneration
Ġrich ly
ĠJez aniah
Ġed ified
Ġed ged
Ġcircumc ising
ari ph
Ġshad y
ĠHow l
Ġaccept ation
Ġtalk s
Ġtalk ers
ĠMal cham
Ġbas est
Ġviol s
Ġsmell s
Ġsmell ed
Ġstrengthen ing
Ġcorrupt ers
Ġcorrupt ly
Ġship master
Ġship wre
Ġappe ased
Ġflour ished
Ġflour ishes
Ġbaptiz es
Ġmis s
Ġmis sing
Ġmis eries
ĠIsh tob
Ġprosper ously
Ġcomfort able
Ġthink ing
ĠWhere as
ĠShec aniah
Ġyouth s
Ġdist il
Ġforb idding
aths erah
Ġcond ucted
Ġcup be
Ġpour ing
Ġdec ayed
Ġdec ision
ĠZep ho
ĠZep hon
Ġadvers ities
Ġran g
Ġdraw ing
Is h
Is sachar
Th orns
Th rice
Ġpoll uting
Ġpoll utions
Ġtal es
Ġtow el
Ġlow ing
Ġlow liness
Ġweight y
Ġsoon er
be hah
ĠSar a
ĠSar id
ĠMer om
ĠMer odach
Ġseem ly
Ġweak ens
Ġblem ishes
Ġheight s
ĠAre li
ĠAre opag
ĠHab aiah
Ġexec ration
Ġexec ution
for ward
Ġdomin ions
Ġforget ful
ĠAz or
ĠAz ur
ĠAz em
ĠAz aliah
Ġharvest man
Ġloud er
Ġheap ed
Ġhumb ly
Ġsatisf ying
Ġsatisf act
Ġrecom mended
Ġsprink les
ĠAlm odad
ĠAlm ondiblathaim
Ġpunish ments
ĠAsh ter
ĠAsh chen
Ġcondem ning
Ġfin ing
Ġfin est
Ġdoct ors
Ġthirst ed
Ġrecompen ses
At tend
rus im
rus hes
Ġer rs
Ġseason ed
ĠHagg i
With draw
serv ice
Ġming le
Ġinterpret ations
Or der
Speak ing
Ġaw l
Ġlad ing
Ġlad ies
ĠCa ppadocia
ĠHar um
ĠHar hur
ĠHar adah
ĠHar bon
Ġbra nd
ĠGil oh
ĠGil onite
Ġjealous ies
Ġadd itions
Ġbreat hing
ĠIn asmuch
ĠIn cre
ĠJa as
ĠJa aziah
ĠJa azer
ĠDo phkah
ĠShime ath
Ġprofan ing
ĠZebul onite
ĠKir heres
Ġswall ows
ĠNapht uhim
Ġfriends hip
Ġfurn aces
ĠSin a
ĠSin ce
ĠSin ite
Ġperform ing
Ġperform ance
Ġpurif ies
ĠIshmael ites
Ġpestil ences
Ġforward ness
Ġexp el
Ġspear men
Ġmultiply ing
Ġblasphem ers
Ġblasphem ous
Ġë ¬
Ġë ı
Ġë ¯¿
Ġë ĭ¤ë¥
Ġë Ĳĺ
Ġpor ches
ĠGed eroth
Ġkis ses
ĠHad id
Ġencam ps
Ġinf l
Ġinf ant
Ġinf lam
Ġinf idel
Ġthick er
Ġthick et
Ġtarry ing
Ġtor ments
Ġcommun ing
Ġquiet ed
Ġquiet ly
Ġinnoc ents
ĠJebus i
Ġche ck
ĠAc haz
Ġperver ting
Ġtreasure r
ĠGibeon ite
Ġgreen ish
Ġregard ing
Ġtit les
Ġroll s
Ġflo ats
Ġlords hip
Ġstretch ing
Remember ing
ĠBo han
Ġtender hearted
Ġmagn ific
Ġsow ing
hiop ia
Ġch ry
Ġsto ol
Ġwand erers
Ġpron unci
ĠJab neel
Ġgrow th
ĠPer gam
Ġrestore r
Ġrestore s
ĠBeths hemite
Ġgrievous ness
Ġhypocr itical
Ġinner most
Ġshar per
ĠEn shemesh
Ġresp ite
Ġresp ects
Ġhorn et
Ġascend s
ĠJew ess
Ġwax es
Ġsor rowed
him a
Ġrev ile
Ġrev iving
Ġappro ached
Ġimp utes
Ġimp uting
uff icient
Ġliber ally
ĠAbi ud
ĠAbi ezrites
Ġenv ies
Ġscorn ful
ĠShil hi
Ġwrong ed
ĠPers ian
Ġsolemn ly
Ġsolemn ity
Ġnat ura
Ġfort ification
Ġrebuk ing
Ġpersu ades
Ġpersu ading
ĠAdon iram
ĠAdon izedec
Ġê ¸°
Ġê µ¬ì
Ġê ¶ģ
ĠSal ome
ĠAt ad
íķĺ ëĭ¤
íķĺ ìħ¨
Ġsel vedge
Ġbri gand
Ġbri efly
ĠReb a
Ġharp ers
ĠCarmel itess
Ġhence forward
ĠAbisha lom
ĠElis hua
ĠMed an
ĠMed ad
ĠHor ims
ĠHor hagid
ĠKen ath
Ġtestify ing
Re nder
Re hum
Ġaven ges
ĠLib nites
ĠSham er
ĠSham gar
ĠAg ar
ĠAg abus
Ġappare led
Ġthanksg ivings
Ġdedic ating
Ġcra ck
Ġgall ery
ĠSh ulamite
ĠPh ut
ĠPh rygia
ĠPel eth
ĠAp hars
ĠAp harsac
ĠMe hun
ĠMe hid
ĠMe hol
ĠMe hujael
Ġtemp ter
ĠElam ites
Ġwhirlwind s
pha ch
Ġtur tle
ĠHere after
ĠKed emoth
ĠKed emah
Ġplay ers
ĠTh ree
ĠTh rust
Ġovert aken
ĠZac cai
Ġprinci ples
Ġfaul ty
ĠGaz er
ĠGaz ez
ĠGaz zam
ĠEb ronah
ĠAh lai
ĠHel p
ĠHel am
ĠHel em
ĠHel kath
ĠHel dai
Ġconv ince
ĠZib iah
Ġjoyful ness
Ġfurther ance
Ġforbear ance
aw ful
Ġdim ness
ĠGet her
Ġkins folk
Ġweal thy
ĠKe helathah
ĠRem ove
ĠRem mon
Ġearn s
Ġadv ised
Ġestim ate
Ġpublic ly
Ġsharp ly
Ġprincipal ity
Ġban ished
Ġban ishment
ĠLa hairoi
Ġdefe at
ĠRabb ath
ĠTH Y
ĠTH IS
ĠTir as
ĠTir hak
Ġprolong s
Ġleaven s
Ġcouncil s
Ġsteal ing
ĠPeace ably
Ġward robe
Ġemb old
Ġemb rac
ĠAnt ip
ĠAnt othite
Ġamb ushes
Ġcommon ly
Ġmarry ing
Ġtrad itions
ont amar
Ġpull ing
Ġglean ings
ĠEkron ites
ĠSis amai
Ġdeb ts
ĠBer i
Ġamaz ement
Ġconvers ant
ĠAbel beth
Ġquar ries
ĠElip hele
Ġsteadfast ness
Ġshoot ing
Ġclear ing
Ġequal ity
An swer
Jud as
ĠShu al
ĠShu ppim
ĠShu pham
ĠShu hamites
ĠPar bar
ĠMel zar
ĠMah lites
Ġbru it
Ġbru ising
Ġroof s
Ġboast ed
Ġconsent ing
Ġeffect ually
Ġtri umphed
ĠRab mag
Ġapproach ing
Ġfault less
ìĭ ¬
ĠIm lah
ĠIm nah
ĠIm la
ĠIm manuel
ĠLy caonia
ĠTab erah
ĠTab baoth
ĠTab itha
Ġcommend ation
ĠZim ran
Ġblam ed
Ġeng ines
Ġconfirm ing
Ġconfirm ation
ĠHezron ites
Ġdoubt ful
Am aziah
St ay
St rive
Ġíķĺ ìĭłëĭ¤
ĠGes huri
ĠShob ach
ĠShob ai
Ġsever ity
ĠJok theel
Ġunjust ly
Ġmurmur ing
ĠArab ah
Ġquestion ing
Ġder ided
Ġdishon est
Ġhunt ing
Ġconce its
Ġconce aled
Ġconce als
ĠUzziel ites
Sal t
Sal vation
Ġur ine
Ġur gent
Ġcro p
Ġdiff ers
Ġnarrow ly
ĠIz rahiah
ĠIz ehar
Ġreli gious
ĠMag diel
Ġplow men
Ġplow man
ĠAmram ites
Ġcompl ained
Ġreproof s
Ġfortress es
Ġengra ve
ĠV enge
Ġwra p
Ġmill stones
Ġinv ade
Ġsav iors
ĠEg lah
ĠSadd le
Ġund o
Ġund ressed
Ġoutward ly
ĠHeth lon
Ġagre es
ĠRimmon pare
ĠWith in
Ġsigh s
Ġrefres hing
ĠEsht on
Ġacqu it
Ġacqu ainted
Ġexpect ing
Ġevid ently
Ġevid ences
Ġrenew ing
Ab out
Ab ide
Ab raham
Ab ram
ìĹ Ĳì
Ġsli pped
Ġpet itions
let rees
Ġstam p
Ġstam mering
ĠRez eph
Ġoverse e
Ġflatter y
Ġclose t
Ġesp y
Ġesp ied
Ġesp ousal
Ġflourish ing
ĠIshb ak
ĠJahaz ah
Ġoverlay ing
Ġwag ging
Ġeas ily
ĠEr astus
ĠShes hach
ĠShun i
Ġbrid les
ĠDib ongad
Ġconver t
Ġconver ts
Ġsober ly
ĠOr pah
ĠZel otes
Ġdelic iously
Ġunw orthy
Ġunw orthily
Ġdistrib ution
ĠMeshe zabeel
hash baz
Ġë§ Ĳë¯¸ìķ
Ġevildo er
Com mit
Com fort
Six teen
hum eth
Ġax letrees
Ġsom etime
ĠIth ream
ĠJah z
ĠGitt ites
ĠGitt aim
ĠSir ion
ĠRib ai
Ġabs ence
ĠWhom soever
Ġext inct
Ġfearful ness
Ġinstruct or
ĠNetop hah
ĠNetop hathites
Ġstoop ing
Ġsufficient ly
ĠMichm as
ĠMichm ethah
El iel
El kanah
Jo el
Jo ab
ĠJas her
ĠJet ur
ĠJet heth
Ġgnas hed
Ġsadd le
ĠMi jamin
ĠMi kneiah
Ġunt hankful
Ġassu aged
ĠNep hto
Ġrum ors
ĠZab diel
Ġdirect ly
Ġprepar ing
ĠTimn athserah
Ġpierc ing
Ġforef athers
ĠZebed ees
Ġtriumph ing
ĠíķĺëĤĺëĭĺ ìĿĺ
ĠíķĺëĤĺëĭĺ ê³¼
ĠíķĺëĤĺëĭĺ ìĿ´ëĭ¤
Ex amine
Here after
Pro v
Pro ve
Pro phesy
Ġod or
Ġod ious
Ġborrow er
Ġhal ts
Ġhal ted
Ġwiz ard
Ġstink s
ĠDin habah
ĠHep hzib
Ġdissol ve
Ġhelm ets
ĠEsh ban
ĠEsh baal
Ġprofess ed
Ġprofess ing
Ġresist ed
Afterward s
Ġdecre ase
ĠJair us
ĠMelchis hua
ĠShelom oth
Ġscorp ion
Ġpenny wor
Tr ouble
Ġven om
het hites
Ġdet ain
Ġpen ury
ĠSho choh
ĠSho phach
Ġrevil ings
ĠChi ldren
Ġpear l
Ġweigh s
Ġweigh ing
Ġconstra ins
ĠTubal cain
ĠUz al
ĠBeer i
ĠMahal ath
Ġmagist rate
Ġreckon ing
Ġzealous ly
lay er
¸ì §Ī
¸ì ĥģ
ëĵ ľ
Ġbul rushes
Ġbill ows
Ġmat tocks
Ġmat tock
Ġhem lock
Ġeg g
Ġissu es
ĠSab tec
ĠDor cas
ĠDod anim
ĠHat ita
ĠHat ipha
ĠHav othjair
ĠBig than
ĠTel em
ĠTel melah
ola itanes
Ġfeel ing
Ġsmo other
Ġcouch ing
ĠUp haz
ukk i
Ġhasten ing
Ġsnuff ed
Ġmedd ling
Ġsorce rer
Ġcrafts man
ê²ĥ ìĿ´
Jeho ahaz
ĠJerahmeel ites
ìľ¼ë ©´
Ġfervent ly
Teach ing
Ġblossom s
Ġë§ĲìĶĢ ìĿĦ
cce rem
rod itus
Ġbeck oning
ĠIc habod
Ġsham eful
ĠLod ge
ĠSy ene
ĠSy chem
ĠMad on
ĠMad ai
ĠMad mannah
ĠMig ron
ĠMig dal
ĠMethus ael
Ġsport ing
ĠHash monah
Ġrud iments
ĠZop hah
Ġkey s
Ġprefer ring
Ġbegu ile
Ġimm ut
ĠArchi ppus
Ġì£ ½
Ġìĺ ¤
Ġìĺ ģìĽĲ
Ġcommunic ations
Ġcommunic ated
ĠCyren ian
Ġliberal ity
Ġenlight en
Ġcomplain ts
Ġver ity
Ġver mil
Ġfou led
Ġcrim es
Ġcert ified
ĠLe habim
ĠGa har
ĠPath rusim
ĠMall othi
ĠMol och
ĠCom fort
ĠCher an
ĠCher ith
Ġcompar ing
Ġstout hearted
ĠNic odemus
ĠNic olaitanes
ĠNim rim
ĠHu ldah
Ġvol ume
ĠKor a
Ġknead ing
Ġneg ligent
Ġprun e
Ġsucc ored
Ġcoll ege
Ġunse emly
Ġclim bed
Ġreplen ish
Ġadj ured
Ġadm iration
Ġpract iced
ĠShal mai
Ġë³ ´
Ġë³ µìĿ
Ġë³ ¸ì§Ī
Ġstoreh ouse
ĠLaodice ans
Ġacknowled ged
Ġstubborn ness
Ben jamin
Eli hu
Jos iah
Other wise
Per adventure
Pray ing
iph orus
Ġbrib e
Ġcister ns
ĠIb zan
ĠJar ha
ĠJek amiah
ĠJek ameam
ĠLud im
ĠGidd alti
ĠEm ims
ĠEnt ice
ĠAv ith
ĠAv ites
Ġrehe arse
Ġthreat ened
ĠMis reph
ĠMar cus
ĠMass a
ĠHatt il
ĠBes ai
ĠBuz ite
ĠBukk iah
Ġsuper st
Ġbund les
Ġexcus ed
Ġscra ped
Ġgoldsmith s
ĠArp had
ĠìĦ ±
ĠìĦ ¸ìĥģ
ĠHazars us
Ġdign ities
Ġpilgrim s
Ġfugit ive
Ġapothec aries
Qu icken
Ġsqu ares
Ġwink s
Ġbabb ler
Ġbabb lings
Ġcel estial
Ġdar ling
Ġpac ified
Ġpac ifies
ĠIj eab
ĠIra d
Ġhaber geons
Ġlur k
ĠGall im
ĠSen ir
ĠSen aah
Ġallow ance
ĠPerez uzz
ĠApp oint
ĠApp aim
Ġthrong ed
ĠMith cah
ĠMith redath
ĠCon cerning
ĠCon oniah
ĠCal neh
Ġstud y
Ġstud ies
ĠDem etrius
ĠHazar maveth
Ġdeac on
ĠBless ing
ĠTr ue
ĠTr ouble
Ġproc ure
Ġproc ured
ĠOz ias
Ġloft iness
ĠZem arite
ĠZem araim
Ġlap wing
Ġswadd led
Ġbuff et
Ġuns avory
Ġenri ched
Ġextend ed
Ġfirebra nd
Ġsubver t
Ġsubver ting
ĠJehos habeath
Ġsitu ation
Ġwanton ness
Ġdisput ings
ĠLiby ans
Ġovershad ow
ëĬĶê²ĥ ê³¼
ĠTeko ites
ëĵ¤ ìĿĦ
Ġê³Ħ ìĭľëĬĶ
ĠPotip har
Bu ild
Circumc ise
Def ile
Ser aiah
TH ER
Un less
dam mim
lal hashbaz
than i
ëĲľ ëĭ¤
ìĺ Ģ
ìĺ ĪìĪ
ì§Ģ ê¸Ī
Ġsen sual
Ġwak ens
Ġwak ened
Ġcitiz en
Ġcitiz ens
Ġint ents
ĠLu cius
ĠLu hith
Ġgap ed
ĠEld ad
ĠEld aah
ĠSac ar
ĠSac rifice
ĠShen ir
Ġrevel ings
Ġrevel ations
ĠMor iah
ĠMor asthite
ĠMess iah
ĠMess ias
ĠMak heloth
ĠCas luhim
ĠCas iphia
ĠChis leu
ĠChar ran
ĠClaud ius
ĠNis an
ĠNis roch
ĠHa uran
ĠBoc him
ĠBoc heru
ĠKer os
ĠKer ioth
Forb idding
ĠRu fus
Ġnephew s
Ġprosely te
Ġprosely tes
Ġsubs cribe
Ġsubs cribed
ĠZet ham
ĠZiz a
ĠZip hites
Ġglutton ous
Ġpermit ted
Ġenge nder
Ġenge nders
Hez ekiah
ĠAshur ites
Ġendeav ored
Ġgathere r
Ġgathere rs
Ġgrud ge
Ġgrud ging
Ġconcern s
Ġpartial ity
Ġparticular ly
Ġaffect ions
ĠEpaph ras
ĠEpaph roditus
ĠArvad ite
ĠBeaut y
ĠBeaut iful
ĠNahal iel
Ġeschew s
Ġforeign er
Ġforeign ers
Ġcorre cts
Ġcorre cted
Ġìĭ ľ
Ġemploy ed
Ġhym n
Ġhym ns
Ġbraw ling
Ġbarbar ian
Ġmedic ine
Ġmedic ines
Ġdispossess ed
Ġimprison ment
ĠOnes imus
ĠOnes iphorus
Ġfreed om
ĠMelchi zed
ĠSibb echai
Jehoi akim
Jehoi achin
Ġadminist ered
Ġthreaten ings
Ġartific er
Ġartific ers
ĠShaalb im
ĠShaalb onite
Ġpatriarch s
Ġpredest inate
Ġpredest inated
AK E
Char ity
Del ight
Fif ty
Fool s
Mic ah
Matt aniah
Pre ach
Sub mit
Sham mah
Tw enty
Tre mble
yn ia
ë¬ ¸
Ġtrim med
Ġtax ing
Ġbast ard
hil us
Ġcri me
Ġcaul kers
Ġcott age
Ġpant ed
ĠInd ia
ĠIri jah
Ġling ered
ĠJan ohah
ĠJul ius
ĠLub ims
Ġgn ash
Ġgut ters
Ġgorge ously
ĠGinn ethon
ĠSop hereth
ĠPis idia
ĠPith on
ĠPun on
ĠPeth or
ĠAk rabbim
ĠAtar ot
Ġmend ing
Ġmead ow
ĠMas rekah
ĠMos eroth
ĠMile tus
ĠMib zar
ĠMinn ith
ĠCle op
ĠCoz bi
ĠCarc hemish
Ġfrust rate
Ġfroward ness
ĠJog behah
Ġmans layer
Ġsparing ly
ĠNach or
ĠHot hir
ĠHal ak
ĠHidd ekel
ĠBith ynia
ĠChor azin
Ġvent ure
Ġconve y
Ġconqu er
Ġrubb ish
ĠRap ha
Ġlig ure
Ġliqu or
Ġsob riety
ĠTan humeth
ĠTert ullus
ĠTart an
ĠTik vah
Ġholi est
ĠZob a
ĠZabb ai
ĠZalmon ah
ĠWatch man
ĠJehi eli
Ġunl awful
Ġunequ al
Ġscabb ed
Ġscarc ely
Ġmoist ure
Ġwarri ors
Ġcontra diction
Ass hur
Ġminst rel
Ġsheepc ote
Ġdoorkeep ers
ĠMana hethites
Ġmarty r
ĠBethd agon
ĠBethha ccerem
ĠBethho glah
Ġcourteous ly
Ġforeknow ledge
Ġassaul t
ĠAnam im
ĠìĹ Ĩ
ĠMeshill emoth
ĠHarod ite
Ġë¨ ¹
Ġë¶ Ļìŀ
Ġinfam y
Ġchees e
ĠHashab niah
Rejo icing
ĠMehet abel
ĠJotb athah
ĠRepha ims
Ġembro iderer
Streng then
Ġmalic iousness
Ġì£Ħ ìĿĺ
ĠìķĦëĭ Ī
ĠShalman eser
ĠìĿ¸ ê°Ħ
ĠJipht hahel
Ġbusyb odies
Ġschool master
Ġê²°íķį ìĿ´
Ġevangel ist
Ara b
Bo ast
Bab ylon
Beli eve
Ch rist
Dear ly
Doub tless
EK EL
Et hiopia
Hus bands
Hod ijah
Hard en
Ib har
Im mediately
Jose ph
Ked emoth
Le ave
Mer aioth
Mal chi
Nathan ael
Off er
Pur ge
Pres erve
Ric hes
Reb uke
Shi me
Shar p
Vi olence
Van ity
Zel ek
Zeb ulun
apht ali
bal adan
god ah
gher s
ole th
ohes h
wit hal
Ġing athering
Ķìķ Ħ
Ġtith ing
Ġtap estry
Ġtheat re
Ġaust ere
Ġavou ched
Ġsher iffs
Ġschol ar
Ġosp ray
Ġoss ifrage
Ġber ries
Ġbot ch
Ġbatter ing
Ġbdell ium
Ġmaint enance
Ġfatt est
Ġfath oms
itness es
Ġcell ars
Ġcran e
Ġcircum spect
Ġcuc umbers
Ġcuck ow
Ġdas hes
Ġdau ghers
Ġinord inate
Ġinsp iration
Ġpap er
Ġpinn acle
Ġphilo so
Ġnut s
Ġbeho oved
Ġbeth ink
Ġlic ense
Ġlunat ic
ĠJut tah
ĠLeg ion
Ġsabach thani
ĠGent ile
ĠGud godah
ĠGale ed
ĠGree ce
ĠGeth seman
ĠGenub ath
ĠEvil merodach
ĠSad oc
ĠSost henes
ĠShom er
ĠSmy rna
ĠPub lius
ĠPap hos
ĠPhur ah
ĠPoc hereth
ĠAchi m
ĠAene as
ĠMeron othite
ĠMez ahab
ĠCab ul
ĠChan aan
ĠCertain ly
ĠCris pus
ĠCench rea
ĠJoche bed
ĠDev il
ĠDik lah
ĠDaber ath
Ġspec ial
Ġoutli ved
ĠNoth ing
ĠNap hish
Ġalbe it
ĠHac haliah
ĠHak upha
ĠHill el
ĠHob ab
ĠHars ha
ĠHAST E
ĠHymen aeus
ĠBine a
ĠBark os
ĠBaz l
ĠBars abas
ĠBils han
ĠBRAN CH
Ġvig ilant
Ġvari ance
Ġoffscour ing
ĠKol aiah
ĠKitt im
Ġridd ance
Ġshran k
ĠRef rain
ĠRip hath
ĠRog elim
ĠRiss ah
ĠThadd aeus
ĠTiph sah
Ġserge ants
Ġpranc ings
ĠOlive t
ĠZilt hai
ĠJosap hat
ĠJoshb ekashah
Ġnorther n
ĠTheop hilus
Ġwaterc ourse
ĠAbish ur
ĠJehde iah
Ġarchan gel
ĠAmitt ai
Ġglister ing
Ġgloomin ess
Ġunmo vable
Ġunreason able
Ġdescrib es
Ġeyew itnesses
Ġexpen ses
Ġexcl ud
Ġexpl oits
Ġdissim ulation
Ġleop ards
Ġappert ains
ĠRomamti ezer
Ġpopul ous
Ġuncond emned
ĠPhiladelp hia
ĠElipha let
Ġpartrid ge
ĠBeneja akan
ĠJehoadd an
ĠEltol ad
Ġtransfig ured
ĠArmen ia
ĠBethbar ah
ĠBethmarc aboth
ĠShasha k
Ġmoneychan gers
ĠAdbe el
Ġterrestri al
ĠColhoze h
ĠZeboi im
Ġìĸ¸ì ĸ´
Ġbondmaid s
ĠMahazi oth
ĠMahersha lalhashbaz
Ġshipwre ck
Ġcupbe arers
Ġsatisfact ion
ĠAshchen az
ĠIncre ase
Ġinflam mation
Ġpronunci ation
ĠPergam os
Ġnatura lly
Ġê¶ģ ê·¹
ĠHorhagid gad
ĠApharsac hites
ĠMehid a
ĠMehol athite
ĠTirhak ah
Ġembrac ing
ĠAbelbeth maachah
ĠEliphele h
ĠVenge ance
ĠRimmonpare z
ìĹĲì Ħľ
Ġespousal s
Ġë§Ĳë¯¸ìķ ĶìķĦ
ĠNephto ah
ĠHephzib ah
Ġpennywor th
Ġvermil ion
Ġë³µìĿ Į
ĠMisreph othmaim
ĠIjeab arim
ĠMelchized ek
Ġë¶Ļìŀ ¡
ĠGethseman e
