{
  "version": "1.0",
  "truncation": null,
  "padding": null,
  "added_tokens": [
    {
      "id": 0,
      "content": "<s>",
      "single_word": false,
      "lstrip": false,
      "rstrip": false,
      "normalized": false,
      "special": true
    },
    {
      "id": 1,
      "content": "<pad>",
      "single_word": false,
      "lstrip": false,
      "rstrip": false,
      "normalized": false,
      "special": true
    },
    {
      "id": 2,
      "content": "</s>",
      "single_word": false,
      "lstrip": false,
      "rstrip": false,
      "normalized": false,
      "special": true
    },
    {
      "id": 3,
      "content": "<unk>",
      "single_word": false,
      "lstrip": false,
      "rstrip": false,
      "normalized": false,
      "special": true
    },
    {
      "id": 4,
      "content": "<mask>",
      "single_word": false,
      "lstrip": false,
      "rstrip": false,
      "normalized": false,
      "special": true
    }
  ],
  "normalizer": null,
  "pre_tokenizer": {
    "type": "ByteLevel",
    "add_prefix_space": false,
    "trim_offsets": true,
    "use_regex": true
  },
  "post_processor": {
    "type": "ByteLevel",
    "add_prefix_space": true,
    "trim_offsets": false,
    "use_regex": true
  },
  "decoder": {
    "type": "ByteLevel",
    "add_prefix_space": true,
    "trim_offsets": true,
    "use_regex": true
  },
  "model": {
    "type": "BPE",
    "dropout": null,
    "unk_token": null,
    "continuing_subword_prefix": null,
    "end_of_word_suffix": null,
    "fuse_unk": false,
    "byte_fallback": false,
    "ignore_merges": false,
    "vocab": {
      "<s>": 0,
      "<pad>": 1,
      "</s>": 2,
      "<unk>": 3,
      "<mask>": 4,
      "!": 5,
      "\"": 6,
      "#": 7,
      "$": 8,
      "%": 9,
      "&": 10,
      "'": 11,
      "(": 12,
      ")": 13,
      "*": 14,
      "+": 15,
      ",": 16,
      "-": 17,
      ".": 18,
      "/": 19,
      "0": 20,
      "1": 21,
      "2": 22,
      "3": 23,
      "4": 24,
      "5": 25,
      "6": 26,
      "7": 27,
      "8": 28,
      "9": 29,
      ":": 30,
      ";": 31,
      "<": 32,
      "=": 33,
      ">": 34,
      "?": 35,
      "@": 36,
      "A": 37,
      "B": 38,
      "C": 39,
      "D": 40,
      "E": 41,
      "F": 42,
      "G": 43,
      "H": 44,
      "I": 45,
      "J": 46,
      "K": 47,
      "L": 48,
      "M": 49,
      "N": 50,
      "O": 51,
      "P": 52,
      "Q": 53,
      "R": 54,
      "S": 55,
      "T": 56,
      "U": 57,
      "V": 58,
      "W": 59,
      "X": 60,
      "Y": 61,
      "Z": 62,
      "[": 63,
      "\\": 64,
      "]": 65,
      "^": 66,
      "_": 67,
      "`": 68,
      "a": 69,
      "b": 70,
      "c": 71,
      "d": 72,
      "e": 73,
      "f": 74,
      "g": 75,
      "h": 76,
      "i": 77,
      "j": 78,
      "k": 79,
      "l": 80,
      "m": 81,
      "n": 82,
      "o": 83,
      "p": 84,
      "q": 85,
      "r": 86,
      "s": 87,
      "t": 88,
      "u": 89,
      "v": 90,
      "w": 91,
      "x": 92,
      "y": 93,
      "z": 94,
      "{": 95,
      "|": 96,
      "}": 97,
      "~": 98,
      "¡": 99,
      "¢": 100,
      "£": 101,
      "¤": 102,
      "¥": 103,
      "¦": 104,
      "§": 105,
      "¨": 106,
      "©": 107,
      "ª": 108,
      "«": 109,
      "¬": 110,
      "®": 111,
      "¯": 112,
      "°": 113,
      "±": 114,
      "²": 115,
      "³": 116,
      "´": 117,
      "µ": 118,
      "¶": 119,
      "·": 120,
      "¸": 121,
      "¹": 122,
      "º": 123,
      "»": 124,
      "¼": 125,
      "½": 126,
      "¾": 127,
      "¿": 128,
      "À": 129,
      "Á": 130,
      "Â": 131,
      "Ã": 132,
      "Ä": 133,
      "Å": 134,
      "Æ": 135,
      "Ç": 136,
      "È": 137,
      "É": 138,
      "Ê": 139,
      "Ë": 140,
      "Ì": 141,
      "Í": 142,
      "Î": 143,
      "Ï": 144,
      "Ð": 145,
      "Ñ": 146,
      "Ò": 147,
      "Ó": 148,
      "Ô": 149,
      "Õ": 150,
      "Ö": 151,
      "×": 152,
      "Ø": 153,
      "Ù": 154,
      "Ú": 155,
      "Û": 156,
      "Ü": 157,
      "Ý": 158,
      "Þ": 159,
      "ß": 160,
      "à": 161,
      "á": 162,
      "â": 163,
      "ã": 164,
      "ä": 165,
      "å": 166,
      "æ": 167,
      "ç": 168,
      "è": 169,
      "é": 170,
      "ê": 171,
      "ë": 172,
      "ì": 173,
      "í": 174,
      "î": 175,
      "ï": 176,
      "ð": 177,
      "ñ": 178,
      "ò": 179,
      "ó": 180,
      "ô": 181,
      "õ": 182,
      "ö": 183,
      "÷": 184,
      "ø": 185,
      "ù": 186,
      "ú": 187,
      "û": 188,
      "ü": 189,
      "ý": 190,
      "þ": 191,
      "ÿ": 192,
      "Ā": 193,
      "ā": 194,
      "Ă": 195,
      "ă": 196,
      "Ą": 197,
      "ą": 198,
      "Ć": 199,
      "ć": 200,
      "Ĉ": 201,
      "ĉ": 202,
      "Ċ": 203,
      "ċ": 204,
      "Č": 205,
      "č": 206,
      "Ď": 207,
      "ď": 208,
      "Đ": 209,
      "đ": 210,
      "Ē": 211,
      "ē": 212,
      "Ĕ": 213,
      "ĕ": 214,
      "Ė": 215,
      "ė": 216,
      "Ę": 217,
      "ę": 218,
      "Ě": 219,
      "ě": 220,
      "Ĝ": 221,
      "ĝ": 222,
      "Ğ": 223,
      "ğ": 224,
      "Ġ": 225,
      "ġ": 226,
      "Ģ": 227,
      "ģ": 228,
      "Ĥ": 229,
      "ĥ": 230,
      "Ħ": 231,
      "ħ": 232,
      "Ĩ": 233,
      "ĩ": 234,
      "Ī": 235,
      "ī": 236,
      "Ĭ": 237,
      "ĭ": 238,
      "Į": 239,
      "į": 240,
      "İ": 241,
      "ı": 242,
      "Ĳ": 243,
      "ĳ": 244,
      "Ĵ": 245,
      "ĵ": 246,
      "Ķ": 247,
      "ķ": 248,
      "ĸ": 249,
      "Ĺ": 250,
      "ĺ": 251,
      "Ļ": 252,
      "ļ": 253,
      "Ľ": 254,
      "ľ": 255,
      "Ŀ": 256,
      "ŀ": 257,
      "Ł": 258,
      "ł": 259,
      "Ń": 260,
      "Ġt": 261,
      "he": 262,
      "Ġthe": 263,
      "Ġa": 264,
      "nd": 265,
      "Ġs": 266,
      "Ġo": 267,
      "in": 268,
      "Ġw": 269,
      "ha": 270,
      "re": 271,
      "ou": 272,
      "Ġand": 273,
      "Ġof": 274,
      "Ġb": 275,
      "hi": 276,
      "er": 277,
      "ll": 278,
      "Ġm": 279,
      "es": 280,
      "Ġf": 281,
      "Ġy": 282,
      "Ġto": 283,
      "or": 284,
      "it": 285,
      "Ġyou": 286,
      "Ġc": 287,
      "on": 288,
      "en": 289,
      "ed": 290,
      "ing": 291,
      "Ġd": 292,
      "Ġhe": 293,
      "Ġhi": 294,
      "Ġin": 295,
      "Ġp": 296,
      "is": 297,
      "at": 298,
      "Ġn": 299,
      "hat": 300,
      "an": 301,
      "ar": 302,
      "Ġ1": 303,
      "Ġbe": 304,
      "om": 305,
      "ĠI": 306,
      "And": 307,
      "el": 308,
      "Ġthat": 309,
      "Ġha": 310,
      "Ġl": 311,
      "Ġsha": 312,
      "ot": 313,
      "Ġshall": 314,
      "as": 315,
      "ĠJ": 316,
      "ĠL": 317,
      "Ġg": 318,
      "id": 319,
      "ut": 320,
      "Ġsa": 321,
      "ve": 322,
      "us": 323,
      "Ġ2": 324,
      "Ġfor": 325,
      "le": 326,
      "Ġe": 327,
      "am": 328,
      "od": 329,
      "Ġhis": 330,
      "ld": 331,
      "ow": 332,
      "ĠG": 333,
      "Ġyour": 334,
      "gh": 335,
      "ah": 336,
      "ith": 337,
      "ay": 338,
      "Ġhim": 339,
      "her": 340,
      "Ġon": 341,
      "Ġthey": 342,
      "Ġis": 343,
      "ver": 344,
      "ch": 345,
      "Ġthem": 346,
      "Ġnot": 347,
      "Ġwith": 348,
      "OR": 349,
      "ORD": 350,
      "ĠLORD": 351,
      "ir": 352,
      "se": 353,
      "ent": 354,
      "ho": 355,
      "ri": 356,
      "et": 357,
      "Ġk": 358,
      "ce": 359,
      "al": 360,
      "Ġit": 361,
      "ra": 362,
      "ght": 363,
      "ere": 364,
      "Ġwi": 365,
      "ĠE": 366,
      "ĠS": 367,
      "Ġall": 368,
      "Ġsaid": 369,
      "ĠP": 370,
      "ke": 371,
      "st": 372,
      "ĠA": 373,
      "Ġre": 374,
      "Ġme": 375,
      "Ġhave": 376,
      "Ġmy": 377,
      "ad": 378,
      "ore": 379,
      "ion": 380,
      "Ġwas": 381,
      "Ġwhi": 382,
      "The": 383,
      "ro": 384,
      "ur": 385,
      "Ġth": 386,
      "Ġh": 387,
      "Ġan": 388,
      "ĠM": 389,
      "iah": 390,
      "ord": 391,
      "Ġwhich": 392,
      "and": 393,
      "Ġu": 394,
      "Ġthere": 395,
      "ain": 396,
      "ĠIs": 397,
      "th": 398,
      "Ġas": 399,
      "ic": 400,
      "Ġwill": 401,
      "les": 402,
      "ĠGod": 403,
      "ĠC": 404,
      "Ġfr": 405,
      "Ġ3": 406,
      "Ġse": 407,
      "ven": 408,
      "ers": 409,
      "Ġcom": 410,
      "Ġtheir": 411,
      "ings": 412,
      "ĠJo": 413,
      "Ġst": 414,
      "il": 415,
      "Ġwhe": 416,
      "Ġfrom": 417,
      "Ġman": 418,
      "ts": 419,
      "Ġare": 420,
      "ame": 421,
      "Ġson": 422,
      "Ġgo": 423,
      "Ġthi": 424,
      "fore": 425,
      "if": 426,
      "Ġbr": 427,
      "ĠD": 428,
      "ation": 429,
      "Ġsp": 430,
      "Ġking": 431,
      "ess": 432,
      "ud": 433,
      "Ġwere": 434,
      "Ġout": 435,
      "sal": 436,
      "ly": 437,
      "ter": 438,
      "ĠN": 439,
      "im": 440,
      "Ġday": 441,
      "um": 442,
      "Ġ4": 443,
      "rael": 444,
      "Ġal": 445,
      "Ġup": 446,
      "Ġpe": 447,
      "ĠIsrael": 448,
      "ĠH": 449,
      "Ġby": 450,
      "ron": 451,
      "ple": 452,
      "ight": 453,
      "Ġwhen": 454,
      "salm": 455,
      "Ġsay": 456,
      "ans": 457,
      "Ġde": 458,
      "ĠPsalm": 459,
      "Ġthis": 460,
      "Ġbut": 461,
      "Ġwe": 462,
      "ĠB": 463,
      "Ġag": 464,
      "est": 465,
      "ĠCh": 466,
      "Ġhou": 467,
      "red": 468,
      "Ġchi": 469,
      "ab": 470,
      "ive": 471,
      "Ġagain": 472,
      "iel": 473,
      "Ġhas": 474,
      "ren": 475,
      "ear": 476,
      "Ġdo": 477,
      "to": 478,
      "Ġhear": 479,
      "Ġher": 480,
      "Ġpeo": 481,
      "ac": 482,
      "ake": 483,
      "Ġpeople": 484,
      "pt": 485,
      "ul": 486,
      "Ġcame": 487,
      "Ġhouse": 488,
      "Ġv": 489,
      "Ġoff": 490,
      "ak": 491,
      "all": 492,
      "Ġhad": 493,
      "Ġchild": 494,
      "Ġhand": 495,
      "Ġinto": 496,
      "ast": 497,
      "âĢ": 498,
      "âĢĻ": 499,
      "ĠK": 500,
      "ather": 501,
      "ek": 502,
      "ev": 503,
      "so": 504,
      "miah": 505,
      "nt": 506,
      "ok": 507,
      "Ġcome": 508,
      "sel": 509,
      "Ġone": 510,
      "Ġam": 511,
      "ĠSam": 512,
      "ness": 513,
      "Ġchildren": 514,
      "Ġcon": 515,
      "ronic": 516,
      "ronicles": 517,
      "one": 518,
      "Ġbefore": 519,
      "For": 520,
      "Ġever": 521,
      "umb": 522,
      "Ġland": 523,
      "ous": 524,
      "ĠChronicles": 525,
      "other": 526,
      "uel": 527,
      "ace": 528,
      "os": 529,
      "hold": 530,
      "aus": 531,
      "Ġmen": 532,
      "Ġr": 533,
      "ity": 534,
      "Ġalso": 535,
      "Ġagainst": 536,
      "ck": 537,
      "Ġsh": 538,
      "ĠSamuel": 539,
      "Ġaf": 540,
      "Ġat": 541,
      "Ġkn": 542,
      "ĠR": 543,
      "Ġli": 544,
      "ass": 545,
      "ĠEz": 546,
      "att": 547,
      "Ġ5": 548,
      "Ġab": 549,
      "ould": 550,
      "em": 551,
      "own": 552,
      "ves": 553,
      "Ġno": 554,
      "Ġus": 555,
      "ause": 556,
      "ĠJud": 557,
      "enes": 558,
      "Ġpl": 559,
      "ĠKings": 560,
      "our": 561,
      "ĠGenes": 562,
      "ĠGenesis": 563,
      "Ġso": 564,
      "ĠJere": 565,
      "Ġne": 566,
      "ell": 567,
      "aiah": 568,
      "ĠJeremiah": 569,
      "ĠT": 570,
      "Ġwor": 571,
      "Ġser": 572,
      "ade": 573,
      "urn": 574,
      "Ġj": 575,
      "ies": 576,
      "But": 577,
      "Ġshe": 578,
      "ol": 579,
      "Ġfather": 580,
      "ound": 581,
      "Ġtw": 582,
      "Ġwho": 583,
      "Ġear": 584,
      "ong": 585,
      "Ġmade": 586,
      "Ġ7": 587,
      "Ġwent": 588,
      "Ġ6": 589,
      "reat": 590,
      "ard": 591,
      "ep": 592,
      "ise": 593,
      "Ġsaying": 594,
      "Ġri": 595,
      "Then": 596,
      "ist": 597,
      "Ġeven": 598,
      "av": 599,
      "ant": 600,
      "Ġpr": 601,
      "Ġpro": 602,
      "han": 603,
      "res": 604,
      "ĠIsaiah": 605,
      "ge": 606,
      "Ġsu": 607,
      "out": 608,
      "ought": 609,
      "ĠO": 610,
      "umbers": 611,
      "Ġ11": 612,
      "ĠNumbers": 613,
      "ill": 614,
      "Ġ10": 615,
      "ĠEzek": 616,
      "ĠEzekiel": 617,
      "Ġor": 618,
      "Ġbec": 619,
      "Ġover": 620,
      "cc": 621,
      "Ġho": 622,
      "ered": 623,
      "ĠAnd": 624,
      "uke": 625,
      "ice": 626,
      "Ġword": 627,
      "bs": 628,
      "ĠEx": 629,
      "ĠLev": 630,
      "Ġoffer": 631,
      "Ġlo": 632,
      "Ġ8": 633,
      "odus": 634,
      "ĠExodus": 635,
      "Ġserv": 636,
      "ment": 637,
      "Ġ9": 638,
      "Ġour": 639,
      "ath": 640,
      "Ġcomm": 641,
      "Ġevery": 642,
      "Ġtr": 643,
      "Ġlet": 644,
      "Ġafter": 645,
      "ted": 646,
      "hn": 647,
      "Ġgreat": 648,
      "Ġthings": 649,
      "ĠLevit": 650,
      "ĠLuke": 651,
      "ĠZ": 652,
      "ec": 653,
      "Ġmay": 654,
      "ĠJob": 655,
      "ĠJohn": 656,
      "hu": 657,
      "Ġdown": 658,
      "10": 659,
      "Ġknow": 660,
      "ood": 661,
      "pp": 662,
      "ĠMatt": 663,
      "Ġif": 664,
      "11": 665,
      "Ġdid": 666,
      "hew": 667,
      "Ġsons": 668,
      "12": 669,
      "cts": 670,
      "ine": 671,
      "ĠMatthew": 672,
      "way": 673,
      "avid": 674,
      "of": 675,
      "13": 676,
      "ale": 677,
      "Ġpass": 678,
      "ĠLord": 679,
      "ĠDavid": 680,
      "oth": 681,
      "Ġmake": 682,
      "ĠJer": 683,
      "ount": 684,
      "Ġpri": 685,
      "orn": 686,
      "14": 687,
      "Ġearth": 688,
      "ide": 689,
      "hes": 690,
      "ĠActs": 691,
      "Ġbecause": 692,
      "ark": 693,
      "eb": 694,
      "Ġthese": 695,
      "ĠJes": 696,
      "Ġwh": 697,
      "li": 698,
      "15": 699,
      "Ġ14": 700,
      "ĠW": 701,
      "Ġ13": 702,
      "ough": 703,
      "ĠDe": 704,
      "eron": 705,
      "ved": 706,
      "Ġ12": 707,
      "omy": 708,
      "uteron": 709,
      "Ġbrother": 710,
      "ĠDeuteron": 711,
      "ĠDeuteronomy": 712,
      "16": 713,
      "Ġname": 714,
      "Ġla": 715,
      "self": 716,
      "hed": 717,
      "ĠJos": 718,
      "qu": 719,
      "Ġco": 720,
      "ither": 721,
      "Ġput": 722,
      "ĠPro": 723,
      "Ġacc": 724,
      "ges": 725,
      "17": 726,
      "ree": 727,
      "verbs": 728,
      "nder": 729,
      "hua": 730,
      "Ġyear": 731,
      "Ġsw": 732,
      "Ġany": 733,
      "ĠProverbs": 734,
      "Ġsin": 735,
      "Ġfi": 736,
      "Ġright": 737,
      "Ġcommand": 738,
      "Ġaway": 739,
      "Ġthereof": 740,
      "Ġamong": 741,
      "Ġnor": 742,
      "Ġshould": 743,
      "ĠJesus": 744,
      "ught": 745,
      "Ġforth": 746,
      "int": 747,
      "Ġdi": 748,
      "Ġwhere": 749,
      "ward": 750,
      "Ġway": 751,
      "ave": 752,
      "Ġbrought": 753,
      "18": 754,
      "Ġwork": 755,
      "ĠJoshua": 756,
      "You": 757,
      "Ġdays": 758,
      "Ġcity": 759,
      "Ġcall": 760,
      "ther": 761,
      "oses": 762,
      "icus": 763,
      "ĠLeviticus": 764,
      "ĠThe": 765,
      "Ġeat": 766,
      "ĠMoses": 767,
      "Ġtwo": 768,
      "ry": 769,
      "aven": 770,
      "Ġgood": 771,
      "Ġheart": 772,
      "ations": 773,
      "19": 774,
      "Ġwat": 775,
      "ians": 776,
      "Ġspo": 777,
      "Ġbu": 778,
      "Ġ15": 779,
      "alem": 780,
      "ĠAb": 781,
      "ef": 782,
      "usalem": 783,
      "ĠJerusalem": 784,
      "ĠJudah": 785,
      "20": 786,
      "Ġtim": 787,
      "Ġmight": 788,
      "Ġgive": 789,
      "Ġtherefore": 790,
      "Ġsee": 791,
      "ording": 792,
      "Ġthen": 793,
      "Ġwhat": 794,
      "Ġneither": 795,
      "ng": 796,
      "Ġbre": 797,
      "ig": 798,
      "21": 799,
      "ants": 800,
      "ĠJe": 801,
      "Ġaccording": 802,
      "aught": 803,
      "Ġnow": 804,
      "und": 805,
      "Ġar": 806,
      "gy": 807,
      "Ġbehold": 808,
      "Ġtook": 809,
      "vil": 810,
      "ust": 811,
      "Ġwhom": 812,
      "Ġbl": 813,
      "Ġjud": 814,
      "Ġ16": 815,
      "led": 816,
      "ance": 817,
      "Ġlike": 818,
      "dom": 819,
      "Ġmore": 820,
      "ph": 821,
      "gypt": 822,
      "wn": 823,
      "Ġheaven": 824,
      "well": 825,
      "ĠEgypt": 826,
      "Ġset": 827,
      "Ġ18": 828,
      "Ġplace": 829,
      "Ġdwell": 830,
      "Ġwr": 831,
      "less": 832,
      "Ġtake": 833,
      "Ġoffering": 834,
      "Ġlif": 835,
      "Ġdel": 836,
      "22": 837,
      "Ġ22": 838,
      "ĠAm": 839,
      "Ġspe": 840,
      "ub": 841,
      "Ġfe": 842,
      "Ġbring": 843,
      "itt": 844,
      "ĠCor": 845,
      "Ġsou": 846,
      "Ġsent": 847,
      "ish": 848,
      "oice": 849,
      "Ġgl": 850,
      "hians": 851,
      "inthians": 852,
      "ĠCorinthians": 853,
      "ate": 854,
      "Ġunder": 855,
      "Ġthr": 856,
      "Ġ19": 857,
      "ĠMark": 858,
      "sw": 859,
      "Ġ21": 860,
      "Ġcha": 861,
      "Ġper": 862,
      "Ġgi": 863,
      "Ġsm": 864,
      "Ġansw": 865,
      "hen": 866,
      "Ġprop": 867,
      "Ġ20": 868,
      "Ġfo": 869,
      "23": 870,
      "ome": 871,
      "rib": 872,
      "Ġheard": 873,
      "Ġrem": 874,
      "selves": 875,
      "Ġfir": 876,
      "Ġun": 877,
      "ern": 878,
      "Ġen": 879,
      "Ġdes": 880,
      "Ġro": 881,
      "Ġey": 882,
      "ws": 883,
      "un": 884,
      "Ġabout": 885,
      "Ġhund": 886,
      "Ġcalled": 887,
      "Ġhundred": 888,
      "ind": 889,
      "ty": 890,
      "ue": 891,
      "Ġke": 892,
      "ign": 893,
      "Ġtime": 894,
      "He": 895,
      "Ġpre": 896,
      "Ġ23": 897,
      "Ġevil": 898,
      "aul": 899,
      "Ġthan": 900,
      "ĠJudges": 901,
      "Ġown": 902,
      "Ġwom": 903,
      "Ġbeg": 904,
      "24": 905,
      "Ġthrough": 906,
      "Ġfirst": 907,
      "apt": 908,
      "ure": 909,
      "ried": 910,
      "eous": 911,
      "ct": 912,
      "Ġex": 913,
      "ehold": 914,
      "Ġspeak": 915,
      "Ġspoke": 916,
      "ites": 917,
      "Ġang": 918,
      "Ġfl": 919,
      "Ġturn": 920,
      "Ġ17": 921,
      "get": 922,
      "rist": 923,
      "Ġsc": 924,
      "ink": 925,
      "irit": 926,
      "Now": 927,
      "Ġthous": 928,
      "Ġthousand": 929,
      "are": 930,
      "Ġlaw": 931,
      "25": 932,
      "ag": 933,
      "Ġmount": 934,
      "Ġdaught": 935,
      "ever": 936,
      "Ġ24": 937,
      "Ġdis": 938,
      "ĠChrist": 939,
      "Ġthree": 940,
      "Ġsaw": 941,
      "ob": 942,
      "Ġdone": 943,
      "Ġyet": 944,
      "ite": 945,
      "cked": 946,
      "Ġfire": 947,
      "Ġpriest": 948,
      "Ġdest": 949,
      "ities": 950,
      "Ġbrothers": 951,
      "There": 952,
      "Ġrighteous": 953,
      "Ġfathers": 954,
      "Ġwords": 955,
      "Ġother": 956,
      "Ġthing": 957,
      "Ġyears": 958,
      "Ġsoul": 959,
      "els": 960,
      "Ġmany": 961,
      "me": 962,
      "26": 963,
      "Ġcl": 964,
      "Ġglor": 965,
      "ham": 966,
      "Ġdr": 967,
      "Ġpray": 968,
      "Ġhimself": 969,
      "hose": 970,
      "Ġbur": 971,
      "Ġcast": 972,
      "Ġfa": 973,
      "gether": 974,
      "Ġfour": 975,
      "Ġsl": 976,
      "Ġ26": 977,
      "ĠAs": 978,
      "ĠDan": 979,
      "Ġprophe": 980,
      "ci": 981,
      "27": 982,
      "Ġvoice": 983,
      "Ġfound": 984,
      "Ġservant": 985,
      "Ġeyes": 986,
      "par": 987,
      "alk": 988,
      "Ġtab": 989,
      "Ġgave": 990,
      "Ġgiven": 991,
      "Ġ25": 992,
      "Ġend": 993,
      "Ġanswered": 994,
      "Ġhost": 995,
      "So": 996,
      "fe": 997,
      "Ġwicked": 998,
      "Ġgold": 999,
      "ach": 1000,
      "Ġjudg": 1001,
      "Ġcapt": 1002,
      "Ġtogether": 1003,
      "Ġhead": 1004,
      "Ġwould": 1005,
      "hus": 1006,
      "Ġservants": 1007,
      "erc": 1008,
      "Ġbo": 1009,
      "ving": 1010,
      "Ġholy": 1011,
      "tar": 1012,
      "ĠPhi": 1013,
      "Ġbread": 1014,
      "28": 1015,
      "roy": 1016,
      "Ġblood": 1017,
      "Ġle": 1018,
      "Ġhands": 1019,
      "ress": 1020,
      "Ġret": 1021,
      "Ġdestroy": 1022,
      "ied": 1023,
      "Ġseven": 1024,
      "Ġapp": 1025,
      "hab": 1026,
      "Ġ27": 1027,
      "Ġanother": 1028,
      "Ġlife": 1029,
      "ence": 1030,
      "owed": 1031,
      "Ġthir": 1032,
      "Ġcan": 1033,
      "Ġcities": 1034,
      "Ġmou": 1035,
      "idd": 1036,
      "Ġcommanded": 1037,
      "Ġthose": 1038,
      "ĠRom": 1039,
      "Ġsword": 1040,
      "ĠHeb": 1041,
      "Ġkeep": 1042,
      "te": 1043,
      "Ġtre": 1044,
      "Ġside": 1045,
      "ains": 1046,
      "ĠNe": 1047,
      "Ġmouth": 1048,
      "his": 1049,
      "Ġpar": 1050,
      "ĠRomans": 1051,
      "Ġreturn": 1052,
      "ors": 1053,
      "ĠDaniel": 1054,
      "ai": 1055,
      "Ġtak": 1056,
      "ments": 1057,
      "Ġaltar": 1058,
      "29": 1059,
      "lean": 1060,
      "Ġfam": 1061,
      "ock": 1062,
      "hy": 1063,
      "ap": 1064,
      "Ġ28": 1065,
      "ru": 1066,
      "Ġfles": 1067,
      "Ġflesh": 1068,
      "mb": 1069,
      "Ġmerc": 1070,
      "Ġpeace": 1071,
      "Ġtrib": 1072,
      "omon": 1073,
      "olomon": 1074,
      "Ġhigh": 1075,
      "Ġwithout": 1076,
      "Ġra": 1077,
      "ĠSolomon": 1078,
      "ey": 1079,
      "ĠNehe": 1080,
      "ull": 1081,
      "Ġface": 1082,
      "Ġhow": 1083,
      "Ġpo": 1084,
      "Ġgat": 1085,
      "ĠSaul": 1086,
      "Ġbet": 1087,
      "elation": 1088,
      "ĠNehemiah": 1089,
      "row": 1090,
      "oss": 1091,
      "Ġent": 1092,
      "ests": 1093,
      "Therefore": 1094,
      "Ġspirit": 1095,
      "ult": 1096,
      "Ġthemselves": 1097,
      "Ġwalk": 1098,
      "az": 1099,
      "Ġwife": 1100,
      "Ġrep": 1101,
      "ful": 1102,
      "uch": 1103,
      "ĠRev": 1104,
      "ĠRevelation": 1105,
      "ĠF": 1106,
      "Ġwater": 1107,
      "ort": 1108,
      "rif": 1109,
      "Ġsea": 1110,
      "Ġglory": 1111,
      "Ġdrink": 1112,
      "Ġprin": 1113,
      "ĠPha": 1114,
      "Ġkingdom": 1115,
      "ield": 1116,
      "Ġpriests": 1117,
      "30": 1118,
      "its": 1119,
      "Ġgra": 1120,
      "Ġold": 1121,
      "iddle": 1122,
      "Ġrest": 1123,
      "Ġfear": 1124,
      "pen": 1125,
      "uth": 1126,
      "ces": 1127,
      "tain": 1128,
      "Ġbless": 1129,
      "Ġmiddle": 1130,
      "Ġenem": 1131,
      "ĠJac": 1132,
      "Ġrece": 1133,
      "ĠJacob": 1134,
      "gre": 1135,
      "Ġfall": 1136,
      "Ġdeath": 1137,
      "eth": 1138,
      "31": 1139,
      "enty": 1140,
      "Ġdead": 1141,
      "Ġcar": 1142,
      "Ġsil": 1143,
      "Ġ29": 1144,
      "Ġcongre": 1145,
      "Ġcongreg": 1146,
      "ran": 1147,
      "ntil": 1148,
      "Ġburnt": 1149,
      "Ġstand": 1150,
      "Ġbro": 1151,
      "eter": 1152,
      "Ġcongregation": 1153,
      "Ġunc": 1154,
      "Ġmult": 1155,
      "ose": 1156,
      "Ġwoman": 1157,
      "Ġreign": 1158,
      "ernac": 1159,
      "iver": 1160,
      "Ġcount": 1161,
      "Ġfaith": 1162,
      "Ġtabernac": 1163,
      "aron": 1164,
      "Ġ31": 1165,
      "Ġboth": 1166,
      "ised": 1167,
      "Ġlight": 1168,
      "ared": 1169,
      "Ġlef": 1170,
      "Ġcons": 1171,
      "ĠHebre": 1172,
      "Ġleft": 1173,
      "ken": 1174,
      "ner": 1175,
      "Ġfield": 1176,
      "ĠAaron": 1177,
      "ĠYou": 1178,
      "Ġwild": 1179,
      "Ġuntil": 1180,
      "Ġyoung": 1181,
      "ps": 1182,
      "Ġtoward": 1183,
      "Ġnone": 1184,
      "Ġdepar": 1185,
      "Ġlook": 1186,
      "ff": 1187,
      "Ġsle": 1188,
      "ĠBehold": 1189,
      "ove": 1190,
      "Ġfive": 1191,
      "Ġstood": 1192,
      "itten": 1193,
      "een": 1194,
      "ond": 1195,
      "Ġgr": 1196,
      "ile": 1197,
      "Ġtaken": 1198,
      "Ġsac": 1199,
      "Ġnations": 1200,
      "Ġsacrif": 1201,
      "iqu": 1202,
      "lon": 1203,
      "Ġsight": 1204,
      "Ġgod": 1205,
      "Ġ30": 1206,
      "Ġiniqu": 1207,
      "Ġfell": 1208,
      "Ġcut": 1209,
      "Ġsame": 1210,
      "Ġbeen": 1211,
      "aces": 1212,
      "Ġim": 1213,
      "Ġpres": 1214,
      "ower": 1215,
      "Ġkings": 1216,
      "32": 1217,
      "ez": 1218,
      "Ġcause": 1219,
      "ished": 1220,
      "ib": 1221,
      "Ġmother": 1222,
      "Ġmuch": 1223,
      "Ġinc": 1224,
      "Ġtabernacle": 1225,
      "Ġnight": 1226,
      "ase": 1227,
      "They": 1228,
      "attle": 1229,
      "ines": 1230,
      "Ġdaughter": 1231,
      "ĠHebrews": 1232,
      "ret": 1233,
      "ions": 1234,
      "Ġ32": 1235,
      "Ġcomp": 1236,
      "reng": 1237,
      "illed": 1238,
      "Ġdie": 1239,
      "hing": 1240,
      "oh": 1241,
      "Ġmo": 1242,
      "ia": 1243,
      "Ġel": 1244,
      "Ġtem": 1245,
      "Ġround": 1246,
      "Ġsi": 1247,
      "Ġfru": 1248,
      "Ġstreng": 1249,
      "rong": 1250,
      "Ġsilver": 1251,
      "Ġbeli": 1252,
      "ĠPeter": 1253,
      "ches": 1254,
      "very": 1255,
      "ĠShe": 1256,
      "Ġwar": 1257,
      "Ġburn": 1258,
      "Ġfamil": 1259,
      "oin": 1260,
      "Ġhar": 1261,
      "Ġlove": 1262,
      "ourn": 1263,
      "Ġwa": 1264,
      "Ġmon": 1265,
      "stand": 1266,
      "Ġnear": 1267,
      "ary": 1268,
      "Ġinher": 1269,
      "Ġmonth": 1270,
      "Ġinherit": 1271,
      "If": 1272,
      "Ġnumb": 1273,
      "Ġdeliver": 1274,
      "ote": 1275,
      "ĠEzra": 1276,
      "ched": 1277,
      "erness": 1278,
      "Ġrighteousness": 1279,
      "Ġmeat": 1280,
      "Ġwilderness": 1281,
      "33": 1282,
      "OD": 1283,
      "oud": 1284,
      "Ġfull": 1285,
      "Ġcont": 1286,
      "Ġdelive": 1287,
      "asts": 1288,
      "In": 1289,
      "ars": 1290,
      "ĠGOD": 1291,
      "Ġcoven": 1292,
      "enth": 1293,
      "Ġhosts": 1294,
      "ylon": 1295,
      "ĠBab": 1296,
      "Ġcou": 1297,
      "vers": 1298,
      "Ġarm": 1299,
      "Ġcovenant": 1300,
      "Ġopen": 1301,
      "Ġseek": 1302,
      "ĠBabylon": 1303,
      "hered": 1304,
      "Ġrej": 1305,
      "Ġchief": 1306,
      "ĠPhil": 1307,
      "yri": 1308,
      "ack": 1309,
      "Ġjudgment": 1310,
      "Ġdelivered": 1311,
      "Ġworld": 1312,
      "Ġtwenty": 1313,
      "Ġwaters": 1314,
      "When": 1315,
      "Ġlord": 1316,
      "Ġ33": 1317,
      "ĠPhilist": 1318,
      "Ġthus": 1319,
      "Ġstran": 1320,
      "pe": 1321,
      "Ġqu": 1322,
      "Ġspok": 1323,
      "Ġple": 1324,
      "ick": 1325,
      "Ġsan": 1326,
      "Ġturned": 1327,
      "Ġspoken": 1328,
      "ones": 1329,
      "Ġseed": 1330,
      "age": 1331,
      "Ġposs": 1332,
      "Ġmighty": 1333,
      "Ġfoll": 1334,
      "Ġshow": 1335,
      "Ġwhose": 1336,
      "ect": 1337,
      "Ġinhab": 1338,
      "riah": 1339,
      "ived": 1340,
      "Ġtold": 1341,
      "itud": 1342,
      "Ġcomes": 1343,
      "Ġdoes": 1344,
      "Ġconc": 1345,
      "Ġinhabit": 1346,
      "Ġlaid": 1347,
      "ber": 1348,
      "Ġbeing": 1349,
      "Ġsix": 1350,
      "Ġsec": 1351,
      "Ġiniquity": 1352,
      "Ġseen": 1353,
      "Ġstrong": 1354,
      "Ġwritten": 1355,
      "sp": 1356,
      "Ġpower": 1357,
      "Ġgate": 1358,
      "Ġdisci": 1359,
      "ĠPhara": 1360,
      "lic": 1361,
      "Ġworks": 1362,
      "Ġsanct": 1363,
      "34": 1364,
      "Ġwell": 1365,
      "Ġmercy": 1366,
      "ew": 1367,
      "ĠWhat": 1368,
      "ĠFather": 1369,
      "Ġte": 1370,
      "Ġad": 1371,
      "oub": 1372,
      "Ġpra": 1373,
      "Ġlam": 1374,
      "ĠEli": 1375,
      "Ġpart": 1376,
      "Ġpossess": 1377,
      "ĠPharaoh": 1378,
      "cl": 1379,
      "Ġfif": 1380,
      "Ġ34": 1381,
      "Ġprinces": 1382,
      "Ġenemies": 1383,
      "Ġkind": 1384,
      "Ġgathered": 1385,
      "Ġmultitud": 1386,
      "That": 1387,
      "ples": 1388,
      "Ġofferings": 1389,
      "ĠLevites": 1390,
      "Ġlay": 1391,
      "den": 1392,
      "Ġlong": 1393,
      "Ġsat": 1394,
      "Ġunderstand": 1395,
      "ild": 1396,
      "ames": 1397,
      "Ġnothing": 1398,
      "ets": 1399,
      "Ġsub": 1400,
      "Ġten": 1401,
      "Ġcub": 1402,
      "Ġvery": 1403,
      "ĠBen": 1404,
      "ses": 1405,
      "Ġwall": 1406,
      "ows": 1407,
      "Ġfeet": 1408,
      "ins": 1409,
      "hariah": 1410,
      "ified": 1411,
      "ail": 1412,
      "Ġ36": 1413,
      "ĠPhilistines": 1414,
      "mon": 1415,
      "Ġpur": 1416,
      "Ġgen": 1417,
      "ĠJews": 1418,
      "Behold": 1419,
      "Ġsure": 1420,
      "Ġdaughters": 1421,
      "Ġhid": 1422,
      "raham": 1423,
      "Ġwhole": 1424,
      "ĠZec": 1425,
      "ĠZechariah": 1426,
      "ĠJose": 1427,
      "ween": 1428,
      "Ġwine": 1429,
      "Ġlive": 1430,
      "ĠAbraham": 1431,
      "Ġbetween": 1432,
      "ĠJoseph": 1433,
      "Ġwit": 1434,
      "Ġprophet": 1435,
      "35": 1436,
      "Ġwise": 1437,
      "Ġsal": 1438,
      "Ġsome": 1439,
      "Ġwis": 1440,
      "Ġsend": 1441,
      "Ġsuch": 1442,
      "ittle": 1443,
      "Ġfruit": 1444,
      "Ġdisciples": 1445,
      "ertain": 1446,
      "ĠSon": 1447,
      "erning": 1448,
      "Ġmultitude": 1449,
      "Ġyes": 1450,
      "omin": 1451,
      "ĠTim": 1452,
      "Ġgods": 1453,
      "ech": 1454,
      "Ġbes": 1455,
      "Ġhere": 1456,
      "ĠJeho": 1457,
      "Ġtribe": 1458,
      "Let": 1459,
      "Who": 1460,
      "over": 1461,
      "Ġstrength": 1462,
      "Thus": 1463,
      "Ġob": 1464,
      "ĠGal": 1465,
      "isten": 1466,
      "Ġprophets": 1467,
      "Ġinheritance": 1468,
      "Ġlittle": 1469,
      "ilt": 1470,
      "Why": 1471,
      "ister": 1472,
      "ents": 1473,
      "Ġbear": 1474,
      "Ġtruth": 1475,
      "Ġcur": 1476,
      "Ġanger": 1477,
      "Ġunclean": 1478,
      "hem": 1479,
      "Ġask": 1480,
      "orning": 1481,
      "Ġdwelled": 1482,
      "Ġcertain": 1483,
      "Ġtherein": 1484,
      "Ġark": 1485,
      "Ġsmote": 1486,
      "Ġdre": 1487,
      "Ġbuild": 1488,
      "Ġgener": 1489,
      "ire": 1490,
      "Ġdark": 1491,
      "Ġmorning": 1492,
      "orrow": 1493,
      "Ġconf": 1494,
      "Ġwhy": 1495,
      "Ġexce": 1496,
      "ointed": 1497,
      "Ġconcerning": 1498,
      "ĠEl": 1499,
      "able": 1500,
      "Ġbegat": 1501,
      "ged": 1502,
      "hip": 1503,
      "sther": 1504,
      "Ġdev": 1505,
      "astes": 1506,
      "Ġwisdom": 1507,
      "iastes": 1508,
      "ures": 1509,
      "ĠEcc": 1510,
      "lesiastes": 1511,
      "Ġaff": 1512,
      "ĠEcclesiastes": 1513,
      "Ġhold": 1514,
      "Ġgar": 1515,
      "ĠEsther": 1516,
      "Ġknown": 1517,
      "36": 1518,
      "oy": 1519,
      "Ġonly": 1520,
      "Ġabove": 1521,
      "Ġplaces": 1522,
      "Ġbuilt": 1523,
      "Ġcoun": 1524,
      "Ġsave": 1525,
      "Ġchar": 1526,
      "ger": 1527,
      "Ġcho": 1528,
      "Ġut": 1529,
      "Ġremem": 1530,
      "ning": 1531,
      "Ġ37": 1532,
      "Ġdeparted": 1533,
      "As": 1534,
      "Ġpit": 1535,
      "Ġyourself": 1536,
      "ify": 1537,
      "Ġsacrifice": 1538,
      "Ġcry": 1539,
      "ĠJon": 1540,
      "oney": 1541,
      "Ġhat": 1542,
      "Ġpi": 1543,
      "Ġgone": 1544,
      "Ġ35": 1545,
      "Ġcubits": 1546,
      "aid": 1547,
      "end": 1548,
      "oved": 1549,
      "Ġbod": 1550,
      "ely": 1551,
      "ute": 1552,
      "Ġest": 1553,
      "Ġlest": 1554,
      "ĠMo": 1555,
      "Ġserve": 1556,
      "Ġtwel": 1557,
      "Ġcam": 1558,
      "ĠRe": 1559,
      "ĠThus": 1560,
      "Ġmin": 1561,
      "Ġfar": 1562,
      "ons": 1563,
      "Ġlisten": 1564,
      "ecause": 1565,
      "Ġways": 1566,
      "right": 1567,
      "Ġback": 1568,
      "Ġperf": 1569,
      "Ġpoor": 1570,
      "Ġspoil": 1571,
      "Ġdesol": 1572,
      "Ġtemple": 1573,
      "Ġpleas": 1574,
      "Ġinhabitants": 1575,
      "37": 1576,
      "bb": 1577,
      "Ġoil": 1578,
      "Ġcour": 1579,
      "ĠGo": 1580,
      "ĠEph": 1581,
      "othy": 1582,
      "ĠTimothy": 1583,
      "igh": 1584,
      "aster": 1585,
      "Ġtroub": 1586,
      "Ġdiv": 1587,
      "Ġtree": 1588,
      "Ġbord": 1589,
      "ots": 1590,
      "ĠHose": 1591,
      "Ġvess": 1592,
      "Ġjoy": 1593,
      "Ġsheep": 1594,
      "Ġdied": 1595,
      "Ġwrath": 1596,
      "ĠHosea": 1597,
      "Ġtell": 1598,
      "Ġcried": 1599,
      "Ġangel": 1600,
      "Ġeld": 1601,
      "Ġpraise": 1602,
      "raid": 1603,
      "ĠMic": 1604,
      "Ġ40": 1605,
      "Ġwors": 1606,
      "gers": 1607,
      "Ġbore": 1608,
      "atter": 1609,
      "ĠJord": 1610,
      "Ġ38": 1611,
      "Ġstone": 1612,
      "Ġslew": 1613,
      "ĠJordan": 1614,
      "Ġeast": 1615,
      "ayed": 1616,
      "Ġwind": 1617,
      "Ġsev": 1618,
      "Ġmanner": 1619,
      "Ġfool": 1620,
      "Ġbook": 1621,
      "Ġsurely": 1622,
      "aan": 1623,
      "athan": 1624,
      "Ġsins": 1625,
      "Ġfind": 1626,
      "Ġground": 1627,
      "Ġhon": 1628,
      "Ġcontin": 1629,
      "Your": 1630,
      "hel": 1631,
      "ense": 1632,
      "ament": 1633,
      "ĠEp": 1634,
      "Ġdoor": 1635,
      "Ġafraid": 1636,
      "yria": 1637,
      "iz": 1638,
      "raim": 1639,
      "Ġknew": 1640,
      "Ġtrans": 1641,
      "Ġclot": 1642,
      "ned": 1643,
      "Ġborn": 1644,
      "ĠLet": 1645,
      "Ġyourselves": 1646,
      "imon": 1647,
      "Ġvis": 1648,
      "ledge": 1649,
      "Ġflock": 1650,
      "Ġenter": 1651,
      "Ġwitness": 1652,
      "ĠMoab": 1653,
      "ekiah": 1654,
      "Ġbroken": 1655,
      "jam": 1656,
      "Ġtest": 1657,
      "Ġvine": 1658,
      "Ġjudge": 1659,
      "ction": 1660,
      "Ġcorn": 1661,
      "Ġhel": 1662,
      "38": 1663,
      "not": 1664,
      "Ġwhile": 1665,
      "Ġsuff": 1666,
      "Ġtwelve": 1667,
      "Ġthron": 1668,
      "Ġstat": 1669,
      "Ġblessed": 1670,
      "iv": 1671,
      "Ġheat": 1672,
      "ott": 1673,
      "Ġred": 1674,
      "Ġjust": 1675,
      "Ġwomen": 1676,
      "Ġcannot": 1677,
      "Ġreturned": 1678,
      "zar": 1679,
      "Ġwithin": 1680,
      "Ġread": 1681,
      "ĠMan": 1682,
      "Ġprov": 1683,
      "Ġslain": 1684,
      "Ġthird": 1685,
      "Ġtill": 1686,
      "med": 1687,
      "ne": 1688,
      "Ġbeast": 1689,
      "Ġcountry": 1690,
      "ĠU": 1691,
      "Ġbow": 1692,
      "ĠSp": 1693,
      "Ġreb": 1694,
      "Ġrul": 1695,
      "Ġnumber": 1696,
      "ĠBenjam": 1697,
      "Ġutter": 1698,
      "To": 1699,
      "gress": 1700,
      "Ġstones": 1701,
      "ĠThis": 1702,
      "Ġriver": 1703,
      "Ġbegan": 1704,
      "Ġafflic": 1705,
      "Ġelders": 1706,
      "Ġtransgress": 1707,
      "Ġthough": 1708,
      "ĠCan": 1709,
      "ĠIf": 1710,
      "Ġforg": 1711,
      "ĠAr": 1712,
      "Ġ41": 1713,
      "Ġcommandment": 1714,
      "Ġchari": 1715,
      "Ġprep": 1716,
      "Ġmountains": 1717,
      "ĠEphes": 1718,
      "Ġgather": 1719,
      "ices": 1720,
      "Ġste": 1721,
      "Ġ119": 1722,
      "Ġbreak": 1723,
      "Ġreigned": 1724,
      "Ġthrone": 1725,
      "haz": 1726,
      "Ġabomin": 1727,
      "Ġsun": 1728,
      "Ġkept": 1729,
      "Ġbody": 1730,
      "read": 1731,
      "Ġmar": 1732,
      "Ġrepro": 1733,
      "Ġfamilies": 1734,
      "aal": 1735,
      "Ġaro": 1736,
      "had": 1737,
      "Ġhaving": 1738,
      "Ġarose": 1739,
      "jah": 1740,
      "oam": 1741,
      "Ġbattle": 1742,
      "Ġthirty": 1743,
      "ĠEphraim": 1744,
      "ĠSpirit": 1745,
      "Ġtong": 1746,
      "Ġsabb": 1747,
      "Ġknowledge": 1748,
      "Ġcommandments": 1749,
      "Ġrejoice": 1750,
      "Ġsabbath": 1751,
      "Ġcould": 1752,
      "Ġclean": 1753,
      "Ġinst": 1754,
      "enti": 1755,
      "akes": 1756,
      "Ġram": 1757,
      "Ġreceive": 1758,
      "Ġsecond": 1759,
      "Ġhelp": 1760,
      "39": 1761,
      "ages": 1762,
      "hur": 1763,
      "sed": 1764,
      "Ġsing": 1765,
      "Ġsought": 1766,
      "Ġbeliev": 1767,
      "alley": 1768,
      "My": 1769,
      "aac": 1770,
      "ird": 1771,
      "Ġvalley": 1772,
      "Ġdestroyed": 1773,
      "eem": 1774,
      "Ġox": 1775,
      "ison": 1776,
      "Ġdef": 1777,
      "Ġcommit": 1778,
      "ĠWhy": 1779,
      "Ġsouth": 1780,
      "Ġcounsel": 1781,
      "eve": 1782,
      "vation": 1783,
      "Ġmeas": 1784,
      "Ġord": 1785,
      "Ġ39": 1786,
      "Ġbull": 1787,
      "Ġconsum": 1788,
      "Ġhonor": 1789,
      "ĠBenjamin": 1790,
      "har": 1791,
      "ĠCanaan": 1792,
      "ost": 1793,
      "ĠIt": 1794,
      "Ġrec": 1795,
      "ĠBeth": 1796,
      "Ġpassed": 1797,
      "Ġthroughout": 1798,
      "Ġdarkness": 1799,
      "Ġfilled": 1800,
      "Ġcloud": 1801,
      "Ġtou": 1802,
      "Ġsk": 1803,
      "ason": 1804,
      "aled": 1805,
      "ĠHo": 1806,
      "Ġlie": 1807,
      "Ġable": 1808,
      "Ġanswer": 1809,
      "Ġreceived": 1810,
      "40": 1811,
      "Ġneigh": 1812,
      "Ġunderstanding": 1813,
      "Ġbel": 1814,
      "Ġlifted": 1815,
      "Ġsalvation": 1816,
      "Ġborder": 1817,
      "ĠEphesians": 1818,
      "oke": 1819,
      "Ġsign": 1820,
      "Ġref": 1821,
      "ĠAss": 1822,
      "Ġtrees": 1823,
      "Ġcontinu": 1824,
      "Ġneighb": 1825,
      "Ġeight": 1826,
      "ĠEs": 1827,
      "Ġnorth": 1828,
      "ĠGalat": 1829,
      "hah": 1830,
      "Ġbeasts": 1831,
      "Ġkill": 1832,
      "als": 1833,
      "ĠSha": 1834,
      "Ġwhether": 1835,
      "Ġnew": 1836,
      "Ġwhoever": 1837,
      "Ġtimes": 1838,
      "Ġfifty": 1839,
      "Whi": 1840,
      "iness": 1841,
      "hit": 1842,
      "onians": 1843,
      "Ġport": 1844,
      "ĠLament": 1845,
      "Ġdecl": 1846,
      "ĠAmos": 1847,
      "Ġvessels": 1848,
      "ĠLamentations": 1849,
      "Ġ(": 1850,
      "here": 1851,
      "Ġcattle": 1852,
      "Ġforty": 1853,
      "irc": 1854,
      "Ġdra": 1855,
      "Ġwherein": 1856,
      "Ġincre": 1857,
      "Ġbullock": 1858,
      "Ġfat": 1859,
      "ĠHe": 1860,
      "Ġdece": 1861,
      "Ġears": 1862,
      "op": 1863,
      "ĠJames": 1864,
      "ĠHez": 1865,
      "ĠZion": 1866,
      "Ġheathen": 1867,
      "ĠGalatians": 1868,
      "How": 1869,
      "This": 1870,
      "lf": 1871,
      "Ġmoney": 1872,
      "These": 1873,
      "Ġ44": 1874,
      "Ġcove": 1875,
      "band": 1876,
      "Ġfled": 1877,
      "ĠPaul": 1878,
      "Ġhus": 1879,
      "ircum": 1880,
      "Of": 1881,
      "Ġpers": 1882,
      "asse": 1883,
      "Ġgu": 1884,
      "ĠAd": 1885,
      "ĠNeb": 1886,
      "Ġliving": 1887,
      "Ġremain": 1888,
      "Ġwait": 1889,
      "Ġdesolate": 1890,
      "asseh": 1891,
      "All": 1892,
      "Ġfast": 1893,
      "utes": 1894,
      "Ġstri": 1895,
      "Ġgrace": 1896,
      "ircumc": 1897,
      "ssal": 1898,
      "Ġsake": 1899,
      "pped": 1900,
      "ĠThessal": 1901,
      "Ġcarried": 1902,
      "ilead": 1903,
      "Ġbelieve": 1904,
      "Ġhusband": 1905,
      "Ġid": 1906,
      "Ġmind": 1907,
      "Ġnation": 1908,
      "oreover": 1909,
      "Ġglad": 1910,
      "Ġgates": 1911,
      "ĠManasseh": 1912,
      "ĠHoly": 1913,
      "aves": 1914,
      "Ġpill": 1915,
      "Ġlab": 1916,
      "ĠJoab": 1917,
      "Ġoffered": 1918,
      "Ġprophes": 1919,
      "Ġlooked": 1920,
      "Ġes": 1921,
      "Ġhill": 1922,
      "ĠPhili": 1923,
      "41": 1924,
      "Moreover": 1925,
      "ired": 1926,
      "Ġwood": 1927,
      "Ġmourn": 1928,
      "ĠHam": 1929,
      "abl": 1930,
      "Ġslay": 1931,
      "Ġsanctu": 1932,
      "Ġ48": 1933,
      "ĠWe": 1934,
      "Ġmost": 1935,
      "oured": 1936,
      "Ġmust": 1937,
      "Ġcaus": 1938,
      "ĠSo": 1939,
      "Ġthought": 1940,
      "Ġshek": 1941,
      "Ġcaptain": 1942,
      "Ġcompan": 1943,
      "Ġestabl": 1944,
      "Ġcamp": 1945,
      "ĠThessalonians": 1946,
      "ip": 1947,
      "ĠĠ": 1948,
      "Ġfors": 1949,
      "Ġrise": 1950,
      "men": 1951,
      "ump": 1952,
      "Ġshowed": 1953,
      "Ġchamb": 1954,
      "Ġthank": 1955,
      "Ġbegin": 1956,
      "Ġopened": 1957,
      "Ġcr": 1958,
      "Ġhalf": 1959,
      "Ġmeet": 1960,
      "Ġmountain": 1961,
      "Ġsanctuary": 1962,
      "ined": 1963,
      "ats": 1964,
      "Ġgoes": 1965,
      "ĠBe": 1966,
      "Ġhouses": 1967,
      "Ġprof": 1968,
      "Ġbecome": 1969,
      "Ġtrust": 1970,
      "Ġwhatever": 1971,
      "Ġcompass": 1972,
      "ivity": 1973,
      "Ġneighbor": 1974,
      "Ġgri": 1975,
      "ĠNa": 1976,
      "Ġfoot": 1977,
      "Ġrock": 1978,
      "ĠMicah": 1979,
      "42": 1980,
      "ian": 1981,
      "ĠShi": 1982,
      "Ġ42": 1983,
      "ĠSamar": 1984,
      "Ġheavens": 1985,
      "esh": 1986,
      "ĠIsaac": 1987,
      "Ġservice": 1988,
      "Ġteach": 1989,
      "Ġstatutes": 1990,
      "Ġwives": 1991,
      "Ġstre": 1992,
      "Ġcover": 1993,
      "Ġswe": 1994,
      "Ġfeast": 1995,
      "Ġdesp": 1996,
      "Ġrose": 1997,
      "Ġstranger": 1998,
      "Ġredeem": 1999,
      "gs": 2000,
      "su": 2001,
      "Ġmaster": 2002,
      "ased": 2003,
      "ĠNo": 2004,
      "Ġneed": 2005,
      "Ġprom": 2006,
      "Ġpresent": 2007,
      "Ġidol": 2008,
      "wise": 2009,
      "Ġpal": 2010,
      "ĠGenti": 2011,
      "Ġspread": 2012,
      "aked": 2013,
      "ards": 2014,
      "Ġhope": 2015,
      "Ġincense": 2016,
      "Ġtongue": 2017,
      "ĠGentiles": 2018,
      "oc": 2019,
      "Ġopp": 2020,
      "Ġres": 2021,
      "iled": 2022,
      "ĠBaal": 2023,
      "Ġplag": 2024,
      "Ġnumbered": 2025,
      "born": 2026,
      "rise": 2027,
      "sen": 2028,
      "ĠAmmon": 2029,
      "Ġcaptivity": 2030,
      "ruction": 2031,
      "Ġesc": 2032,
      "Ġmakes": 2033,
      "Ġbrass": 2034,
      "orns": 2035,
      "Ġgives": 2036,
      "Ġjudgments": 2037,
      "Ġappointed": 2038,
      "Ġfollow": 2039,
      "ĠHezekiah": 2040,
      "43": 2041,
      "uk": 2042,
      "Ġsick": 2043,
      "Ġprison": 2044,
      "eces": 2045,
      "Ġwickedness": 2046,
      "Ġtreas": 2047,
      "Ġpieces": 2048,
      "Ġcourt": 2049,
      "Ġafflict": 2050,
      "Ġlives": 2051,
      "ee": 2052,
      "mer": 2053,
      "Ġmess": 2054,
      "Ġfle": 2055,
      "Ġcomf": 2056,
      "hamed": 2057,
      "Ġwalked": 2058,
      "Ġfamily": 2059,
      "Ġbeside": 2060,
      "Ġdream": 2061,
      "Ġchosen": 2062,
      "ĠSamaria": 2063,
      "Ġescap": 2064,
      "up": 2065,
      "ash": 2066,
      "semb": 2067,
      "Ġhor": 2068,
      "Ġashamed": 2069,
      "Ġstra": 2070,
      "Ġstret": 2071,
      "Ġscrib": 2072,
      "Ġdepart": 2073,
      "Which": 2074,
      "Ġperish": 2075,
      "ĠJonathan": 2076,
      "ling": 2077,
      "now": 2078,
      "vail": 2079,
      "Ġsound": 2080,
      "Ġfore": 2081,
      "Ġdeal": 2082,
      "Ġsold": 2083,
      "lessed": 2084,
      "Ġperfect": 2085,
      "Ġseventh": 2086,
      "Be": 2087,
      "Yet": 2088,
      "Ġter": 2089,
      "Ġlips": 2090,
      "ĠWho": 2091,
      "Ġsinned": 2092,
      "Ġfirstborn": 2093,
      "Ġcaptains": 2094,
      "Ġasked": 2095,
      "Ġstead": 2096,
      "sha": 2097,
      "Ġdri": 2098,
      "sec": 2099,
      "Ġmyself": 2100,
      "Ġ49": 2101,
      "ally": 2102,
      "Ġtrump": 2103,
      "Ġsmite": 2104,
      "Ġgenerations": 2105,
      "ĠAssyria": 2106,
      "Ġoppress": 2107,
      "Ġfur": 2108,
      "Ġchur": 2109,
      "ĠSong": 2110,
      "Ġris": 2111,
      "Ġeye": 2112,
      "ds": 2113,
      "Ġsister": 2114,
      "Ġce": 2115,
      "Ġcor": 2116,
      "Ġrod": 2117,
      "Ġpresence": 2118,
      "Ġbelieved": 2119,
      "Ġsweet": 2120,
      "It": 2121,
      "oint": 2122,
      "urbs": 2123,
      "Ġdevil": 2124,
      "Ġshut": 2125,
      "Ġsupp": 2126,
      "Ġsuburbs": 2127,
      "Because": 2128,
      "eal": 2129,
      "cept": 2130,
      "asting": 2131,
      "Ġrememb": 2132,
      "Ġviney": 2133,
      "ls": 2134,
      "oe": 2135,
      "uc": 2136,
      "Ġind": 2137,
      "Ġass": 2138,
      "Ġhearts": 2139,
      "Ġvain": 2140,
      "Ġabund": 2141,
      "Ġtribes": 2142,
      "Ġobey": 2143,
      "Ġchariots": 2144,
      "Ġmessen": 2145,
      "phat": 2146,
      "pass": 2147,
      "the": 2148,
      "Ġsit": 2149,
      "Ġbound": 2150,
      "Ġfight": 2151,
      "Ġfine": 2152,
      "Ġgif": 2153,
      "uted": 2154,
      "Ġnever": 2155,
      "Ġdesire": 2156,
      "ĠAsa": 2157,
      "Ġleave": 2158,
      "44": 2159,
      "Ġtres": 2160,
      "Ġap": 2161,
      "Ġsorrow": 2162,
      "Ġhors": 2163,
      "Ġspr": 2164,
      "cious": 2165,
      "Ġtestimon": 2166,
      "ĠPhilipp": 2167,
      "Ġhorse": 2168,
      "Ġtrespass": 2169,
      "Ġhorses": 2170,
      "Al": 2171,
      "Yes": 2172,
      "au": 2173,
      "eon": 2174,
      "iat": 2175,
      "ĠGilead": 2176,
      "Ġ46": 2177,
      "ulf": 2178,
      "Ġlies": 2179,
      "Ġheads": 2180,
      "Ġappear": 2181,
      "Ġenemy": 2182,
      "Ġflee": 2183,
      "ious": 2184,
      "ives": 2185,
      "Ġve": 2186,
      "Ġshi": 2187,
      "Ġbed": 2188,
      "eding": 2189,
      "lem": 2190,
      "host": 2191,
      "ĠBal": 2192,
      "Ġprayer": 2193,
      "Ġfollowed": 2194,
      "Ġminister": 2195,
      "Ġdust": 2196,
      "ĠAhi": 2197,
      "Ġassemb": 2198,
      "salom": 2199,
      "Ġalone": 2200,
      "Ġbecame": 2201,
      "Ġworship": 2202,
      "Ġcovered": 2203,
      "chi": 2204,
      "Ġlion": 2205,
      "riend": 2206,
      "Ġbran": 2207,
      "Ġ43": 2208,
      "Ġjourn": 2209,
      "ĠAbsalom": 2210,
      "Ġentered": 2211,
      "azar": 2212,
      "Ġgeneration": 2213,
      "Ġcharge": 2214,
      "Ġtrouble": 2215,
      "Ġbeloved": 2216,
      "Ġjourney": 2217,
      "cher": 2218,
      "fter": 2219,
      "ung": 2220,
      "Ġsore": 2221,
      "Ġfulf": 2222,
      "ĠBar": 2223,
      "Ġ50": 2224,
      "Ġ51": 2225,
      "oboam": 2226,
      "otten": 2227,
      "inen": 2228,
      "elech": 2229,
      "Ġreward": 2230,
      "ĠBet": 2231,
      "Ġvan": 2232,
      "Ġrun": 2233,
      "Ġeaten": 2234,
      "Ġburied": 2235,
      "Ġrain": 2236,
      "Ġbetter": 2237,
      "Ġbeginning": 2238,
      "ĠPhilippians": 2239,
      "Ġac": 2240,
      "Ġlinen": 2241,
      "Ġsaved": 2242,
      "ĠEdom": 2243,
      "Ġgosp": 2244,
      "Ġknows": 2245,
      "ĠJeroboam": 2246,
      "Ġpossession": 2247,
      "Ġsuffer": 2248,
      "Ġgospel": 2249,
      "ich": 2250,
      "Ġgird": 2251,
      "ĠGib": 2252,
      "ries": 2253,
      "Ġstill": 2254,
      "Ġgarments": 2255,
      "Ġremember": 2256,
      "45": 2257,
      "then": 2258,
      "ĠFor": 2259,
      "Ġmorrow": 2260,
      "ens": 2261,
      "isha": 2262,
      "Ġnaked": 2263,
      "ĠAn": 2264,
      "ĠBut": 2265,
      "Ġvi": 2266,
      "Ġclothes": 2267,
      "Ġprepared": 2268,
      "Ġoxen": 2269,
      "Also": 2270,
      "ying": 2271,
      "Ġfriend": 2272,
      "ened": 2273,
      "Ġstayed": 2274,
      "Ġru": 2275,
      "Ġtru": 2276,
      "Ġworked": 2277,
      "Ġburden": 2278,
      "Ġimage": 2279,
      "Ġutterly": 2280,
      "Ġthanks": 2281,
      "Ġidols": 2282,
      "ba": 2283,
      "Ġsho": 2284,
      "Ġbapt": 2285,
      "Ġshame": 2286,
      "ĠAl": 2287,
      "Ġcoming": 2288,
      "Ġ45": 2289,
      "Ġloved": 2290,
      "Ġprince": 2291,
      "ĠPharise": 2292,
      "Ġready": 2293,
      "Ġportion": 2294,
      "Ġtruly": 2295,
      "Ġir": 2296,
      "ĠThen": 2297,
      "Ġtent": 2298,
      "Ġought": 2299,
      "Ġbones": 2300,
      "Ġpure": 2301,
      "Ġgre": 2302,
      "Ġanointed": 2303,
      "Ġprosp": 2304,
      "Ġsmall": 2305,
      "Ġrepent": 2306,
      "Ġcurse": 2307,
      "ĠEsau": 2308,
      "Ġtra": 2309,
      "ints": 2310,
      "Ġmaid": 2311,
      "Ġfal": 2312,
      "Ġnames": 2313,
      "ĠCol": 2314,
      "Ġgoats": 2315,
      "Ġthither": 2316,
      "Ġupright": 2317,
      "ĠRuth": 2318,
      "Ġseeing": 2319,
      "ĠEgyptians": 2320,
      "Ġlift": 2321,
      "Ġfaithful": 2322,
      "Ġsleep": 2323,
      "Ġburned": 2324,
      "ĠJehoi": 2325,
      "Ġexceeding": 2326,
      "Ġplague": 2327,
      "Ġiron": 2328,
      "46": 2329,
      "lasting": 2330,
      "ĠCome": 2331,
      "Ġhour": 2332,
      "Ġeverlasting": 2333,
      "ounded": 2334,
      "ĠThere": 2335,
      "Ġexal": 2336,
      "theless": 2337,
      "Ġast": 2338,
      "Ġtop": 2339,
      "Ġcher": 2340,
      "Ġchan": 2341,
      "elah": 2342,
      "Ġsaints": 2343,
      "Ġsepar": 2344,
      "Ġweep": 2345,
      "Ġriches": 2346,
      "ĠZeb": 2347,
      "ways": 2348,
      "lind": 2349,
      "Ġdisc": 2350,
      "Ġfamine": 2351,
      "Ġmultip": 2352,
      "Ġconsumed": 2353,
      "Ġshekels": 2354,
      "Ne": 2355,
      "aim": 2356,
      "Ġwest": 2357,
      "Ġblind": 2358,
      "Ġcreat": 2359,
      "ĠMy": 2360,
      "Ġscore": 2361,
      "ossians": 2362,
      "ĠColossians": 2363,
      "ael": 2364,
      "hon": 2365,
      "ray": 2366,
      "erve": 2367,
      "ated": 2368,
      "ĠAhab": 2369,
      "ĠHan": 2370,
      "Ġangels": 2371,
      "Ġcarry": 2372,
      "ilee": 2373,
      "Ġcaused": 2374,
      "cus": 2375,
      "pher": 2376,
      "Ġhast": 2377,
      "ĠGad": 2378,
      "Ġminist": 2379,
      "Neither": 2380,
      "nant": 2381,
      "og": 2382,
      "ues": 2383,
      "Ġì": 2384,
      "orm": 2385,
      "Ġrequ": 2386,
      "Ġhur": 2387,
      "Ġgoing": 2388,
      "Ġwatch": 2389,
      "Ġremnant": 2390,
      "Ġhate": 2391,
      "Ġcommitted": 2392,
      "Ġcherub": 2393,
      "ured": 2394,
      "Ġpast": 2395,
      "ali": 2396,
      "ĠCha": 2397,
      "ĠJoel": 2398,
      "haniah": 2399,
      "uben": 2400,
      "Ġremoved": 2401,
      "Ġlabor": 2402,
      "Ġgriev": 2403,
      "uchad": 2404,
      "Ġfow": 2405,
      "Ġfav": 2406,
      "Ġlast": 2407,
      "Ġget": 2408,
      "ĠGhost": 2409,
      "vern": 2410,
      "thy": 2411,
      "urely": 2412,
      "Ġdestruction": 2413,
      "Ġbond": 2414,
      "Ġworshi": 2415,
      "Ġreproach": 2416,
      "ĠChald": 2417,
      "Ġcal": 2418,
      "arle": 2419,
      "hob": 2420,
      "Ġreason": 2421,
      "Ġwash": 2422,
      "Ġgovern": 2423,
      "ĠBecause": 2424,
      "Ġbreadth": 2425,
      "rupt": 2426,
      "Ġrejo": 2427,
      "Ġpillars": 2428,
      "ĠChalde": 2429,
      "pl": 2430,
      "ided": 2431,
      "iced": 2432,
      "Ġalive": 2433,
      "Ġnoise": 2434,
      "Ġplant": 2435,
      "teen": 2436,
      "Ġsecret": 2437,
      "Ġdevour": 2438,
      "ĠReuben": 2439,
      "47": 2440,
      "ced": 2441,
      "rom": 2442,
      "ram": 2443,
      "Ġcle": 2444,
      "ision": 2445,
      "ĠMa": 2446,
      "achi": 2447,
      "Ġvill": 2448,
      "Ġplain": 2449,
      "ĠTake": 2450,
      "ĠAmor": 2451,
      "Ġincrease": 2452,
      "ĠPharisees": 2453,
      "Ġtar": 2454,
      "Ġwid": 2455,
      "Ġwond": 2456,
      "Ġinter": 2457,
      "Ġhang": 2458,
      "ider": 2459,
      "ros": 2460,
      "ached": 2461,
      "Ġearly": 2462,
      "Ġgreatly": 2463,
      "ruly": 2464,
      "Ġdrew": 2465,
      "Ġgarment": 2466,
      "Ġruler": 2467,
      "ĠNebuchad": 2468,
      "Ġcompany": 2469,
      "eah": 2470,
      "esus": 2471,
      "Ġinqu": 2472,
      "Ġpoured": 2473,
      "ilk": 2474,
      "Ġ47": 2475,
      "osed": 2476,
      "Ġfail": 2477,
      "Ġraised": 2478,
      "Ġsacrifices": 2479,
      "Ġdeclare": 2480,
      "Ġcrown": 2481,
      "shaphat": 2482,
      "Jesus": 2483,
      "hor": 2484,
      "zz": 2485,
      "Ġsn": 2486,
      "Ġmur": 2487,
      "Ġhair": 2488,
      "ĠEle": 2489,
      "ĠOb": 2490,
      "Ġfeed": 2491,
      "Ġfourth": 2492,
      "Ġvanity": 2493,
      "On": 2494,
      "per": 2495,
      "xed": 2496,
      "lly": 2497,
      "Ġreg": 2498,
      "Ġalways": 2499,
      "Ġrich": 2500,
      "Ġswore": 2501,
      "ĠJez": 2502,
      "Ġdelight": 2503,
      "Ġdrun": 2504,
      "Ġfoolish": 2505,
      "Ġvisit": 2506,
      "bit": 2507,
      "ped": 2508,
      "Ġed": 2509,
      "Ġcircumc": 2510,
      "eng": 2511,
      "ises": 2512,
      "ates": 2513,
      "ari": 2514,
      "Ġbeat": 2515,
      "Ġshad": 2516,
      "ceived": 2517,
      "ĠHow": 2518,
      "Ġatone": 2519,
      "Ġjoin": 2520,
      "Ġwrite": 2521,
      "Ġarmy": 2522,
      "Ġhide": 2523,
      "Ġpitched": 2524,
      "Ġlistened": 2525,
      "Ġapost": 2526,
      "Ġfulfilled": 2527,
      "Ġaccept": 2528,
      "Even": 2529,
      "Say": 2530,
      "ring": 2531,
      "Ġtaught": 2532,
      "Ġtalk": 2533,
      "Ġtenth": 2534,
      "Ġleng": 2535,
      "ĠMal": 2536,
      "Ġdeep": 2537,
      "Ġscatt": 2538,
      "Ġlambs": 2539,
      "ĠJehoshaphat": 2540,
      "Ġcontinually": 2541,
      "Ġatonement": 2542,
      "What": 2543,
      "Ġbas": 2544,
      "Ġmatter": 2545,
      "Ġheed": 2546,
      "road": 2547,
      "Ġabroad": 2548,
      "Ġneck": 2549,
      "Ġshepher": 2550,
      "ĠThey": 2551,
      "Ġflocks": 2552,
      "Ġprophesy": 2553,
      "Ġstraight": 2554,
      "Ġviol": 2555,
      "48": 2556,
      "itter": 2557,
      "Ġhealed": 2558,
      "ank": 2559,
      "Ġhabit": 2560,
      "Ġsear": 2561,
      "Ġbrings": 2562,
      "ĠHag": 2563,
      "acher": 2564,
      "aken": 2565,
      "Ġtrue": 2566,
      "Ġsmell": 2567,
      "Ġlead": 2568,
      "Ġfallen": 2569,
      "Ġstrengthen": 2570,
      "ĠShem": 2571,
      "Ġvision": 2572,
      "Ġrebell": 2573,
      "Ġskin": 2574,
      "Ġcorrupt": 2575,
      "Ġmessengers": 2576,
      "His": 2577,
      "vel": 2578,
      "Ġsy": 2579,
      "Ġship": 2580,
      "Ġbowed": 2581,
      "Ġfree": 2582,
      "Ġpun": 2583,
      "Ġled": 2584,
      "ides": 2585,
      "cend": 2586,
      "Ġlikewise": 2587,
      "Ġsouls": 2588,
      "Ġappe": 2589,
      "ĠHebron": 2590,
      "Ġtremb": 2591,
      "Ġkindness": 2592,
      "Ġrulers": 2593,
      "Ġestablished": 2594,
      "eed": 2595,
      "vent": 2596,
      "Ġwo": 2597,
      "Ġdam": 2598,
      "Ġnam": 2599,
      "asso": 2600,
      "Ġones": 2601,
      "ored": 2602,
      "Ġwhite": 2603,
      "ĠRam": 2604,
      "Ġabide": 2605,
      "ĠThese": 2606,
      "ĠAmen": 2607,
      "Ġflour": 2608,
      "Ġstrangers": 2609,
      "Ġlamb": 2610,
      "Ġrams": 2611,
      "hites": 2612,
      "Ġchurch": 2613,
      "Ġbaptiz": 2614,
      "Ġfalse": 2615,
      "Ġlength": 2616,
      "aut": 2617,
      "ient": 2618,
      "Ġwings": 2619,
      "Ġmis": 2620,
      "Ġpasso": 2621,
      "Ġlot": 2622,
      "ĠLeb": 2623,
      "ĠSyri": 2624,
      "ĠAhaz": 2625,
      "ĠIsh": 2626,
      "Ġvir": 2627,
      "Ġrivers": 2628,
      "Ġgreater": 2629,
      "ĠZer": 2630,
      "Ġarise": 2631,
      "Ġpreach": 2632,
      "Ġtable": 2633,
      "hish": 2634,
      "Ġmoved": 2635,
      "Ġstrange": 2636,
      "Ġabomination": 2637,
      "Ġprosper": 2638,
      "Ġshadow": 2639,
      "After": 2640,
      "by": 2641,
      "pul": 2642,
      "Ġced": 2643,
      "Ġden": 2644,
      "ĠSelah": 2645,
      "ication": 2646,
      "ĠNah": 2647,
      "Ġserved": 2648,
      "avened": 2649,
      "Ġprecious": 2650,
      "rows": 2651,
      "peak": 2652,
      "Ġabominations": 2653,
      "Ġforsaken": 2654,
      "Ġaffliction": 2655,
      "Ġcomfort": 2656,
      "Ġtestimony": 2657,
      "Ġbranches": 2658,
      "Ġvillages": 2659,
      "Ġpassover": 2660,
      "49": 2661,
      "with": 2662,
      "hind": 2663,
      "arm": 2664,
      "Ġgro": 2665,
      "ĠSyria": 2666,
      "Ġthink": 2667,
      "iful": 2668,
      "ĠWhere": 2669,
      "Ġfeared": 2670,
      "Ġenc": 2671,
      "Ġspeaks": 2672,
      "agog": 2673,
      "Ġtakes": 2674,
      "Ġfruits": 2675,
      "ĠShec": 2676,
      "Ġfavor": 2677,
      "held": 2678,
      "Ġfaces": 2679,
      "Ġyouth": 2680,
      "Ġdist": 2681,
      "Ġbehind": 2682,
      "Ġsack": 2683,
      "Ġforb": 2684,
      "rim": 2685,
      "Ġsoj": 2686,
      "aths": 2687,
      "Ġpersec": 2688,
      "Ġprey": 2689,
      "Ġbroke": 2690,
      "Ġclothed": 2691,
      "ĠAmorites": 2692,
      "ĠEleazar": 2693,
      "ĠLeban": 2694,
      "Take": 2695,
      "man": 2696,
      "ters": 2697,
      "Ġobs": 2698,
      "Ġbitter": 2699,
      "Ġdry": 2700,
      "eli": 2701,
      "Ġaside": 2702,
      "imelech": 2703,
      "ĠHer": 2704,
      "Ġhousehold": 2705,
      "akk": 2706,
      "Ġ78": 2707,
      "ĠLevi": 2708,
      "Ġcond": 2709,
      "ruc": 2710,
      "Ġgrass": 2711,
      "ĠGalilee": 2712,
      "Ġprepare": 2713,
      "Ġdefiled": 2714,
      "Ġstretched": 2715,
      "Ġinterp": 2716,
      "Where": 2717,
      "aam": 2718,
      "most": 2719,
      "pes": 2720,
      "rs": 2721,
      "ĠYour": 2722,
      "Ġcup": 2723,
      "Ġpour": 2724,
      "Ġbeaut": 2725,
      "ĠMes": 2726,
      "Ġwept": 2727,
      "Ġdoors": 2728,
      "Ġwomb": 2729,
      "Ġimages": 2730,
      "ĠUzz": 2731,
      "Ġtouch": 2732,
      "Ġchamber": 2733,
      "Ġscattered": 2734,
      "ĠLebanon": 2735,
      "eech": 2736,
      "ience": 2737,
      "sue": 2738,
      "Ġcand": 2739,
      "Ġheal": 2740,
      "Ġnet": 2741,
      "Ġsepul": 2742,
      "Ġdec": 2743,
      "ears": 2744,
      "Ġoffic": 2745,
      "ĠThat": 2746,
      "ĠZep": 2747,
      "evertheless": 2748,
      "Ġtempt": 2749,
      "Ġadvers": 2750,
      "Ġbeseech": 2751,
      "Ġworshipped": 2752,
      "Ġappeared": 2753,
      "Ġsepulcher": 2754,
      "By": 2755,
      "Blessed": 2756,
      "nce": 2757,
      "nagog": 2758,
      "hath": 2759,
      "Ġkid": 2760,
      "Ġkilled": 2761,
      "aint": 2762,
      "ĠKing": 2763,
      "Ġran": 2764,
      "Ġwhereof": 2765,
      "Ġgrave": 2766,
      "ĠElijah": 2767,
      "Ġtroubled": 2768,
      "Ġdivided": 2769,
      "Ġmeasure": 2770,
      "Ġrefus": 2771,
      "Ġdraw": 2772,
      "Ġfury": 2773,
      "Ġvineyard": 2774,
      "Ġindeed": 2775,
      "Ġsynagog": 2776,
      "Hear": 2777,
      "Is": 2778,
      "Th": 2779,
      "ual": 2780,
      "Ġmag": 2781,
      "aniah": 2782,
      "Ġlep": 2783,
      "Ġworthy": 2784,
      "Ġafterward": 2785,
      "Ġjudges": 2786,
      "Ġfew": 2787,
      "Ġprevail": 2788,
      "Ġpoll": 2789,
      "Ġdeceit": 2790,
      "Ġscribes": 2791,
      "Ġabundance": 2792,
      "Ġshiel": 2793,
      "50": 2794,
      "Ġtal": 2795,
      "Ġtow": 2796,
      "Ġlow": 2797,
      "idian": 2798,
      "ĠSimon": 2799,
      "Ġreve": 2800,
      "Ġhorns": 2801,
      "ĠMidian": 2802,
      "Ġweight": 2803,
      "ĠBas": 2804,
      "akim": 2805,
      "Ġsoon": 2806,
      "Ġloves": 2807,
      "Ġparts": 2808,
      "ĠJonah": 2809,
      "mediat": 2810,
      "ĠĠĠĠ": 2811,
      "ĠBethel": 2812,
      "Ġrule": 2813,
      "mediately": 2814,
      "be": 2815,
      "na": 2816,
      "Ġtents": 2817,
      "Ġacts": 2818,
      "ĠSar": 2819,
      "Ġrent": 2820,
      "ĠMer": 2821,
      "Ġthereon": 2822,
      "ĠAbimelech": 2823,
      "Ġunle": 2824,
      "Ġgolden": 2825,
      "ully": 2826,
      "Ġkindled": 2827,
      "Ġwalls": 2828,
      "ĠShall": 2829,
      "Ġchambers": 2830,
      "Ġhurt": 2831,
      "ĠChaldeans": 2832,
      "Nevertheless": 2833,
      "We": 2834,
      "ery": 2835,
      "Ġheld": 2836,
      "Ġnin": 2837,
      "Ġgard": 2838,
      "adab": 2839,
      "Ġhoney": 2840,
      "Ġhung": 2841,
      "ained": 2842,
      "Ġseem": 2843,
      "venge": 2844,
      "Ġstay": 2845,
      "Ġweak": 2846,
      "ĠTy": 2847,
      "Ġsince": 2848,
      "Ġprayed": 2849,
      "Ġblessing": 2850,
      "Ġimmediately": 2851,
      "Ġhills": 2852,
      "Ġprofit": 2853,
      "Ġstreets": 2854,
      "Ġtrumpet": 2855,
      "Ġcease": 2856,
      "Ġaston": 2857,
      "Ġvirg": 2858,
      "ĠShechem": 2859,
      "Ġsojourn": 2860,
      "hom": 2861,
      "tim": 2862,
      "ìĿ": 2863,
      "Ġband": 2864,
      "Ġblem": 2865,
      "hite": 2866,
      "Ġfought": 2867,
      "Ġheight": 2868,
      "ush": 2869,
      "ĠAre": 2870,
      "Ġwaste": 2871,
      "Ġanoint": 2872,
      "Ġasses": 2873,
      "ĠHab": 2874,
      "ĠHaz": 2875,
      "Ġshout": 2876,
      "ĠJerich": 2877,
      "Ġexec": 2878,
      "Ġothers": 2879,
      "Ġhard": 2880,
      "ĠRehob": 2881,
      "Ġchariot": 2882,
      "ealous": 2883,
      "Ġexalted": 2884,
      "Ġcherubim": 2885,
      "Ġapostles": 2886,
      "ĠJericho": 2887,
      ",)": 2888,
      "One": 2889,
      "for": 2890,
      "liness": 2891,
      "rance": 2892,
      "vest": 2893,
      "xt": 2894,
      "hal": 2895,
      "Ġfill": 2896,
      "Ġcre": 2897,
      "Ġdail": 2898,
      "Ġdomin": 2899,
      "Ġforget": 2900,
      "ĠAz": 2901,
      "Ġloins": 2902,
      "ĠAbner": 2903,
      "Ġsmitten": 2904,
      "Ġflood": 2905,
      "Ġjudged": 2906,
      "Ġraise": 2907,
      "Ġharvest": 2908,
      "Ġredeemed": 2909,
      "ĠZephaniah": 2910,
      "Ġdaily": 2911,
      "ners": 2912,
      "Ġbott": 2913,
      "itus": 2914,
      "edekiah": 2915,
      "Ġdil": 2916,
      "Ġdoub": 2917,
      "Ġheav": 2918,
      "Ġpu": 2919,
      "ishes": 2920,
      "Ġloud": 2921,
      "amas": 2922,
      "ada": 2923,
      "ily": 2924,
      "Ġrather": 2925,
      "ecai": 2926,
      "Ġcoast": 2927,
      "pht": 2928,
      "Ġwrote": 2929,
      "Ġthousands": 2930,
      "Ġpost": 2931,
      "Ġsanctified": 2932,
      "Ġsanctify": 2933,
      "Ġpurp": 2934,
      "Ġpleased": 2935,
      "ĠBalaam": 2936,
      "Ġblemish": 2937,
      "Ġdilig": 2938,
      "51": 2939,
      "gu": 2940,
      "Ġoath": 2941,
      "erv": 2942,
      "oned": 2943,
      "Ġheap": 2944,
      "isf": 2945,
      "Ġlear": 2946,
      "Ġhumb": 2947,
      "Ġmanif": 2948,
      "ĠNow": 2949,
      "Ġupward": 2950,
      "aches": 2951,
      "Ġevening": 2952,
      "Ġpreached": 2953,
      "tained": 2954,
      "Ġfifth": 2955,
      "Ġsatisf": 2956,
      "Ġpleasure": 2957,
      "Ġorder": 2958,
      "Ġrecom": 2959,
      "Ġtreasures": 2960,
      "Ġsprink": 2961,
      "ĠAlm": 2962,
      "Ġpunish": 2963,
      "Ġbaptized": 2964,
      "ĠSyrians": 2965,
      "Ġdominion": 2966,
      "amascus": 2967,
      "ijah": 2968,
      "nez": 2969,
      "has": 2970,
      "Ġfet": 2971,
      "Ġyoke": 2972,
      "itut": 2973,
      "ript": 2974,
      "ĠMord": 2975,
      "Ġseat": 2976,
      "abb": 2977,
      "ĠJehu": 2978,
      "Ġdwelling": 2979,
      "Ġspeaking": 2980,
      "ĠAsh": 2981,
      "Ġendures": 2982,
      "Ġlament": 2983,
      "Ġpursu": 2984,
      "Ġexcell": 2985,
      "Ġhated": 2986,
      "Ġseventy": 2987,
      "Ġdespised": 2988,
      "Ġsupplic": 2989,
      "Ġcondem": 2990,
      "ĠBashan": 2991,
      "Ġunleavened": 2992,
      "nezzar": 2993,
      "ĠMordecai": 2994,
      "ae": 2995,
      "ares": 2996,
      "maid": 2997,
      "rum": 2998,
      "rection": 2999,
      "Ġfin": 3000,
      "Ġtown": 3001,
      "asp": 3002,
      "iment": 3003,
      "Ġdoct": 3004,
      "ckets": 3005,
      "ĠTo": 3006,
      "ĠTitus": 3007,
      "olt": 3008,
      "ĠOne": 3009,
      "ĠZedekiah": 3010,
      "ĠWhen": 3011,
      "ĠAbram": 3012,
      "aughter": 3013,
      "Ġblasp": 3014,
      "Ġcaptive": 3015,
      "Ġthirst": 3016,
      "Ġconsider": 3017,
      "Ġfields": 3018,
      "Ġmonths": 3019,
      "Ġexcept": 3020,
      "ĠElisha": 3021,
      "Ġinstrum": 3022,
      "Ġgift": 3023,
      "Ġhorsemen": 3024,
      "Ġgovernor": 3025,
      "Ġwidow": 3026,
      "Ġrecompen": 3027,
      "At": 3028,
      "Not": 3029,
      "nal": 3030,
      "rus": 3031,
      "Ġer": 3032,
      "Ġbind": 3033,
      "enance": 3034,
      "Ġem": 3035,
      "irs": 3036,
      "ĠSee": 3037,
      "Ġseason": 3038,
      "ĠDamascus": 3039,
      "ighty": 3040,
      "Ġlived": 3041,
      "Ġ52": 3042,
      "Ġswear": 3043,
      "Ġdwells": 3044,
      "ubb": 3045,
      "rible": 3046,
      "tend": 3047,
      "Ġuncircumc": 3048,
      "Ġburning": 3049,
      "Ġchoose": 3050,
      "Ġordin": 3051,
      "Ġescape": 3052,
      "Ġescaped": 3053,
      "Ġhabitation": 3054,
      "ĠHagg": 3055,
      "akkuk": 3056,
      "Ġofficers": 3057,
      "ĠHabakkuk": 3058,
      "With": 3059,
      "Woe": 3060,
      "ece": 3061,
      "serv": 3062,
      "Ġming": 3063,
      "Ġmir": 3064,
      "eds": 3065,
      "Ġinn": 3066,
      "Ġpub": 3067,
      "atan": 3068,
      "Ġonce": 3069,
      "Ġwilling": 3070,
      "Ġhandmaid": 3071,
      "Ġnext": 3072,
      "eps": 3073,
      "Ġbuy": 3074,
      "teenth": 3075,
      "Ġraiment": 3076,
      "Ġkingdoms": 3077,
      "Ġqueen": 3078,
      "Ġpleasant": 3079,
      "Ġprovin": 3080,
      "Ġmarvel": 3081,
      "Ġguard": 3082,
      "Ġthoughts": 3083,
      "Ġdealt": 3084,
      "Ġremembered": 3085,
      "Ġnakedness": 3086,
      "Ġnamed": 3087,
      "Ġinterpret": 3088,
      "ĠAlmighty": 3089,
      "Or": 3090,
      "Speak": 3091,
      "cass": 3092,
      "lah": 3093,
      "nah": 3094,
      "Ġaw": 3095,
      "ert": 3096,
      "Ġmark": 3097,
      "Ġdro": 3098,
      "Ġlad": 3099,
      "Ġlying": 3100,
      "ĠEt": 3101,
      "ĠSatan": 3102,
      "Ġhy": 3103,
      "ilate": 3104,
      "Ġproud": 3105,
      "Ġdig": 3106,
      "Ġeats": 3107,
      "Ġslaughter": 3108,
      "Ġtables": 3109,
      "Ġcarcass": 3110,
      "Ġperson": 3111,
      "Ġpersons": 3112,
      "Ġestablish": 3113,
      "Ġdrive": 3114,
      "ĠNebuchadnezzar": 3115,
      "Ġedge": 3116,
      "ĠMalachi": 3117,
      "Ġdoctr": 3118,
      "Ġfood": 3119,
      "orted": 3120,
      "Ġlod": 3121,
      "ĠLab": 3122,
      "ĠSe": 3123,
      "ĠAll": 3124,
      "Ġreap": 3125,
      "adiah": 3126,
      "Ġthres": 3127,
      "ĠMaster": 3128,
      "ĠMiz": 3129,
      "ĠCa": 3130,
      "ĠHar": 3131,
      "ously": 3132,
      "Ġplu": 3133,
      "Ġaltars": 3134,
      "Ġgraven": 3135,
      "Ġcountries": 3136,
      "Ġiniquities": 3137,
      "Ġspoiled": 3138,
      "Ġforgive": 3139,
      "Ġconsume": 3140,
      "ĠCanaanites": 3141,
      "Ġforsake": 3142,
      "Ġdevils": 3143,
      "Ġfowls": 3144,
      "Ġwonders": 3145,
      "Saying": 3146,
      "Ġviolence": 3147,
      "Ġmingled": 3148,
      "ĠLaban": 3149,
      "52": 3150,
      "yond": 3151,
      "Ġbra": 3152,
      "Ġbird": 3153,
      "Ġmet": 3154,
      "Ġmine": 3155,
      "Ġpat": 3156,
      "Ġbeyond": 3157,
      "odom": 3158,
      "ĠGil": 3159,
      "ently": 3160,
      "stitut": 3161,
      "Their": 3162,
      "lest": 3163,
      "Ġsees": 3164,
      "tery": 3165,
      "Ġsockets": 3166,
      "Ġjealous": 3167,
      "Ġfoundation": 3168,
      "Ġstanding": 3169,
      "Ġbrook": 3170,
      "Ġfellow": 3171,
      "ezer": 3172,
      "Ġadd": 3173,
      "Ġafflicted": 3174,
      "Ġforgi": 3175,
      "ĠBethle": 3176,
      "Ġscribe": 3177,
      "Ġmischi": 3178,
      "ĠHerod": 3179,
      "cy": 3180,
      "ead": 3181,
      "gain": 3182,
      "iet": 3183,
      "ike": 3184,
      "kes": 3185,
      "non": 3186,
      "pent": 3187,
      "Ġbreat": 3188,
      "aries": 3189,
      "Ġbeheld": 3190,
      "ĠIn": 3191,
      "ĠJa": 3192,
      "adok": 3193,
      "Ġhome": 3194,
      "ĠMary": 3195,
      "Ġsta": 3196,
      "ĠDo": 3197,
      "imeon": 3198,
      "Ġshed": 3199,
      "Ġprostitut": 3200,
      "lied": 3201,
      "Ġscript": 3202,
      "Ġcountenance": 3203,
      "Whoever": 3204,
      "Ġdevoured": 3205,
      "Ġsigns": 3206,
      "Ġremained": 3207,
      "ĠShime": 3208,
      "Ġpromise": 3209,
      "Ġgifts": 3210,
      "Ġobserve": 3211,
      "Ġcandlest": 3212,
      "Ġgarden": 3213,
      "Ġmanifest": 3214,
      "ĠBethlehem": 3215,
      "Ġcandlestick": 3216,
      ";)": 3217,
      "From": 3218,
      "Ġbest": 3219,
      "ition": 3220,
      "Ġlan": 3221,
      "Ġwheat": 3222,
      "Ġhears": 3223,
      "ĠKo": 3224,
      "Ġoverth": 3225,
      "Ġ89": 3226,
      "Ġspeech": 3227,
      "itting": 3228,
      "Ġdesired": 3229,
      "Ġscarle": 3230,
      "Ġfair": 3231,
      "Ġends": 3232,
      "ĠElias": 3233,
      "Ġcharged": 3234,
      "ĠHaman": 3235,
      "Ġprofan": 3236,
      "ĠNoah": 3237,
      "Ġterrible": 3238,
      "ĠJehoiada": 3239,
      "ĠZebul": 3240,
      "Ġcleans": 3241,
      "ĠIshm": 3242,
      "Ġscarlet": 3243,
      "Have": 3244,
      "Rem": 3245,
      "ht": 3246,
      "lation": 3247,
      "heth": 3248,
      "Ġbright": 3249,
      "Ġmilk": 3250,
      "Ġtoo": 3251,
      "Ġpest": 3252,
      "Ġeph": 3253,
      "aliah": 3254,
      "ĠSimeon": 3255,
      "ursed": 3256,
      "Ġstars": 3257,
      "ĠBlessed": 3258,
      "Ġdoings": 3259,
      "Ġoffend": 3260,
      "ĠKir": 3261,
      "Ġafar": 3262,
      "Ġourselves": 3263,
      "Ġletter": 3264,
      "ĠZadok": 3265,
      "alek": 3266,
      "ĠJosiah": 3267,
      "Ġcoasts": 3268,
      "Ġaccus": 3269,
      "Ġswall": 3270,
      "Ġfig": 3271,
      "Ġgoodness": 3272,
      "ĠAmalek": 3273,
      "Ġcloth": 3274,
      "Ġwitnesses": 3275,
      "Ġtransgression": 3276,
      "Ġmourning": 3277,
      "ĠNapht": 3278,
      "Ġpromised": 3279,
      "Ġtrumpets": 3280,
      "Ġrisen": 3281,
      "Ġremembrance": 3282,
      "Ġfriends": 3283,
      "Ġsearch": 3284,
      "Ġcedar": 3285,
      "Ġdistress": 3286,
      "Ġtalents": 3287,
      "Ġinstruments": 3288,
      "Ġdoctrine": 3289,
      "Ġephod": 3290,
      "Ġbar": 3291,
      "Ġmale": 3292,
      "Ġfurn": 3293,
      "Ġnine": 3294,
      "idings": 3295,
      "Ġformer": 3296,
      "Ġeach": 3297,
      "Ġitself": 3298,
      "ĠSin": 3299,
      "stance": 3300,
      "ĠAzar": 3301,
      "Ġstaves": 3302,
      "ĠRac": 3303,
      "Ġoverl": 3304,
      "Ġblue": 3305,
      "Ġchast": 3306,
      "Ġroot": 3307,
      "Ġglorified": 3308,
      "overed": 3309,
      "Ġmoon": 3310,
      "Ġquick": 3311,
      "Ġteeth": 3312,
      "Ġsubstance": 3313,
      "Ġcamels": 3314,
      "Ġperform": 3315,
      "Ġsuffered": 3316,
      "Ġbelong": 3317,
      "Ġprophesied": 3318,
      "Ġhaste": 3319,
      "Ġjoined": 3320,
      "Ġdamsel": 3321,
      "ĠRehoboam": 3322,
      "Ġpurif": 3323,
      "Ġforgiven": 3324,
      "ĠIshmael": 3325,
      "Ġpestil": 3326,
      "Go": 3327,
      "See": 3328,
      "íķ": 3329,
      "Ġsum": 3330,
      "rez": 3331,
      "reel": 3332,
      "Ġyield": 3333,
      "Ġcruc": 3334,
      "Ġhell": 3335,
      "ances": 3336,
      "Ġbelly": 3337,
      "Ġforn": 3338,
      "Ġforward": 3339,
      "ĠSodom": 3340,
      "Ġval": 3341,
      "oked": 3342,
      "Ġliken": 3343,
      "ember": 3344,
      "Ġtrus": 3345,
      "Ġbreast": 3346,
      "Ġwroth": 3347,
      "Ġexp": 3348,
      "Ġtread": 3349,
      "Ġparable": 3350,
      "Ġslept": 3351,
      "Ġharl": 3352,
      "Ġconfounded": 3353,
      "Ġtouched": 3354,
      "Ġincreased": 3355,
      "Ġdriven": 3356,
      "Ġassembly": 3357,
      "ĠJezreel": 3358,
      "Ġdecree": 3359,
      "ĠHaggai": 3360,
      "Ġmischief": 3361,
      "Ġlangu": 3362,
      "ĠNaphtali": 3363,
      "ĠAzariah": 3364,
      "53": 3365,
      "Again": 3366,
      "och": 3367,
      "rah": 3368,
      "ting": 3369,
      "uge": 3370,
      "Ġsides": 3371,
      "Ġfount": 3372,
      "orah": 3373,
      "Ġinward": 3374,
      "Ġeter": 3375,
      "Ġthorns": 3376,
      "ĠJoash": 3377,
      "Ġstumb": 3378,
      "Ġspear": 3379,
      "ĠHitt": 3380,
      "ekah": 3381,
      "Ġpride": 3382,
      "Ġprocl": 3383,
      "Ġ106": 3384,
      "Ġsworn": 3385,
      "Ġsinners": 3386,
      "Ġthrust": 3387,
      "ible": 3388,
      "Ġadul": 3389,
      "Ġpurple": 3390,
      "Ġdivide": 3391,
      "Ġtransgressions": 3392,
      "Ġclouds": 3393,
      "eshb": 3394,
      "Ġcovering": 3395,
      "Ġpalace": 3396,
      "ĠGibeah": 3397,
      "Ġmultiply": 3398,
      "Ġinquire": 3399,
      "ĠNahum": 3400,
      "Ġtower": 3401,
      "Ġblasphem": 3402,
      "Ġempt": 3403,
      "Do": 3404,
      "fully": 3405,
      "uri": 3406,
      "under": 3407,
      "Ġë": 3408,
      "heba": 3409,
      "Ġwant": 3410,
      "erce": 3411,
      "iting": 3412,
      "ene": 3413,
      "Ġpor": 3414,
      "ĠGed": 3415,
      "irm": 3416,
      "Ġkis": 3417,
      "raise": 3418,
      "ĠPilate": 3419,
      "Ġwashed": 3420,
      "Ġsong": 3421,
      "ĠNathan": 3422,
      "ĠHad": 3423,
      "ĠHear": 3424,
      "antly": 3425,
      "ĠJesse": 3426,
      "Ġaccom": 3427,
      "Ġglorious": 3428,
      "aziah": 3429,
      "Ġharden": 3430,
      "Ġsixth": 3431,
      "cloth": 3432,
      "Ġconfid": 3433,
      "ĠArise": 3434,
      "Ġrefuge": 3435,
      "Ġgladness": 3436,
      "Ġpillar": 3437,
      "Ġtravail": 3438,
      "Ġencam": 3439,
      "Ġsackcloth": 3440,
      "Ġbeauty": 3441,
      "ĠCaes": 3442,
      "ĠRachel": 3443,
      "Ġpestilence": 3444,
      "Ġeternal": 3445,
      "eel": 3446,
      "iving": 3447,
      "live": 3448,
      "ror": 3449,
      "sac": 3450,
      "tle": 3451,
      "Ġfro": 3452,
      "Ġcare": 3453,
      "Ġinf": 3454,
      "Ġlions": 3455,
      "ĠJep": 3456,
      "ĠJeb": 3457,
      "amb": 3458,
      "ety": 3459,
      "urrection": 3460,
      "Ġsell": 3461,
      "Ġthick": 3462,
      "ift": 3463,
      "ĠNet": 3464,
      "Ġoffice": 3465,
      "Ġconceived": 3466,
      "Ġlands": 3467,
      "ĠTruly": 3468,
      "hun": 3469,
      "Ġkeeps": 3470,
      "Ġconfess": 3471,
      "Ġdesolation": 3472,
      "Ġvessel": 3473,
      "Ġentering": 3474,
      "Ġforgotten": 3475,
      "Ġmeasured": 3476,
      "Ġveil": 3477,
      "Ġtarry": 3478,
      "Ġsnare": 3479,
      "Ġrecompense": 3480,
      "Ġinterpretation": 3481,
      "Sha": 3482,
      "ft": 3483,
      "ior": 3484,
      "mor": 3485,
      "Ġtidings": 3486,
      "Ġtor": 3487,
      "Ġpress": 3488,
      "ĠGive": 3489,
      "Ġyours": 3490,
      "ĠSurely": 3491,
      "Ġ105": 3492,
      "Ġcommun": 3493,
      "Ġsmoke": 3494,
      "Ġfours": 3495,
      "aired": 3496,
      "Ġarmor": 3497,
      "Ġquiet": 3498,
      "Ġcubit": 3499,
      "Ġcursed": 3500,
      "Ġbelieves": 3501,
      "Ġbullocks": 3502,
      "However": 3503,
      "Ġvineyards": 3504,
      "Ġmultiplied": 3505,
      "Ġcreated": 3506,
      "Ġrejoiced": 3507,
      "Ġsynagogue": 3508,
      "Ġshield": 3509,
      "Ġtowns": 3510,
      "Ġinnoc": 3511,
      "ĠJebus": 3512,
      "54": 3513,
      "cess": 3514,
      "gal": 3515,
      "son": 3516,
      "Ġsud": 3517,
      "Ġsitting": 3518,
      "Ġolive": 3519,
      "Ġbought": 3520,
      "erved": 3521,
      "Ġche": 3522,
      "Ġpot": 3523,
      "art": 3524,
      "ĠLot": 3525,
      "ĠGers": 3526,
      "ĠGide": 3527,
      "ĠAc": 3528,
      "ĠAi": 3529,
      "ĠNab": 3530,
      "ĠHave": 3531,
      "Ġrings": 3532,
      "Ġ66": 3533,
      "hanan": 3534,
      "ected": 3535,
      "Ġperver": 3536,
      "Ġangry": 3537,
      "ĠAsher": 3538,
      "Ġmercies": 3539,
      "Ġrepaired": 3540,
      "Ġrebuke": 3541,
      "Ġcompassed": 3542,
      "Ġpalm": 3543,
      "Ġtreasure": 3544,
      "ĠGibeon": 3545,
      "Ġgreen": 3546,
      "Ġweeping": 3547,
      "Ġmurd": 3548,
      "Ġregard": 3549,
      "Ġastonished": 3550,
      "Ġbands": 3551,
      "aea": 3552,
      "ĠZebulun": 3553,
      "sachar": 3554,
      "Shall": 3555,
      "Ġsudden": 3556,
      "ĠGideon": 3557,
      "God": 3558,
      "Surely": 3559,
      "ihon": 3560,
      "ëĭ": 3561,
      "Ġvenge": 3562,
      "Ġtit": 3563,
      "Ġmel": 3564,
      "Ġfaint": 3565,
      "Ġhall": 3566,
      "cep": 3567,
      "ceive": 3568,
      "ales": 3569,
      "stood": 3570,
      "Ġmeans": 3571,
      "Ġashes": 3572,
      "ĠJudaea": 3573,
      "Ġfatherless": 3574,
      "Ġ107": 3575,
      "Ġdesert": 3576,
      "Ġroll": 3577,
      "Ġflo": 3578,
      "Ġcaptives": 3579,
      "Ġentreat": 3580,
      "Ġelse": 3581,
      "Ġarmies": 3582,
      "Ġlords": 3583,
      "Ġplead": 3584,
      "Ġpiece": 3585,
      "Ġborders": 3586,
      "Ġjustified": 3587,
      "Ġrecord": 3588,
      "Ġshekel": 3589,
      "Ġfollowing": 3590,
      "Ġstretch": 3591,
      "Ġobeyed": 3592,
      "ĠBalak": 3593,
      "Ġdrunk": 3594,
      "Ġvirgin": 3595,
      "Ġsatisfied": 3596,
      "Ġuncircumcised": 3597,
      "Ġstaff": 3598,
      "Remember": 3599,
      "Ġvengeance": 3600,
      "Give": 3601,
      "She": 3602,
      "Ġtears": 3603,
      "Ġsits": 3604,
      "Ġwound": 3605,
      "eness": 3606,
      "Ġpaths": 3607,
      "ani": 3608,
      "Ġlatter": 3609,
      "iding": 3610,
      "ĠIssachar": 3611,
      "ĠCarm": 3612,
      "Ġstir": 3613,
      "Ġdep": 3614,
      "Ġweary": 3615,
      "ĠBo": 3616,
      "Ġage": 3617,
      "Ġherself": 3618,
      "Ġherds": 3619,
      "Ġvow": 3620,
      "Ġshoulder": 3621,
      "Ġgoods": 3622,
      "Ġflow": 3623,
      "Ġappoint": 3624,
      "Ġspirits": 3625,
      "Ġseeks": 3626,
      "Ġtender": 3627,
      "Ġprovoke": 3628,
      "Ġchanged": 3629,
      "Ġtalked": 3630,
      "Ġshepherd": 3631,
      "Ġstraightway": 3632,
      "Ġwonder": 3633,
      "Ġmagn": 3634,
      "Ġposts": 3635,
      "Ġfinished": 3636,
      "Ġbreath": 3637,
      "Ġharlot": 3638,
      ".)": 3639,
      "Every": 3640,
      "Son": 3641,
      "ial": 3642,
      "Ġauth": 3643,
      "Ġsow": 3644,
      "Ġbus": 3645,
      "Ġbos": 3646,
      "hiop": 3647,
      "Ġmak": 3648,
      "Ġfing": 3649,
      "Ġch": 3650,
      "Ġlack": 3651,
      "iram": 3652,
      "ĠSt": 3653,
      "ĠAha": 3654,
      "Ġsto": 3655,
      "ĠHas": 3656,
      "aced": 3657,
      "Ġvo": 3658,
      "Ġfierce": 3659,
      "Ġarrows": 3660,
      "Ġroom": 3661,
      "ignation": 3662,
      "Ġboards": 3663,
      "Ġwalks": 3664,
      "Ġuncleanness": 3665,
      "Ġdeclared": 3666,
      "Ġcompassion": 3667,
      "Ġresurrection": 3668,
      "Ġforest": 3669,
      "secr": 3670,
      "Ġindignation": 3671,
      "Ġplanted": 3672,
      "ross": 3673,
      "ĠObadiah": 3674,
      "ĠSarah": 3675,
      "ĠGilgal": 3676,
      "ĠShimei": 3677,
      "Ġaccompl": 3678,
      "Ġsuddenly": 3679,
      "Ġauthor": 3680,
      "Ġbosom": 3681,
      ":)": 3682,
      "ald": 3683,
      "ie": 3684,
      "poc": 3685,
      "ti": 3686,
      "tains": 3687,
      "Ġign": 3688,
      "Ġocc": 3689,
      "Ġwand": 3690,
      "Ġded": 3691,
      "Ġdried": 3692,
      "Ġpay": 3693,
      "Ġpron": 3694,
      "Ġhapp": 3695,
      "ases": 3696,
      "ĠJab": 3697,
      "Ġgrow": 3698,
      "Ġsaf": 3699,
      "Ġissue": 3700,
      "ĠPer": 3701,
      "ict": 3702,
      "ims": 3703,
      "Ġconsecr": 3704,
      "Ġnob": 3705,
      "Ġserpent": 3706,
      "Ġholiness": 3707,
      "Ġroar": 3708,
      "Ġmerciful": 3709,
      "Ġrestore": 3710,
      "Ġcounted": 3711,
      "Ġfools": 3712,
      "ĠBeths": 3713,
      "Ġtouches": 3714,
      "Ġrising": 3715,
      "Ġexceedingly": 3716,
      "Ġgrieved": 3717,
      "Ġgrievous": 3718,
      "Ġdrunken": 3719,
      "Ġbeaten": 3720,
      "ĠShemaiah": 3721,
      "Ġpolluted": 3722,
      "Ġheavy": 3723,
      "Ġhypoc": 3724,
      "ĠSeir": 3725,
      "Ġhypocr": 3726,
      "55": 3727,
      "ued": 3728,
      "Ġair": 3729,
      "Ġmed": 3730,
      "Ġmolt": 3731,
      "Ġfish": 3732,
      "Ġinner": 3733,
      "Ġshar": 3734,
      "ention": 3735,
      "ĠEn": 3736,
      "Ġresp": 3737,
      "Ġhorn": 3738,
      "Ġascend": 3739,
      "ĠCy": 3740,
      "Ġstick": 3741,
      "Ġsteps": 3742,
      "Ġspare": 3743,
      "Ġdoing": 3744,
      "Ġvali": 3745,
      "ĠSamson": 3746,
      "ĠJew": 3747,
      "Ġscatter": 3748,
      "Ġlawful": 3749,
      "Ġdisp": 3750,
      "Ġbury": 3751,
      "Ġleast": 3752,
      "ĠFear": 3753,
      "Ġwax": 3754,
      "Ġplease": 3755,
      "Ġconcub": 3756,
      "Ġpossessed": 3757,
      "Ġsalt": 3758,
      "Ġeastward": 3759,
      "Ġcorners": 3760,
      "Ġbowels": 3761,
      "Ġmeasures": 3762,
      "Ġeighth": 3763,
      "hittim": 3764,
      "Ġstrife": 3765,
      "Ġcauses": 3766,
      "Ġships": 3767,
      "Ġbondage": 3768,
      "rosy": 3769,
      "Ġmurm": 3770,
      "Ġstrengthened": 3771,
      "Ġleprosy": 3772,
      "ĠMerari": 3773,
      "Ġsupplication": 3774,
      "ĠEthiop": 3775,
      "Ġcleansed": 3776,
      "Ġquickly": 3777,
      "Ġproclaim": 3778,
      "Ġadultery": 3779,
      "Ġporch": 3780,
      "Ġignor": 3781,
      "Ġmolten": 3782,
      "af": 3783,
      "ier": 3784,
      "pah": 3785,
      "ug": 3786,
      "Ġsor": 3787,
      "inn": 3788,
      "rew": 3789,
      "Ġoft": 3790,
      "Ġbars": 3791,
      "him": 3792,
      "Ġfen": 3793,
      "Ġhail": 3794,
      "Ġshake": 3795,
      "hood": 3796,
      "alm": 3797,
      "Ġrev": 3798,
      "Ġmemb": 3799,
      "Ġmemor": 3800,
      "adan": 3801,
      "Ġbride": 3802,
      "Ġ59": 3803,
      "Ġ65": 3804,
      "Ġoverc": 3805,
      "ĠZi": 3806,
      "Ġpasses": 3807,
      "Ġdivers": 3808,
      "Ġblow": 3809,
      "Ġwriting": 3810,
      "ĠAmaziah": 3811,
      "Ġdescend": 3812,
      "unto": 3813,
      "Ġappro": 3814,
      "Ġlooks": 3815,
      "Ġimp": 3816,
      "ĠBenaiah": 3817,
      "Ġsingers": 3818,
      "Ġdrag": 3819,
      "Ġneedy": 3820,
      "Ġoppressed": 3821,
      "Ġappearance": 3822,
      "Ġgirdle": 3823,
      "Ġcircumcised": 3824,
      "Ġbask": 3825,
      "Ġshepherds": 3826,
      "Though": 3827,
      "Ġrevealed": 3828,
      "Ġpursued": 3829,
      "eshbon": 3830,
      "Ġempty": 3831,
      "Ġinnocent": 3832,
      "Ġchronicles": 3833,
      "Ġpronou": 3834,
      "Ġfenced": 3835,
      "Know": 3836,
      "Will": 3837,
      "old": 3838,
      "uff": 3839,
      "Ġsim": 3840,
      "Ġfil": 3841,
      "Ġcaught": 3842,
      "ĠGre": 3843,
      "ĠGath": 3844,
      "ĠCale": 3845,
      "Ġdew": 3846,
      "Ġhearing": 3847,
      "Ġshort": 3848,
      "ĠRed": 3849,
      "Ġliber": 3850,
      "Ġabhor": 3851,
      "Ġknowing": 3852,
      "ĠAbi": 3853,
      "ĠAmm": 3854,
      "Ġunderstood": 3855,
      "Ġchains": 3856,
      "Ġremains": 3857,
      "Ġenv": 3858,
      "Ġscorn": 3859,
      "Ġtribute": 3860,
      "Ġgrapes": 3861,
      "Ġreceives": 3862,
      "Ġbroad": 3863,
      "Ġimag": 3864,
      "Ġwaxed": 3865,
      "standing": 3866,
      "Ġlamps": 3867,
      "Ġbuilding": 3868,
      "Ġcontinue": 3869,
      "Ġcorner": 3870,
      "ĠShil": 3871,
      "Ġdespise": 3872,
      "Ġcomforted": 3873,
      "Ġchurches": 3874,
      "Ġassembled": 3875,
      "Ġministered": 3876,
      "arley": 3877,
      "Ġprevailed": 3878,
      "ĠTyre": 3879,
      "Ġdiligently": 3880,
      "Ġcondemn": 3881,
      "Ġmirac": 3882,
      "ĠSinai": 3883,
      "Ġcrucified": 3884,
      "Ġvalor": 3885,
      "Ġconfidence": 3886,
      "Ġfloor": 3887,
      "Ġauthority": 3888,
      "ĠCaleb": 3889,
      "56": 3890,
      "Truly": 3891,
      "core": 3892,
      "cil": 3893,
      "Ġwrong": 3894,
      "Ġwounded": 3895,
      "Ġbarley": 3896,
      "Ġfly": 3897,
      "ory": 3898,
      "oram": 3899,
      "Ġdise": 3900,
      "Ġdung": 3901,
      "Ġline": 3902,
      "ĠPers": 3903,
      "ury": 3904,
      "Ġtherewith": 3905,
      "Ġseas": 3906,
      "Ġsealed": 3907,
      "Ġspot": 3908,
      "ĠHeshbon": 3909,
      "ĠBring": 3910,
      "ĠKad": 3911,
      "Ġ55": 3912,
      "empt": 3913,
      "Ġsolem": 3914,
      "Ġtwenti": 3915,
      "Ġ69": 3916,
      "Ġproce": 3917,
      "Ġletters": 3918,
      "Ġkindred": 3919,
      "Ġtongues": 3920,
      "Ġinstead": 3921,
      "Ġdefile": 3922,
      "Ġcovet": 3923,
      "Ġstreet": 3924,
      "Ġtestimonies": 3925,
      "Ġrebellious": 3926,
      "ĠRamah": 3927,
      "ĠAhaziah": 3928,
      "withstanding": 3929,
      "Ġforbid": 3930,
      "Ġadversaries": 3931,
      "Ġcreep": 3932,
      "Ġpurpose": 3933,
      "ĠKirj": 3934,
      "Ġfornication": 3935,
      "Ġfourscore": 3936,
      "Ġsolemn": 3937,
      "Ġtwentieth": 3938,
      "even": 3939,
      "fl": 3940,
      "ler": 3941,
      "eded": 3942,
      "Ġduke": 3943,
      "Ġnat": 3944,
      "idon": 3945,
      "Ġfort": 3946,
      "Ġequ": 3947,
      "Ġeither": 3948,
      "ĠAhit": 3949,
      "Ġgoat": 3950,
      "iff": 3951,
      "eks": 3952,
      "eman": 3953,
      "Ġuse": 3954,
      "Ġ68": 3955,
      "Ġ104": 3956,
      "Ġwherever": 3957,
      "Ġwhereby": 3958,
      "Ġperceived": 3959,
      "Ġremove": 3960,
      "unning": 3961,
      "Ġdism": 3962,
      "Ġdisple": 3963,
      "Ġsilence": 3964,
      "Ġfolly": 3965,
      "Ġfruitful": 3966,
      "Ġoblation": 3967,
      "Ġcourse": 3968,
      "Ġstatute": 3969,
      "Ġrebuk": 3970,
      "Ġsabbaths": 3971,
      "Ġordained": 3972,
      "Ġpersu": 3973,
      "ĠAdon": 3974,
      "Ġwaited": 3975,
      "ĠJehoiakim": 3976,
      "Ġstays": 3977,
      "Ġoverlaid": 3978,
      "phan": 3979,
      "phah": 3980,
      "Ġê": 3981,
      "head": 3982,
      "hai": 3983,
      "Ġbad": 3984,
      "hiah": 3985,
      "Ġfem": 3986,
      "Ġcunning": 3987,
      "Ġhig": 3988,
      "Ġhired": 3989,
      "Ġlus": 3990,
      "ĠJed": 3991,
      "idue": 3992,
      "Ġeag": 3993,
      "Ġephah": 3994,
      "rage": 3995,
      "ĠSal": 3996,
      "ĠSihon": 3997,
      "ĠAt": 3998,
      "ĠAra": 3999,
      "ersheba": 4000,
      "Ġvict": 4001,
      "Ġ60": 4002,
      "ĠOf": 4003,
      "ĠOn": 4004,
      "Ġarray": 4005,
      "Ġbold": 4006,
      "Ġmercha": 4007,
      "Ġgracious": 4008,
      "Ġsacrificed": 4009,
      "ection": 4010,
      "Ġbesie": 4011,
      "Ġprovoked": 4012,
      "Ġtransgressed": 4013,
      "Ġdeceived": 4014,
      "ĠHamath": 4015,
      "ĠBeersheba": 4016,
      "Ġresidue": 4017,
      "Ġmessenger": 4018,
      "Ġinquired": 4019,
      "ilkiah": 4020,
      "Ġcircumcision": 4021,
      "Ġrebelled": 4022,
      "venture": 4023,
      "Ġrefused": 4024,
      "Ġninth": 4025,
      "Ġpatience": 4026,
      "Ġjealousy": 4027,
      "íķĺ": 4028,
      "Ġlikeness": 4029,
      "Ġfemale": 4030,
      "Like": 4031,
      "aren": 4032,
      "dd": 4033,
      "ging": 4034,
      "gran": 4035,
      "long": 4036,
      "rayed": 4037,
      "Ġsel": 4038,
      "Ġbri": 4039,
      "era": 4040,
      "Ġdeter": 4041,
      "Ġhire": 4042,
      "Ġpome": 4043,
      "ĠLeah": 4044,
      "Ġformed": 4045,
      "Ġev": 4046,
      "odden": 4047,
      "race": 4048,
      "Ġreed": 4049,
      "Ġreck": 4050,
      "Ġanci": 4051,
      "icing": 4052,
      "Ġwheels": 4053,
      "ĠHilkiah": 4054,
      "Ġdeeds": 4055,
      "Ġwear": 4056,
      "ĠBa": 4057,
      "ĠReb": 4058,
      "Ġhook": 4059,
      "Ġlost": 4060,
      "Ġloving": 4061,
      "Ġprice": 4062,
      "Ġgoodly": 4063,
      "Ġenl": 4064,
      "Ġflame": 4065,
      "Ġturns": 4066,
      "Ġclay": 4067,
      "part": 4068,
      "Ġtreacher": 4069,
      "Ġharp": 4070,
      "ĠPhilistine": 4071,
      "Ġquest": 4072,
      "Ġinhabitant": 4073,
      "Ġbodies": 4074,
      "Ġinstruction": 4075,
      "Ġcontinual": 4076,
      "Ġporters": 4077,
      "Ġpalaces": 4078,
      "Ġceased": 4079,
      "ĠAsaph": 4080,
      "Ġjourneyed": 4081,
      "Ġseparated": 4082,
      "Only": 4083,
      "ĠĠĠĠĠĠĠĠ": 4084,
      "Ġexcellent": 4085,
      "Ġprofane": 4086,
      "Ġfountain": 4087,
      "Ġhardened": 4088,
      "Ġencamped": 4089,
      "ĠCarmel": 4090,
      "Ġrespect": 4091,
      "Ġvaliant": 4092,
      "ĠShiloh": 4093,
      "Ġdeterm": 4094,
      "Ġpomegran": 4095,
      "57": 4096,
      "ees": 4097,
      "iers": 4098,
      "oah": 4099,
      "Ġsown": 4100,
      "Ġwave": 4101,
      "hib": 4102,
      "Ġmales": 4103,
      "Ġcord": 4104,
      "Ġcave": 4105,
      "Ġcust": 4106,
      "Ġhence": 4107,
      "Ġbeha": 4108,
      "lew": 4109,
      "ams": 4110,
      "adventure": 4111,
      "Ġhot": 4112,
      "Ġung": 4113,
      "Ġstore": 4114,
      "Ġspices": 4115,
      "ĠHigh": 4116,
      "esty": 4117,
      "Ġshine": 4118,
      "Ġ57": 4119,
      "Ġloaves": 4120,
      "Ġloosed": 4121,
      "Ġgreatness": 4122,
      "ĠAbisha": 4123,
      "Ġfeasts": 4124,
      "Ġenough": 4125,
      "arer": 4126,
      "Ġfoundations": 4127,
      "Ġgrant": 4128,
      "Ġcontr": 4129,
      "Ġinhabited": 4130,
      "Ġsubj": 4131,
      "ĠElis": 4132,
      "Ġcleanse": 4133,
      "ĠAdam": 4134,
      "Ġabundantly": 4135,
      "Ġbranch": 4136,
      "Ġgirded": 4137,
      "Ġrepented": 4138,
      "Ġfowl": 4139,
      "Ġtarried": 4140,
      "Ġhungry": 4141,
      "Ġprostitutions": 4142,
      "Ġscripture": 4143,
      "ĠKohath": 4144,
      "Ġtrusted": 4145,
      "ĠGedaliah": 4146,
      "Ġmembers": 4147,
      "Ġmemorial": 4148,
      "aj": 4149,
      "gilead": 4150,
      "ms": 4151,
      "melech": 4152,
      "pet": 4153,
      "xes": 4154,
      "Ġoint": 4155,
      "erus": 4156,
      "Ġmad": 4157,
      "Ġfed": 4158,
      "Ġcol": 4159,
      "Ġdue": 4160,
      "ately": 4161,
      "arge": 4162,
      "Ġsand": 4163,
      "Ġsakes": 4164,
      "raud": 4165,
      "ĠPe": 4166,
      "add": 4167,
      "ĠMed": 4168,
      "ilah": 4169,
      "ĠNer": 4170,
      "Ġalread": 4171,
      "Ġupper": 4172,
      "ĠHor": 4173,
      "Ġsayings": 4174,
      "abas": 4175,
      "Ġherit": 4176,
      "Ġvows": 4177,
      "ĠKen": 4178,
      "cks": 4179,
      "ĠJudas": 4180,
      "hants": 4181,
      "Ġsuck": 4182,
      "Ġ109": 4183,
      "ccording": 4184,
      "ĠAbiat": 4185,
      "Ġbreasts": 4186,
      "Ġspeed": 4187,
      "ishon": 4188,
      "Ġperpet": 4189,
      "Ġunright": 4190,
      "cience": 4191,
      "Ġmerchants": 4192,
      "Ġyounger": 4193,
      "ĠSheba": 4194,
      "Ġpartak": 4195,
      "Ġsubd": 4196,
      "Ġcurtains": 4197,
      "Ġhates": 4198,
      "Ġborne": 4199,
      "Ġtestify": 4200,
      "Ġanswering": 4201,
      "ĠPhilip": 4202,
      "suerus": 4203,
      "Ġcalf": 4204,
      "ìĿ´": 4205,
      "servant": 4206,
      "Ġpubl": 4207,
      "rezzar": 4208,
      "Ġbreastpl": 4209,
      "Ġmurdere": 4210,
      "ĠAhasuerus": 4211,
      "Ġdismayed": 4212,
      "Ġungod": 4213,
      "Ġalready": 4214,
      "ĠAbiathar": 4215,
      "Ġunrighteous": 4216,
      "Man": 4217,
      "Re": 4218,
      "cel": 4219,
      "hort": 4220,
      "iar": 4221,
      "ops": 4222,
      "rates": 4223,
      "zen": 4224,
      "Ġtum": 4225,
      "Ġtast": 4226,
      "Ġaven": 4227,
      "inadab": 4228,
      "erry": 4229,
      "Ġmock": 4230,
      "Ġmention": 4231,
      "Ġdies": 4232,
      "Ġhew": 4233,
      "Ġpain": 4234,
      "Ġpity": 4235,
      "Ġless": 4236,
      "asha": 4237,
      "ĠLib": 4238,
      "ĠLamb": 4239,
      "Ġgain": 4240,
      "ĠSham": 4241,
      "ĠAg": 4242,
      "ĠAho": 4243,
      "Ġrender": 4244,
      "Ġmeek": 4245,
      "Ġwhir": 4246,
      "ĠNaz": 4247,
      "Ġalong": 4248,
      "asters": 4249,
      "osheth": 4250,
      "Ġknees": 4251,
      "Ġ63": 4252,
      "Ġprove": 4253,
      "Ġoverfl": 4254,
      "Ġcovers": 4255,
      "Ġputs": 4256,
      "Ġcalls": 4257,
      "Ġrob": 4258,
      "areth": 4259,
      "Ġappare": 4260,
      "Ġwalking": 4261,
      "Ġstands": 4262,
      "Ġtabernacles": 4263,
      "Ġconsp": 4264,
      "Ġconscience": 4265,
      "Ġfellows": 4266,
      "Ġpreserve": 4267,
      "Ġarmed": 4268,
      "Ġholds": 4269,
      "Ġcrying": 4270,
      "Ġwindows": 4271,
      "Ġmarried": 4272,
      "Ġhonorable": 4273,
      "ĠShaphan": 4274,
      "Ġsoldiers": 4275,
      "Ġburdens": 4276,
      "Ġthanksg": 4277,
      "Ġseparate": 4278,
      "Ġrequire": 4279,
      "Ġhanged": 4280,
      "ĠNebuchadrezzar": 4281,
      "Ġpersecute": 4282,
      "Ġexecute": 4283,
      "Ġlearn": 4284,
      "Ġsprinkle": 4285,
      "Ġordinance": 4286,
      "Ġprovinces": 4287,
      "Ġthreshing": 4288,
      "Ġpluck": 4289,
      "Ġfurnace": 4290,
      "ĠCaesar": 4291,
      "ĠJepht": 4292,
      "ĠGershon": 4293,
      "Ġdedic": 4294,
      "Ġnobles": 4295,
      "Ġlusts": 4296,
      "ĠRebekah": 4297,
      "Ġdetermined": 4298,
      "Ġheritage": 4299,
      "Are": 4300,
      "No": 4301,
      "ax": 4302,
      "hud": 4303,
      "kam": 4304,
      "lw": 4305,
      "nabas": 4306,
      "yal": 4307,
      "Ġmerry": 4308,
      "Ġcra": 4309,
      "Ġchose": 4310,
      "Ġcap": 4311,
      "Ġcross": 4312,
      "onia": 4313,
      "ency": 4314,
      "edient": 4315,
      "Ġdumb": 4316,
      "Ġheave": 4317,
      "Ġgall": 4318,
      "usion": 4319,
      "amar": 4320,
      "ĠGom": 4321,
      "ĠSh": 4322,
      "ĠSav": 4323,
      "ĠPh": 4324,
      "ĠPel": 4325,
      "ĠAp": 4326,
      "Ġmean": 4327,
      "ĠMe": 4328,
      "ĠMaac": 4329,
      "ĠNun": 4330,
      "Ġalto": 4331,
      "Ġdeals": 4332,
      "Ġweap": 4333,
      "atters": 4334,
      "Ġwholly": 4335,
      "Ġ118": 4336,
      "ĠJeshua": 4337,
      "Ġaccount": 4338,
      "Ġroyal": 4339,
      "Ġexhort": 4340,
      "Ġendure": 4341,
      "Ġreport": 4342,
      "Ġtemp": 4343,
      "Ġarms": 4344,
      "Ġrejected": 4345,
      "Ġdisciple": 4346,
      "Ġpraises": 4347,
      "Ġcertainly": 4348,
      "ĠElam": 4349,
      "Ġhelped": 4350,
      "Ġsinging": 4351,
      "Ġcontinued": 4352,
      "Ġterror": 4353,
      "Ġvex": 4354,
      "ĠBarnabas": 4355,
      "Ġcreature": 4356,
      "ĠHananiah": 4357,
      "Ġaccepted": 4358,
      "Ġgroves": 4359,
      "Ġhumbled": 4360,
      "Ġfetch": 4361,
      "Ġbrazen": 4362,
      "Ġdepth": 4363,
      "Ġbusiness": 4364,
      "Ġcreeping": 4365,
      "Ġwhirlw": 4366,
      "ĠJephthah": 4367,
      "Ġcapit": 4368,
      "ĠSavior": 4369,
      "Ġaltogether": 4370,
      "Ġwhirlwind": 4371,
      "58": 4372,
      "According": 4373,
      "air": 4374,
      "pha": 4375,
      "unt": 4376,
      "ĠYes": 4377,
      "Ġtur": 4378,
      "nds": 4379,
      "ination": 4380,
      "Ġwoe": 4381,
      "Ġbir": 4382,
      "Ġbene": 4383,
      "atch": 4384,
      "ĠJoram": 4385,
      "Ġren": 4386,
      "Ġthief": 4387,
      "ĠHus": 4388,
      "ĠHere": 4389,
      "ĠHur": 4390,
      "ĠKed": 4391,
      "sely": 4392,
      "Ġplay": 4393,
      "ĠTh": 4394,
      "ĠTars": 4395,
      "Ġjew": 4396,
      "Ġ73": 4397,
      "Ġprud": 4398,
      "Ġ102": 4399,
      "Ġovert": 4400,
      "ĠLevite": 4401,
      "ĠZac": 4402,
      "Ġpriv": 4403,
      "Ġworkers": 4404,
      "ĠAmnon": 4405,
      "Ġhundreds": 4406,
      "Ġglorify": 4407,
      "Ġpool": 4408,
      "Ġspiritual": 4409,
      "Ġprinci": 4410,
      "Ġfalls": 4411,
      "Ġpursue": 4412,
      "Ġobtained": 4413,
      "Ġbacks": 4414,
      "Ġuttermost": 4415,
      "Ġvalleys": 4416,
      "Ġdrawn": 4417,
      "ĠNaam": 4418,
      "ĠWhoever": 4419,
      "Ġgrew": 4420,
      "Ġchange": 4421,
      "Ġanointing": 4422,
      "Ġbottom": 4423,
      "Ġerr": 4424,
      "Ġawake": 4425,
      "Ġclothing": 4426,
      "cepts": 4427,
      "Ġmaking": 4428,
      "ĠPersia": 4429,
      "Ġcovetous": 4430,
      "ĠBaasha": 4431,
      "Ġperpetual": 4432,
      "Ġbreastplate": 4433,
      "ĠNazareth": 4434,
      "Ġapparel": 4435,
      "Ġthanksgiving": 4436,
      "Ġbirth": 4437,
      "Ġbeneath": 4438,
      "Come": 4439,
      "go": 4440,
      "ias": 4441,
      "mah": 4442,
      "mers": 4443,
      "phel": 4444,
      "sing": 4445,
      "Ġshittim": 4446,
      "Ġbud": 4447,
      "Ġmaj": 4448,
      "Ġfaul": 4449,
      "Ġfishes": 4450,
      "enn": 4451,
      "Ġpsal": 4452,
      "atha": 4453,
      "anah": 4454,
      "ariah": 4455,
      "omes": 4456,
      "Ġlame": 4457,
      "ĠJot": 4458,
      "Ġgot": 4459,
      "Ġeun": 4460,
      "ĠGaz": 4461,
      "Ġisles": 4462,
      "ĠEb": 4463,
      "ĠAh": 4464,
      "ĠMaced": 4465,
      "iling": 4466,
      "Ġspace": 4467,
      "ĠHel": 4468,
      "abel": 4469,
      "Ġconv": 4470,
      "Ġtrodden": 4471,
      "ĠZib": 4472,
      "Ġeating": 4473,
      "ĠEgyptian": 4474,
      "Ġgiving": 4475,
      "ĠPhile": 4476,
      "Ġrestored": 4477,
      "Ġlightning": 4478,
      "ĠHebrew": 4479,
      "Ġquen": 4480,
      "Ġjoyful": 4481,
      "Ġfinds": 4482,
      "Ġjustice": 4483,
      "hadad": 4484,
      "While": 4485,
      "Ġgrief": 4486,
      "Ġfurther": 4487,
      "Ġnevertheless": 4488,
      "Ġspring": 4489,
      "Ġrunning": 4490,
      "Ġministers": 4491,
      "Ġrejoicing": 4492,
      "Ġtremble": 4493,
      "ĠRamoth": 4494,
      "ĠZeru": 4495,
      "Ġforbear": 4496,
      "ĠUzziah": 4497,
      "Ġtouching": 4498,
      "Ġdouble": 4499,
      "Ġpunishment": 4500,
      "Ġordinances": 4501,
      "Ġprovince": 4502,
      "Ġsummer": 4503,
      "Ġlanguage": 4504,
      "Ġentreated": 4505,
      "Ġliberty": 4506,
      "Ġmiracles": 4507,
      "Ġcustom": 4508,
      "Ġungodly": 4509,
      "Ġmajesty": 4510,
      "Ġeunuch": 4511,
      "Arise": 4512,
      "aw": 4513,
      "beli": 4514,
      "oll": 4515,
      "pal": 4516,
      "what": 4517,
      "Ġz": 4518,
      "hir": 4519,
      "erah": 4520,
      "ork": 4521,
      "Ġdim": 4522,
      "Ġbears": 4523,
      "Ġforso": 4524,
      "ĠGet": 4525,
      "Ġkins": 4526,
      "Ġmyst": 4527,
      "Ġthunder": 4528,
      "ĠChe": 4529,
      "ĠCain": 4530,
      "Ġseal": 4531,
      "ĠJohanan": 4532,
      "Ġstro": 4533,
      "ilty": 4534,
      "Ġgoings": 4535,
      "Ġweal": 4536,
      "ĠBel": 4537,
      "ĠKe": 4538,
      "ĠKorah": 4539,
      "ĠRem": 4540,
      "ĠRep": 4541,
      "ĠJude": 4542,
      "Ġworse": 4543,
      "Ġearn": 4544,
      "Ġloose": 4545,
      "hull": 4546,
      "Ġ136": 4547,
      "Ġcoals": 4548,
      "Ġtimber": 4549,
      "Ġblack": 4550,
      "Ġmoreover": 4551,
      "Ġperished": 4552,
      "Ġperceive": 4553,
      "Ġunbeli": 4554,
      "Ġrobe": 4555,
      "Ġfourteen": 4556,
      "ĠFrom": 4557,
      "Ġlooking": 4558,
      "Ġincl": 4559,
      "aseiah": 4560,
      "Ġwaves": 4561,
      "Ġcourage": 4562,
      "Ġadv": 4563,
      "Ġpraised": 4564,
      "Ġcurtain": 4565,
      "Ġconfusion": 4566,
      "Ġcharity": 4567,
      "Ġestim": 4568,
      "Ġtestified": 4569,
      "ĠUriah": 4570,
      "Ġdeceive": 4571,
      "Ġguilty": 4572,
      "ĠBaruch": 4573,
      "Ġrepentance": 4574,
      "Ġseparation": 4575,
      "Ġwestward": 4576,
      "Ġbonds": 4577,
      "Ġwidows": 4578,
      "Ġtrembling": 4579,
      "Ġpreaching": 4580,
      "Ġrefuse": 4581,
      "Ġexcellency": 4582,
      "Ġpublic": 4583,
      "Ġlodge": 4584,
      "Ġswallowed": 4585,
      "ĠHittite": 4586,
      "Ġkissed": 4587,
      "Ġfinger": 4588,
      "Ġaccomplished": 4589,
      "Ġsharp": 4590,
      "Likewise": 4591,
      "Ġhooks": 4592,
      "Ġcords": 4593,
      "Ġointment": 4594,
      "Ġprincipal": 4595,
      "ĠMacedonia": 4596,
      "ĠPhilemon": 4597,
      "ĠZeruiah": 4598,
      "Ġforsook": 4599,
      "59": 4600,
      "Can": 4601,
      "aph": 4602,
      "oz": 4603,
      "Ġsnow": 4604,
      "Ġban": 4605,
      "Ġbough": 4606,
      "Ġbrim": 4607,
      "ering": 4608,
      "Ġfre": 4609,
      "Ġfas": 4610,
      "Ġcakes": 4611,
      "edge": 4612,
      "ĠLa": 4613,
      "Ġgotten": 4614,
      "raw": 4615,
      "stone": 4616,
      "ĠAch": 4617,
      "Ġrend": 4618,
      "Ġrele": 4619,
      "aded": 4620,
      "ifies": 4621,
      "ĠDari": 4622,
      "ĠHos": 4623,
      "ĠHiv": 4624,
      "Ġdefe": 4625,
      "abad": 4626,
      "ulation": 4627,
      "Ġcontend": 4628,
      "ĠRabb": 4629,
      "Ġ56": 4630,
      "Ġ58": 4631,
      "Ġabound": 4632,
      "Ġplains": 4633,
      "ĠTH": 4634,
      "ĠTir": 4635,
      "aving": 4636,
      "Ġprolong": 4637,
      "ppa": 4638,
      "inehas": 4639,
      "Ġcoat": 4640,
      "ishment": 4641,
      "Ġfourteenth": 4642,
      "Ġlean": 4643,
      "Ġleaven": 4644,
      "Ġleaves": 4645,
      "Ġuncover": 4646,
      "Ġconsid": 4647,
      "Ġfullness": 4648,
      "ĠBenhadad": 4649,
      "Ġwithered": 4650,
      "Ġsomewhat": 4651,
      "Ġcouncil": 4652,
      "Ġcourts": 4653,
      "ĠMicha": 4654,
      "ĠArnon": 4655,
      "Ġsteal": 4656,
      "ĠNebat": 4657,
      "ocation": 4658,
      "Ġrises": 4659,
      "Ġcalam": 4660,
      "ĠMaaseiah": 4661,
      "ĠMeshull": 4662,
      "Ġtempted": 4663,
      "Ġseems": 4664,
      "Ġsprinkled": 4665,
      "ĠAshd": 4666,
      "Ġlamentation": 4667,
      "Notwithstanding": 4668,
      "Ġwillingly": 4669,
      "Ġdrove": 4670,
      "Ġbirds": 4671,
      "Ġoffended": 4672,
      "ĠJebusites": 4673,
      "Ġoccas": 4674,
      "ĠKirjath": 4675,
      "Ġdispleased": 4676,
      "Ġrebuked": 4677,
      "ĠAdonijah": 4678,
      "Ġeagle": 4679,
      "ĠAbishai": 4680,
      "ĠPeace": 4681,
      "Ġjewels": 4682,
      "Ġfashi": 4683,
      "ĠDarius": 4684,
      "Lest": 4685,
      "app": 4686,
      "ahaz": 4687,
      "gro": 4688,
      "ires": 4689,
      "joice": 4690,
      "kron": 4691,
      "uph": 4692,
      "zah": 4693,
      "Ġack": 4694,
      "Ġapart": 4695,
      "Ġow": 4696,
      "Ġward": 4697,
      "Ġbald": 4698,
      "hiel": 4699,
      "Ġmu": 4700,
      "Ġmor": 4701,
      "Ġmid": 4702,
      "Ġfame": 4703,
      "ormed": 4704,
      "Ġcent": 4705,
      "Ġcows": 4706,
      "Ġpath": 4707,
      "iss": 4708,
      "Ġbef": 4709,
      "Ġlots": 4710,
      "Ġform": 4711,
      "Ġemb": 4712,
      "Ġeff": 4713,
      "rac": 4714,
      "ĠPraise": 4715,
      "ĠAnt": 4716,
      "ĠMake": 4717,
      "ĠMachi": 4718,
      "ils": 4719,
      "Ġthigh": 4720,
      "ĠDeb": 4721,
      "ables": 4722,
      "Ġdogs": 4723,
      "achish": 4724,
      "ĠKnow": 4725,
      "eves": 4726,
      "soever": 4727,
      "Ġamb": 4728,
      "Ġ54": 4729,
      "Ġusury": 4730,
      "ĠTamar": 4731,
      "Ġ71": 4732,
      "Ġ62": 4733,
      "Ġlose": 4734,
      "Ġcommon": 4735,
      "Ġ139": 4736,
      "Ġswift": 4737,
      "Ġfigs": 4738,
      "Ġbringing": 4739,
      "Ġfirm": 4740,
      "Ġrobb": 4741,
      "Ġprecepts": 4742,
      "Ġbegotten": 4743,
      "Ġprayers": 4744,
      "Ġswords": 4745,
      "Ġfears": 4746,
      "Ġeleven": 4747,
      "Ġcontent": 4748,
      "peh": 4749,
      "hemesh": 4750,
      "izz": 4751,
      "Ġvisions": 4752,
      "ĠUri": 4753,
      "Ġbowls": 4754,
      "Ġmarry": 4755,
      "Ġskins": 4756,
      "Ġnorthward": 4757,
      "Ġcruel": 4758,
      "Ġplagues": 4759,
      "Ġsickness": 4760,
      "Ġforehead": 4761,
      "Ġoppression": 4762,
      "Ġfulfill": 4763,
      "Ġtrad": 4764,
      "ĠTherefore": 4765,
      "Ġexalt": 4766,
      "Ġrequest": 4767,
      "Ġcalves": 4768,
      "Ġcedars": 4769,
      "Ġdeny": 4770,
      "Ġpersecut": 4771,
      "Ġsynagogues": 4772,
      "Ġdeceitful": 4773,
      "ĠMidianites": 4774,
      "ĠShallum": 4775,
      "Ġninety": 4776,
      "Ġhunger": 4777,
      "servants": 4778,
      "Ġplucked": 4779,
      "ĠAmalekites": 4780,
      "Ġbarren": 4781,
      "ëĭ¤": 4782,
      "Ġtithes": 4783,
      "ĠBoaz": 4784,
      "Ġvoid": 4785,
      "ĠJabesh": 4786,
      "Ġbridegro": 4787,
      "Ġself": 4788,
      "Ġcontrary": 4789,
      "Ġoverflow": 4790,
      "Ġdedicated": 4791,
      "ĠGomor": 4792,
      "ĠPhinehas": 4793,
      "Ġprudent": 4794,
      "Ġwealth": 4795,
      "Ġearnest": 4796,
      "ĠMeshullam": 4797,
      "Ġacknow": 4798,
      "Ġcenturi": 4799,
      "Ġbridegroom": 4800,
      "Praise": 4801,
      "fth": 4802,
      "fast": 4803,
      "mri": 4804,
      "ook": 4805,
      "ris": 4806,
      "Ġblew": 4807,
      "Ġmus": 4808,
      "Ġmatters": 4809,
      "ont": 4810,
      "Ġpow": 4811,
      "Ġpull": 4812,
      "athe": 4813,
      "eliver": 4814,
      "othe": 4815,
      "ĠLachish": 4816,
      "Ġglean": 4817,
      "ĠEkron": 4818,
      "ĠSer": 4819,
      "ĠSis": 4820,
      "stra": 4821,
      "Ġmyr": 4822,
      "ĠHiram": 4823,
      "Ġdeb": 4824,
      "Ġdear": 4825,
      "ĠBer": 4826,
      "Ġamaz": 4827,
      "Ġconvers": 4828,
      "Ġ74": 4829,
      "Ġlovers": 4830,
      "Ġ94": 4831,
      "ĠZo": 4832,
      "ebel": 4833,
      "Ġwhereas": 4834,
      "Ġcalling": 4835,
      "ĠAbel": 4836,
      "Ġheavenly": 4837,
      "ĠAmas": 4838,
      "Ġfeeb": 4839,
      "Ġwickedly": 4840,
      "Ġbetray": 4841,
      "Ġgrown": 4842,
      "Ġquar": 4843,
      "ĠElip": 4844,
      "Ġfifteen": 4845,
      "Ġmultitudes": 4846,
      "Ġgeneal": 4847,
      "Ġsalute": 4848,
      "Ġtwelfth": 4849,
      "Ġwinds": 4850,
      "Ġabominable": 4851,
      "Ġsouthward": 4852,
      "Ġrecon": 4853,
      "ĠAssyri": 4854,
      "Ġkills": 4855,
      "Ġguide": 4856,
      "Ġrocks": 4857,
      "Ġteaching": 4858,
      "ĠAmmonites": 4859,
      "Ġdreams": 4860,
      "Ġsteadfast": 4861,
      "Ġsorrows": 4862,
      "Ġshoot": 4863,
      "Ġbaptis": 4864,
      "Ġhurried": 4865,
      "Ġclear": 4866,
      "horam": 4867,
      "ĠJezebel": 4868,
      "Ġvisited": 4869,
      "Ġacceptable": 4870,
      "Ġshields": 4871,
      "time": 4872,
      "ĠHazael": 4873,
      "Ġmarveled": 4874,
      "Ġmarvelous": 4875,
      "ĠMizpah": 4876,
      "ĠMizpeh": 4877,
      "Ġswallow": 4878,
      "Ġstirred": 4879,
      "ĠPerizz": 4880,
      "ĠCyrus": 4881,
      "Ġbasket": 4882,
      "Ġpronounce": 4883,
      "Ġequal": 4884,
      "Ġbesieged": 4885,
      "Ġancient": 4886,
      "Ġtreacherously": 4887,
      "Ġpomegranates": 4888,
      "ĠTarshish": 4889,
      "Ġprivately": 4890,
      "ĠJotham": 4891,
      "Ġestimation": 4892,
      "Ġdefend": 4893,
      "ĠMachir": 4894,
      "60": 4895,
      "An": 4896,
      "Jud": 4897,
      "Make": 4898,
      "Our": 4899,
      "Sing": 4900,
      "Whom": 4901,
      "fts": 4902,
      "mit": 4903,
      "ney": 4904,
      "ool": 4905,
      "rous": 4906,
      "tes": 4907,
      "zer": 4908,
      "ndise": 4909,
      "Ġmom": 4910,
      "Ġfraud": 4911,
      "Ġpan": 4912,
      "Ġpots": 4913,
      "hathites": 4914,
      "omi": 4915,
      "Ġshaken": 4916,
      "Ġwithd": 4917,
      "riage": 4918,
      "ĠSil": 4919,
      "ĠShu": 4920,
      "ĠPar": 4921,
      "Ġhin": 4922,
      "ĠMel": 4923,
      "ĠMah": 4924,
      "icians": 4925,
      "Ġstoned": 4926,
      "Ġbru": 4927,
      "Ġherd": 4928,
      "Ġused": 4929,
      "Ġpledge": 4930,
      "Ġnecess": 4931,
      "Ġworm": 4932,
      "Ġjub": 4933,
      "Ġ64": 4934,
      "ĠOg": 4935,
      "Ġ103": 4936,
      "eba": 4937,
      "Ġwhor": 4938,
      "ĠWill": 4939,
      "ighed": 4940,
      "ĠJehoram": 4941,
      "Ġsets": 4942,
      "Ġroof": 4943,
      "hamar": 4944,
      "Ġboast": 4945,
      "Ġconsent": 4946,
      "ĠSheb": 4947,
      "Ġcoup": 4948,
      "Ġbearing": 4949,
      "Ġtroubles": 4950,
      "Ġdefense": 4951,
      "Ġrecover": 4952,
      "Ġneighbors": 4953,
      "Ġeighteen": 4954,
      "Ġmourned": 4955,
      "Ġcompanions": 4956,
      "Ġneeds": 4957,
      "upon": 4958,
      "Ġsprings": 4959,
      "Ġvexed": 4960,
      "Ġastray": 4961,
      "Ġdiscern": 4962,
      "Ġdiscovered": 4963,
      "Ġministry": 4964,
      "Ġrequired": 4965,
      "Ġgovernors": 4966,
      "ĠZerubb": 4967,
      "Ġbitterness": 4968,
      "Ġadversary": 4969,
      "ĠTyrus": 4970,
      "Ġvirgins": 4971,
      "Ġheaps": 4972,
      "Ġlearned": 4973,
      "Ġhumble": 4974,
      "Ġthirsty": 4975,
      "Ġcarcasses": 4976,
      "Ġbrightness": 4977,
      "ĠHittites": 4978,
      "Ġinfirm": 4979,
      "ĠNabal": 4980,
      "ĠNaboth": 4981,
      "Ġconcubine": 4982,
      "Ġovercome": 4983,
      "Ġmerchandise": 4984,
      "Ġreckoned": 4985,
      "Ġpartakers": 4986,
      "Ġtaste": 4987,
      "Ġtempest": 4988,
      "Ġoccasion": 4989,
      "Ġeffect": 4990,
      "Ġbaptism": 4991,
      "Ġmoment": 4992,
      "Ġjubilee": 4993,
      "ĠZerubbabel": 4994,
      "61": 4995,
      "62": 4996,
      "Fear": 4997,
      "Whose": 4998,
      "ban": 4999,
      "cha": 5000,
      "eenth": 5001,
      "gar": 5002,
      "iam": 5003,
      "kanah": 5004,
      "tered": 5005,
      "uz": 5006,
      "wd": 5007,
      "Ġtri": 5008,
      "Ġsort": 5009,
      "Ġoak": 5010,
      "Ġorac": 5011,
      "llors": 5012,
      "Ġmasters": 5013,
      "Ġfain": 5014,
      "Ġtoken": 5015,
      "Ġdan": 5016,
      "Ġparen": 5017,
      "eless": 5018,
      "Ġlarge": 5019,
      "sellors": 5020,
      "ĠEuph": 5021,
      "ĠSu": 5022,
      "ĠSay": 5023,
      "ĠShus": 5024,
      "ĠPut": 5025,
      "Ġthereby": 5026,
      "Ġasunder": 5027,
      "icken": 5028,
      "Ġseer": 5029,
      "Ġtheirs": 5030,
      "ifer": 5031,
      "ĠDid": 5032,
      "ĠBeli": 5033,
      "ably": 5034,
      "ĠKish": 5035,
      "ĠRab": 5036,
      "ĠTob": 5037,
      "Ġtwined": 5038,
      "Ġorn": 5039,
      "Ġgreatest": 5040,
      "ĠZidon": 5041,
      "Ġ145": 5042,
      "Ġ135": 5043,
      "Ġsinner": 5044,
      "Ġbreach": 5045,
      "Ġperadventure": 5046,
      "ĠAsia": 5047,
      "Ġprophecy": 5048,
      "Ġended": 5049,
      "Ġleap": 5050,
      "Ġlewd": 5051,
      "Ġkeeper": 5052,
      "Ġkeepers": 5053,
      "aias": 5054,
      "Ġtribulation": 5055,
      "Ġhowl": 5056,
      "Ġdrinking": 5057,
      "Ġgraves": 5058,
      "Ġrested": 5059,
      "Ġmocked": 5060,
      "Ġopens": 5061,
      "Ġsixteen": 5062,
      "Ġstronger": 5063,
      "ĠJehoahaz": 5064,
      "Ġcounsellors": 5065,
      "Ġchoice": 5066,
      "Ġfarmers": 5067,
      "Ġperformed": 5068,
      "ĠIthamar": 5069,
      "Ġminded": 5070,
      "ĠNaomi": 5071,
      "Ġstrait": 5072,
      "chiah": 5073,
      "ichri": 5074,
      "Ġshoes": 5075,
      "Ġfalsely": 5076,
      "Ġdelights": 5077,
      "Ġcorruption": 5078,
      "Ġtrembled": 5079,
      "Ġastonishment": 5080,
      "Ġexecuted": 5081,
      "Ġsupplications": 5082,
      "Ġcondemned": 5083,
      "Ġlodged": 5084,
      "Ġprostitution": 5085,
      "Ġscriptures": 5086,
      "ĠAchish": 5087,
      "Ġmagnified": 5088,
      "Ġsafely": 5089,
      "ĠBethshemesh": 5090,
      "Ġapproach": 5091,
      "Ġhigher": 5092,
      "Ġunrighteousness": 5093,
      "Ġweapons": 5094,
      "Ġfault": 5095,
      "Ġmystery": 5096,
      "Ġrelease": 5097,
      "ĠAshdod": 5098,
      "Ġcenturion": 5099,
      "ĠSisera": 5100,
      "Ġamazed": 5101,
      "Ġparents": 5102,
      "ĠEuphrates": 5103,
      "ĠShushan": 5104,
      "63": 5105,
      "Cursed": 5106,
      "Having": 5107,
      "Turn": 5108,
      "com": 5109,
      "just": 5110,
      "ma": 5111,
      "mand": 5112,
      "ugh": 5113,
      "ìĭ": 5114,
      "Ġtro": 5115,
      "Ġtried": 5116,
      "Ġwin": 5117,
      "Ġfit": 5118,
      "Ġcens": 5119,
      "Ġheifer": 5120,
      "Ġbew": 5121,
      "ĠIm": 5122,
      "Ġlust": 5123,
      "ĠLy": 5124,
      "veh": 5125,
      "verb": 5126,
      "hophel": 5127,
      "eturn": 5128,
      "ĠEden": 5129,
      "Ġthereto": 5130,
      "Ġsongs": 5131,
      "teries": 5132,
      "ĠNadab": 5133,
      "Ġaloud": 5134,
      "ulent": 5135,
      "eventh": 5136,
      "Ġride": 5137,
      "Ġplayed": 5138,
      "ĠTab": 5139,
      "ĠTell": 5140,
      "olen": 5141,
      "Ġ72": 5142,
      "Ġ77": 5143,
      "isters": 5144,
      "Ġproverb": 5145,
      "Ġcommend": 5146,
      "Ġtry": 5147,
      "ĠZim": 5148,
      "Ġ147": 5149,
      "ĠWoe": 5150,
      "oughly": 5151,
      "Ġlaws": 5152,
      "Ġlaugh": 5153,
      "Ġaccursed": 5154,
      "Ġswine": 5155,
      "Ġfiery": 5156,
      "Ġshoulders": 5157,
      "Ġwhereunto": 5158,
      "Ġworking": 5159,
      "ĠAbijah": 5160,
      "Ġblam": 5161,
      "Ġunp": 5162,
      "Ġeng": 5163,
      "Ġdesir": 5164,
      "Ġdesires": 5165,
      "Ġroots": 5166,
      "Ġexam": 5167,
      "Ġflower": 5168,
      "Ġdisob": 5169,
      "achin": 5170,
      "habiah": 5171,
      "Ġtaking": 5172,
      "Ġenters": 5173,
      "ultere": 5174,
      "Ġeleventh": 5175,
      "Ġharps": 5176,
      "Ġshows": 5177,
      "Ġteacher": 5178,
      "Ġadultere": 5179,
      "ĠEliab": 5180,
      "ails": 5181,
      "Ġconfirm": 5182,
      "Ġesteem": 5183,
      "Ġelder": 5184,
      "Ġredempt": 5185,
      "neh": 5186,
      "Ġtransgressors": 5187,
      "Ġsteward": 5188,
      "ĠEsaias": 5189,
      "ophe": 5190,
      "ĠHezron": 5191,
      "Ġstrive": 5192,
      "Ġfootst": 5193,
      "Ġprisoners": 5194,
      "Ġdreamed": 5195,
      "ĠAhijah": 5196,
      "ĠAhikam": 5197,
      "Ġpasture": 5198,
      "Ġsecretly": 5199,
      "ĠObeded": 5200,
      "Ġhabitations": 5201,
      "Ġsearched": 5202,
      "Ġnamely": 5203,
      "Ġgroan": 5204,
      "Ġbeautiful": 5205,
      "Ġdoubt": 5206,
      "Ġbelongs": 5207,
      "Ġinwards": 5208,
      "ĠNethaniah": 5209,
      "Ġtorment": 5210,
      "Ġhallowed": 5211,
      "Ġwonderful": 5212,
      "Ġhypocrites": 5213,
      "Ġsimple": 5214,
      "Ġfilth": 5215,
      "ĠAhithophel": 5216,
      "Ġpersuaded": 5217,
      "Ġsubdued": 5218,
      "Ġmurderer": 5219,
      "Many": 5220,
      "Ġeunuchs": 5221,
      "Ġconversation": 5222,
      "Ġfeeble": 5223,
      "Ġfraudulent": 5224,
      "Ġredemption": 5225,
      "ĠObededom": 5226,
      "Am": 5227,
      "Listen": 5228,
      "St": 5229,
      "bar": 5230,
      "crib": 5231,
      "ege": 5232,
      "ioch": 5233,
      "kl": 5234,
      "oa": 5235,
      "tent": 5236,
      "Ġíķĺ": 5237,
      "Ġsisters": 5238,
      "Ġwither": 5239,
      "rect": 5240,
      "Ġbal": 5241,
      "Ġbone": 5242,
      "Ġbade": 5243,
      "Ġbank": 5244,
      "itess": 5245,
      "Ġdress": 5246,
      "Ġpard": 5247,
      "ising": 5248,
      "Ġnour": 5249,
      "arrow": 5250,
      "Ġlower": 5251,
      "oted": 5252,
      "Ġghost": 5253,
      "Ġforce": 5254,
      "Ġease": 5255,
      "ĠGes": 5256,
      "irt": 5257,
      "riel": 5258,
      "ĠShob": 5259,
      "stri": 5260,
      "Ġreven": 5261,
      "ĠMep": 5262,
      "Ġsever": 5263,
      "ĠJok": 5264,
      "Ġspent": 5265,
      "ĠNine": 5266,
      "Ġdeed": 5267,
      "ĠBil": 5268,
      "earim": 5269,
      "Ġdove": 5270,
      "Ġherb": 5271,
      "act": 5272,
      "Ġvowed": 5273,
      "Ġvile": 5274,
      "Ġoffense": 5275,
      "Ġring": 5276,
      "Ġrow": 5277,
      "Ġplent": 5278,
      "Ġ61": 5279,
      "Ġ116": 5280,
      "ccoth": 5281,
      "Ġhoof": 5282,
      "Ġ80": 5283,
      "Ġcommits": 5284,
      "Ġearthqu": 5285,
      "Ġblot": 5286,
      "Ġthrown": 5287,
      "Ġfold": 5288,
      "Ġunjust": 5289,
      "Ġenj": 5290,
      "ague": 5291,
      "Ġdrank": 5292,
      "Ġcasting": 5293,
      "Ġlegs": 5294,
      "Ġleague": 5295,
      "Ġmouths": 5296,
      "Ġraven": 5297,
      "Ġbetrayed": 5298,
      "Ġstandard": 5299,
      "Ġelect": 5300,
      "Ġharm": 5301,
      "Ġquicken": 5302,
      "Ġkindle": 5303,
      "Ġdarkened": 5304,
      "ĠElkanah": 5305,
      "Ġpitch": 5306,
      "ĠMoabites": 5307,
      "Ġinstruc": 5308,
      "Ġlabored": 5309,
      "Ġslayer": 5310,
      "Ġdespises": 5311,
      "chers": 5312,
      "Ġuprightness": 5313,
      "Ġfaithfulness": 5314,
      "Ġfails": 5315,
      "Ġfoolishness": 5316,
      "ĠZerah": 5317,
      "Ġdenied": 5318,
      "Ġpersecuted": 5319,
      "ĠMesha": 5320,
      "haliah": 5321,
      "Ġfloods": 5322,
      "Ġbottles": 5323,
      "Ġpurposed": 5324,
      "Ġfetched": 5325,
      "Ġoverthrow": 5326,
      "Ġstumble": 5327,
      "Ġstumbling": 5328,
      "Ġkiss": 5329,
      "Ġpotter": 5330,
      "Ġperverse": 5331,
      "Ġmagnify": 5332,
      "Ġsafety": 5333,
      "Ġmedit": 5334,
      "Ġascended": 5335,
      "Ġmurmur": 5336,
      "Ġmurmured": 5337,
      "Ġoften": 5338,
      "Ġdescended": 5339,
      "Ġdragon": 5340,
      "Ġenvy": 5341,
      "ĠArab": 5342,
      "Ġquestion": 5343,
      "Ġspeedily": 5344,
      "Ġtumult": 5345,
      "ĠAholi": 5346,
      "Ġconspired": 5347,
      "Ġcovetousness": 5348,
      "ĠGaza": 5349,
      "ĠRamothgilead": 5350,
      "Ġcalamity": 5351,
      "Ġbefall": 5352,
      "ĠAntioch": 5353,
      "ĠGomorrah": 5354,
      "Ġmusic": 5355,
      "Ġwhoring": 5356,
      "ĠSuccoth": 5357,
      "Ġinstructed": 5358,
      "64": 5359,
      "Con": 5360,
      "Deliver": 5361,
      "Look": 5362,
      "Oh": 5363,
      "Out": 5364,
      "Those": 5365,
      "after": 5366,
      "ble": 5367,
      "fit": 5368,
      "jearim": 5369,
      "lit": 5370,
      "land": 5371,
      "mite": 5372,
      "rison": 5373,
      "uce": 5374,
      "will": 5375,
      "ê³": 5376,
      "hest": 5377,
      "inims": 5378,
      "Ġbase": 5379,
      "Ġbathe": 5380,
      "Ġcy": 5381,
      "Ġcries": 5382,
      "onite": 5383,
      "edience": 5384,
      "Ġder": 5385,
      "Ġdishon": 5386,
      "Ġhed": 5387,
      "Ġheir": 5388,
      "athite": 5389,
      "Ġbearer": 5390,
      "ushi": 5391,
      "leep": 5392,
      "rice": 5393,
      "keh": 5394,
      "Ġreach": 5395,
      "Ġhunt": 5396,
      "ĠMen": 5397,
      "though": 5398,
      "Ġfrank": 5399,
      "Ġstorm": 5400,
      "Ġstubb": 5401,
      "Ġmanna": 5402,
      "ĠNeth": 5403,
      "ĠIsraelites": 5404,
      "ĠHore": 5405,
      "Ġherbs": 5406,
      "Ġconce": 5407,
      "Ġconso": 5408,
      "cken": 5409,
      "ĠRec": 5410,
      "Ġ53": 5411,
      "ĠTeman": 5412,
      "geon": 5413,
      "ĠOmri": 5414,
      "Ġ115": 5415,
      "Ġ83": 5416,
      "Ġ88": 5417,
      "Ġ132": 5418,
      "Ġcold": 5419,
      "Ġcock": 5420,
      "Ġwhomsoever": 5421,
      "Ġturning": 5422,
      "area": 5423,
      "agon": 5424,
      "hama": 5425,
      "Ġpraying": 5426,
      "Ġslaves": 5427,
      "idden": 5428,
      "ocks": 5429,
      "Ġrage": 5430,
      "Ġdrinks": 5431,
      "Ġyoungest": 5432,
      "Ġnights": 5433,
      "ĠShel": 5434,
      "Ġburns": 5435,
      "Ġfamiliar": 5436,
      "Ġwages": 5437,
      "Ġfifteenth": 5438,
      "Ġlays": 5439,
      "Ġcurses": 5440,
      "Ġbackward": 5441,
      "Ġcourses": 5442,
      "ĠMicaiah": 5443,
      "ĠMichal": 5444,
      "ĠManoah": 5445,
      "Ġbreaking": 5446,
      "hazzar": 5447,
      "Ġmarriage": 5448,
      "Ġreprove": 5449,
      "Ġfastened": 5450,
      "Ġstricken": 5451,
      "Ġlabors": 5452,
      "Ġpresented": 5453,
      "ĠBaalim": 5454,
      "Ġsounded": 5455,
      "Ġsorrowful": 5456,
      "Ġmaidens": 5457,
      "Ġhanging": 5458,
      "Ġhangings": 5459,
      "Ġapostle": 5460,
      "Ġbasins": 5461,
      "Ġnecks": 5462,
      "Ġgrove": 5463,
      "ĠUzziel": 5464,
      "Ġkidney": 5465,
      "ĠHazor": 5466,
      "ĠHaran": 5467,
      "Ġcommuned": 5468,
      "ĠEthiopia": 5469,
      "Ġignorance": 5470,
      "Rejoice": 5471,
      "ĠKeilah": 5472,
      "Ġboughs": 5473,
      "ĠTHE": 5474,
      "ĠTirzah": 5475,
      "ĠKirjathjearim": 5476,
      "ĠSeraiah": 5477,
      "ĠPerizzites": 5478,
      "Ġblameless": 5479,
      "ĠNineveh": 5480,
      "Ġstubble": 5481,
      "ĠNethinims": 5482,
      "Ġkidneys": 5483,
      "65": 5484,
      "Her": 5485,
      "Sh": 5486,
      "Sal": 5487,
      "cah": 5488,
      "cense": 5489,
      "der": 5490,
      "don": 5491,
      "eep": 5492,
      "gr": 5493,
      "mo": 5494,
      "ni": 5495,
      "rh": 5496,
      "tled": 5497,
      "uish": 5498,
      "uals": 5499,
      "Ġur": 5500,
      "ĠYet": 5501,
      "incense": 5502,
      "haiah": 5503,
      "Ġbid": 5504,
      "Ġbows": 5505,
      "Ġcro": 5506,
      "Ġcasts": 5507,
      "Ġdiff": 5508,
      "Ġhewn": 5509,
      "isions": 5510,
      "Ġnarrow": 5511,
      "hathite": 5512,
      "aring": 5513,
      "omer": 5514,
      "ĠIz": 5515,
      "ĠJap": 5516,
      "Ġwithheld": 5517,
      "rach": 5518,
      "ĠEvery": 5519,
      "ĠAro": 5520,
      "Ġreli": 5521,
      "ĠMag": 5522,
      "ility": 5523,
      "Ġspit": 5524,
      "Ġweighed": 5525,
      "Ġdog": 5526,
      "Ġshot": 5527,
      "Ġattend": 5528,
      "Ġplow": 5529,
      "Ġtwice": 5530,
      "epart": 5531,
      "ĠOh": 5532,
      "Ġ86": 5533,
      "Ġ90": 5534,
      "oths": 5535,
      "othful": 5536,
      "Ġputting": 5537,
      "Ġbuck": 5538,
      "ĠAbig": 5539,
      "Ġdwellings": 5540,
      "ĠAmram": 5541,
      "Ġpertained": 5542,
      "Ġens": 5543,
      "Ġprevent": 5544,
      "Ġexerc": 5545,
      "Ġanguish": 5546,
      "arers": 5547,
      "obah": 5548,
      "Ġslave": 5549,
      "Ġboard": 5550,
      "Ġuncle": 5551,
      "Ġuncovered": 5552,
      "Ġcompl": 5553,
      "Ġsiege": 5554,
      "Ġlonger": 5555,
      "Ġpurcha": 5556,
      "Ġhidden": 5557,
      "ĠJehoash": 5558,
      "Ġdread": 5559,
      "ĠElah": 5560,
      "Ġcharger": 5561,
      "Ġuttered": 5562,
      "Ġhatred": 5563,
      "Ġestate": 5564,
      "Ġdivisions": 5565,
      "Ġclothe": 5566,
      "Ġstature": 5567,
      "Ġbowl": 5568,
      "ĠEphesus": 5569,
      "Ġgathers": 5570,
      "Ġbreaks": 5571,
      "Ġreproof": 5572,
      "Ġfatness": 5573,
      "Ġfasting": 5574,
      "Ġstripes": 5575,
      "Ġhusbands": 5576,
      "Ġcompanies": 5577,
      "ĠShim": 5578,
      "Before": 5579,
      "ĠAsahel": 5580,
      "ĠAnath": 5581,
      "Ġshore": 5582,
      "Ġmaidservant": 5583,
      "Ġwatchman": 5584,
      "Ġrejoices": 5585,
      "Ġfreewill": 5586,
      "Ġpunished": 5587,
      "Ġprosperity": 5588,
      "ĠNahor": 5589,
      "Ġhealth": 5590,
      "Ġleper": 5591,
      "Ġtowers": 5592,
      "ĠSarai": 5593,
      "Ġthreshold": 5594,
      "ĠEliashib": 5595,
      "Seeing": 5596,
      "Ġtrusts": 5597,
      "urious": 5598,
      "ĠCaesarea": 5599,
      "Ġtorn": 5600,
      "Ġmelt": 5601,
      "Ġflowers": 5602,
      "Ġvoices": 5603,
      "tieth": 5604,
      "Ġhappy": 5605,
      "Ġsticks": 5606,
      "Ġconcubines": 5607,
      "Ġignorant": 5608,
      "Ġfilthy": 5609,
      "ĠKadesh": 5610,
      "Ġfortress": 5611,
      "ĠAthaliah": 5612,
      "Ġvictuals": 5613,
      "Ġsubject": 5614,
      "ĠElishama": 5615,
      "ĠLibnah": 5616,
      "Ġfellowship": 5617,
      "ĠMaachah": 5618,
      "Ġdepths": 5619,
      "Ġovertake": 5620,
      "Ġbacksl": 5621,
      "ĠNaaman": 5622,
      "Ġkinsman": 5623,
      "Ġpublicans": 5624,
      "Ġfreely": 5625,
      "Ġfirmament": 5626,
      "Ġacknowledge": 5627,
      "otheus": 5628,
      "Ġmyrrh": 5629,
      "Ġoracle": 5630,
      "ĠBelial": 5631,
      "Ġlewdness": 5632,
      "Ġengra": 5633,
      "Ġcymb": 5634,
      "Ġfrankincense": 5635,
      "ĠHoreb": 5636,
      "ĠRechab": 5637,
      "ĠAroer": 5638,
      "ĠAbigail": 5639,
      "66": 5640,
      "Keep": 5641,
      "aum": 5642,
      "dal": 5643,
      "leness": 5644,
      "nas": 5645,
      "rings": 5646,
      "rown": 5647,
      "rite": 5648,
      "rors": 5649,
      "sk": 5650,
      "uah": 5651,
      "ê²": 5652,
      "ĠV": 5653,
      "Ġill": 5654,
      "ĺëĭ": 5655,
      "hether": 5656,
      "Ġsurn": 5657,
      "ince": 5658,
      "Ġwing": 5659,
      "Ġwra": 5660,
      "haim": 5661,
      "reb": 5662,
      "erity": 5663,
      "eries": 5664,
      "eroth": 5665,
      "Ġmill": 5666,
      "Ġda": 5667,
      "Ġinv": 5668,
      "Ġinte": 5669,
      "arch": 5670,
      "Ġbeard": 5671,
      "Ġhaught": 5672,
      "Ġsav": 5673,
      "ushed": 5674,
      "Ġforces": 5675,
      "Ġisland": 5676,
      "irmed": 5677,
      "ĠEg": 5678,
      "ĠEven": 5679,
      "ĠSpeak": 5680,
      "ĠSadd": 5681,
      "Ġwasted": 5682,
      "Ġund": 5683,
      "Ġasleep": 5684,
      "ĠCap": 5685,
      "Ġcomely": 5686,
      "Ġstuff": 5687,
      "Ġthieves": 5688,
      "Ġspears": 5689,
      "Ġoutward": 5690,
      "immon": 5691,
      "umm": 5692,
      "Ġali": 5693,
      "ĠHeth": 5694,
      "ĠHeman": 5695,
      "ansom": 5696,
      "Ġagre": 5697,
      "aker": 5698,
      "Ġrows": 5699,
      "Ġransom": 5700,
      "ĠRimmon": 5701,
      "ement": 5702,
      "Ġsoever": 5703,
      "ĠTurn": 5704,
      "Ġovers": 5705,
      "Ġlocus": 5706,
      "Ġ81": 5707,
      "Ġ91": 5708,
      "aleel": 5709,
      "ĠWith": 5710,
      "Ġaccord": 5711,
      "ĠJehiel": 5712,
      "Ġarrow": 5713,
      "ĠAmon": 5714,
      "Ġanswers": 5715,
      "ernaum": 5716,
      "Ġpriesthood": 5717,
      "Ġslow": 5718,
      "Ġslothful": 5719,
      "taroth": 5720,
      "Ġbloody": 5721,
      "Ġlend": 5722,
      "Ġparables": 5723,
      "ruct": 5724,
      "Ġhighway": 5725,
      "Ġhowever": 5726,
      "ffering": 5727,
      "Ġpreserved": 5728,
      "Ġsigh": 5729,
      "Ġwars": 5730,
      "Ġdeliverance": 5731,
      "Ġsixty": 5732,
      "Ġteaches": 5733,
      "Ġhides": 5734,
      "ĠTimotheus": 5735,
      "Ġobtain": 5736,
      "Ġobedient": 5737,
      "Ġdevices": 5738,
      "ifying": 5739,
      "Ġwindow": 5740,
      "Ġsevent": 5741,
      "Ġsuffic": 5742,
      "Ġrebel": 5743,
      "Ġskill": 5744,
      "Ġrefres": 5745,
      "ĠEsht": 5746,
      "Ġportions": 5747,
      "Ġminds": 5748,
      "suffering": 5749,
      "Ġreserved": 5750,
      "Ġstraw": 5751,
      "shakeh": 5752,
      "ĠAhimelech": 5753,
      "Ġacqu": 5754,
      "ĠReubenites": 5755,
      "Ġbases": 5756,
      "Ġcandle": 5757,
      "Ġnether": 5758,
      "Ġtemptation": 5759,
      "Ġsepulchers": 5760,
      "Ġseemed": 5761,
      "Ġoverthrown": 5762,
      "Ġaccuse": 5763,
      "Ġexpect": 5764,
      "Ġblasphemed": 5765,
      "ĠJephun": 5766,
      "Ġcheer": 5767,
      "Ġwounds": 5768,
      "ĠStand": 5769,
      "Ġwander": 5770,
      "Ġroaring": 5771,
      "Ġproclaimed": 5772,
      "Ġdragons": 5773,
      "Ġabhorred": 5774,
      "Ġevid": 5775,
      "Ġenlar": 5776,
      "ĠĠĠĠĠĠĠĠĠĠĠĠĠĠĠĠ": 5777,
      "Ġpublish": 5778,
      "Ġavenged": 5779,
      "Ġcapitals": 5780,
      "Ġrenew": 5781,
      "Ġconvocation": 5782,
      "ĠZiba": 5783,
      "Ġquenched": 5784,
      "Ġzeal": 5785,
      "Ġunbelief": 5786,
      "ĠHivites": 5787,
      "Ġconsidered": 5788,
      "Ġearnestly": 5789,
      "Ġdebt": 5790,
      "ĠAmasa": 5791,
      "ĠRabshakeh": 5792,
      "Ġfootstool": 5793,
      "Ġfilthiness": 5794,
      "Ġearthquake": 5795,
      "grity": 5796,
      "Ġcymbals": 5797,
      "ĺëĭĺ": 5798,
      "Ġintegrity": 5799,
      "ĠCapernaum": 5800,
      "Ġlocusts": 5801,
      "ĠJephunneh": 5802,
      "Ab": 5803,
      "Paul": 5804,
      "Until": 5805,
      "ahath": 5806,
      "cerning": 5807,
      "fer": 5808,
      "fold": 5809,
      "ked": 5810,
      "la": 5811,
      "moth": 5812,
      "nan": 5813,
      "nced": 5814,
      "ogy": 5815,
      "rother": 5816,
      "same": 5817,
      "tax": 5818,
      "uous": 5819,
      "uzar": 5820,
      "zabad": 5821,
      "ëĤ": 5822,
      "ìĹ": 5823,
      "ĬĶ": 5824,
      "Ġavenge": 5825,
      "Ġsed": 5826,
      "Ġsli": 5827,
      "Ġsows": 5828,
      "Ġwreat": 5829,
      "Ġwide": 5830,
      "rep": 5831,
      "rets": 5832,
      "Ġbab": 5833,
      "erxes": 5834,
      "Ġmire": 5835,
      "Ġcolt": 5836,
      "Ġcatch": 5837,
      "edne": 5838,
      "Ġduk": 5839,
      "Ġhinder": 5840,
      "Ġpet": 5841,
      "Ġpound": 5842,
      "Ġpatter": 5843,
      "Ġnest": 5844,
      "Ġbeam": 5845,
      "ĠLazar": 5846,
      "idonians": 5847,
      "Ġsailed": 5848,
      "let": 5849,
      "amed": 5850,
      "ĠGer": 5851,
      "ĠGos": 5852,
      "iriam": 5853,
      "Ġkin": 5854,
      "rained": 5855,
      "ĠPas": 5856,
      "Ġreins": 5857,
      "ĠMil": 5858,
      "ĠMiriam": 5859,
      "Ġstar": 5860,
      "Ġstam": 5861,
      "Ġwheel": 5862,
      "ification": 5863,
      "Ġdeaf": 5864,
      "Ġweeks": 5865,
      "ĠBy": 5866,
      "ĠBapt": 5867,
      "ĠBez": 5868,
      "ĠBani": 5869,
      "Ġoffers": 5870,
      "osh": 5871,
      "ĠRez": 5872,
      "Ġnoon": 5873,
      "Ġnostri": 5874,
      "Ġplenty": 5875,
      "Ġsoft": 5876,
      "Ġwhore": 5877,
      "aved": 5878,
      "Ġproved": 5879,
      "Ġbecomes": 5880,
      "Ġoverse": 5881,
      "Ġlocks": 5882,
      "Ġ92": 5883,
      "ppers": 5884,
      "ĠJerubb": 5885,
      "lives": 5886,
      "Ġ144": 5887,
      "Ġlaver": 5888,
      "quet": 5889,
      "ĠAbedne": 5890,
      "Ġbreaches": 5891,
      "Ġarches": 5892,
      "Ġbeholding": 5893,
      "ĠAmariah": 5894,
      "Ġflatter": 5895,
      "Ġscor": 5896,
      "areah": 5897,
      "meel": 5898,
      "Ġclose": 5899,
      "Ġboil": 5900,
      "Ġthirteen": 5901,
      "ĠHeber": 5902,
      "aioth": 5903,
      "Ġentry": 5904,
      "Ġrepair": 5905,
      "Ġfalling": 5906,
      "Ġcart": 5907,
      "Ġconsul": 5908,
      "Ġgodly": 5909,
      "Ġgodliness": 5910,
      "Ġwailing": 5911,
      "Ġcontempt": 5912,
      "Ġopenly": 5913,
      "Ġpossible": 5914,
      "Ġfollows": 5915,
      "Ġshowing": 5916,
      "ĠEliakim": 5917,
      "ĠEliezer": 5918,
      "Ġsends": 5919,
      "Ġbuilders": 5920,
      "Ġdevise": 5921,
      "aanah": 5922,
      "Ġreproached": 5923,
      "hadrach": 5924,
      "Ġincreases": 5925,
      "ĠNebuzar": 5926,
      "Ġfasted": 5927,
      "Ġlabore": 5928,
      "Ġesp": 5929,
      "Ġprisoner": 5930,
      "Ġrode": 5931,
      "Ġrods": 5932,
      "Ġtrespassed": 5933,
      "ĠBethan": 5934,
      "ĠHanan": 5935,
      "Ġfavored": 5936,
      "Ġwondered": 5937,
      "Ġsnares": 5938,
      "Ġhairs": 5939,
      "Ġregion": 5940,
      "Ġregards": 5941,
      "Ġvisitation": 5942,
      "ĠHagar": 5943,
      "Ġflourish": 5944,
      "ĠIshb": 5945,
      "Ġinterpre": 5946,
      "Ġchamberl": 5947,
      "Ġmagicians": 5948,
      "Ġsojournes": 5949,
      "Ġshouting": 5950,
      "Ġbottle": 5951,
      "Ġdiligent": 5952,
      "Ġuncircumcision": 5953,
      "Ġmirth": 5954,
      "Ġpatient": 5955,
      "Ġbrooks": 5956,
      "ĠJahaz": 5957,
      "ĠKohathites": 5958,
      "Ġprofaned": 5959,
      "Ġoverlay": 5960,
      "Ġfountains": 5961,
      "Does": 5962,
      "Ġpressed": 5963,
      "Ġhallow": 5964,
      "cepter": 5965,
      "Ġfingers": 5966,
      "Ġstopped": 5967,
      "ĠHashabiah": 5968,
      "Ġoccup": 5969,
      "ĠZikl": 5970,
      "Ġbaskets": 5971,
      "Ġshortly": 5972,
      "Ġdisease": 5973,
      "Ġproceed": 5974,
      "ĠAhitub": 5975,
      "hibosheth": 5976,
      "Ġgranted": 5977,
      "ĠThough": 5978,
      "Ġdimin": 5979,
      "Ġbanquet": 5980,
      "Ġbrimstone": 5981,
      "ĠMichael": 5982,
      "Ġselfsame": 5983,
      "ĠEliphaz": 5984,
      "Ġgenealogy": 5985,
      "ĠTobiah": 5986,
      "Ġwinter": 5987,
      "ĠZimri": 5988,
      "Ġpardon": 5989,
      "ĠMephibosheth": 5990,
      "Ġenjoy": 5991,
      "ĠMeshach": 5992,
      "Ġderision": 5993,
      "Ġconsolation": 5994,
      "ĠAnathoth": 5995,
      "taxerxes": 5996,
      "Ġdukes": 5997,
      "Ġpattern": 5998,
      "ĠLazarus": 5999,
      "ĠGoshen": 6000,
      "ĠBaptist": 6001,
      "Ġnostrils": 6002,
      "ĠAbednego": 6003,
      "ĠNebuzaradan": 6004,
      "ĠZiklag": 6005,
      "Lord": 6006,
      "Lift": 6007,
      "Save": 6008,
      "chis": 6009,
      "day": 6010,
      "gah": 6011,
      "ix": 6012,
      "ius": 6013,
      "lo": 6014,
      "more": 6015,
      "night": 6016,
      "side": 6017,
      "wo": 6018,
      "wake": 6019,
      "zur": 6020,
      "ëĬĶ": 6021,
      "Ġĉ": 6022,
      "Ġscepter": 6023,
      "ining": 6024,
      "Ġwag": 6025,
      "hant": 6026,
      "rer": 6027,
      "Ġbag": 6028,
      "Ġbidden": 6029,
      "hich": 6030,
      "Ġmove": 6031,
      "oroughly": 6032,
      "edan": 6033,
      "edah": 6034,
      "Ġpsalm": 6035,
      "Ġpals": 6036,
      "ater": 6037,
      "Ġnur": 6038,
      "arc": 6039,
      "arah": 6040,
      "arry": 6041,
      "Ġham": 6042,
      "Ġshave": 6043,
      "ĠJE": 6044,
      "Ġgrows": 6045,
      "uty": 6046,
      "uthun": 6047,
      "Ġsafe": 6048,
      "lemiah": 6049,
      "Ġeas": 6050,
      "aments": 6051,
      "verty": 6052,
      "alt": 6053,
      "rain": 6054,
      "ĠEr": 6055,
      "ĠSan": 6056,
      "ĠShes": 6057,
      "ĠShun": 6058,
      "ĠSidon": 6059,
      "ĠShadrach": 6060,
      "Ġreaches": 6061,
      "Ġwhip": 6062,
      "rovers": 6063,
      "uring": 6064,
      "Ġthund": 6065,
      "Ġthoroughly": 6066,
      "Ġstate": 6067,
      "Ġstiff": 6068,
      "Ġstolen": 6069,
      "Ġbrid": 6070,
      "ĠDib": 6071,
      "Ġspies": 6072,
      "imes": 6073,
      "Ġalms": 6074,
      "Ġago": 6075,
      "Ġhouseto": 6076,
      "Ġhandful": 6077,
      "Ġconver": 6078,
      "Ġconceive": 6079,
      "umber": 6080,
      "osing": 6081,
      "Ġliver": 6082,
      "atted": 6083,
      "Ġplaced": 6084,
      "Ġsober": 6085,
      "ĠTek": 6086,
      "haneel": 6087,
      "ĠOp": 6088,
      "ĠOr": 6089,
      "ĠZel": 6090,
      "ĠMattaniah": 6091,
      "Ġ148": 6092,
      "Ġcoats": 6093,
      "Ġburi": 6094,
      "Ġdelic": 6095,
      "Ġchaff": 6096,
      "Ġpertain": 6097,
      "Ġunw": 6098,
      "Ġfirstling": 6099,
      "Ġflies": 6100,
      "Ġscale": 6101,
      "Ġleavened": 6102,
      "Ġdestroying": 6103,
      "Ġpoverty": 6104,
      "Ġoldest": 6105,
      "Ġcontrovers": 6106,
      "Ġseeking": 6107,
      "spring": 6108,
      "eware": 6109,
      "ildo": 6110,
      "Ġpurged": 6111,
      "Ġsurety": 6112,
      "Ġwisely": 6113,
      "Ġsending": 6114,
      "onsider": 6115,
      "ĠEphr": 6116,
      "Ġtestament": 6117,
      "ĠArtaxerxes": 6118,
      "hazi": 6119,
      "hadd": 6120,
      "ĠCanaanite": 6121,
      "ĠBethhor": 6122,
      "Ġremaining": 6123,
      "Ġspreads": 6124,
      "Ġforesk": 6125,
      "Ġoppressor": 6126,
      "Ġsupper": 6127,
      "ĠAhima": 6128,
      "Ġassemble": 6129,
      "ĠBarak": 6130,
      "Ġrewarded": 6131,
      "Ġruin": 6132,
      "Ġrules": 6133,
      "ĠAlas": 6134,
      "ĠGadites": 6135,
      "ĠChaldees": 6136,
      "ĠMahan": 6137,
      "ĠAmorite": 6138,
      "Ġwondrous": 6139,
      "Ġleads": 6140,
      "Ġcorrupted": 6141,
      "Ġwool": 6142,
      "Ġfalsehood": 6143,
      "Ġenchant": 6144,
      "Ġdistrib": 6145,
      "ĠHermon": 6146,
      "ĠMeshe": 6147,
      "Ġhealing": 6148,
      "Ġtalent": 6149,
      "Ġreveren": 6150,
      "Ġshouted": 6151,
      "Ġcreeps": 6152,
      "hash": 6153,
      "Ġdrop": 6154,
      "Ġadded": 6155,
      "Ġbestowed": 6156,
      "Ġaccused": 6157,
      "Ġpurify": 6158,
      "Ġblasphemy": 6159,
      "Ġë§": 6160,
      "ĠHadad": 6161,
      "Ġfrogs": 6162,
      "ĠJebusite": 6163,
      "ĠGershom": 6164,
      "Ġtithe": 6165,
      "Ġaccomplish": 6166,
      "Ġconsecrated": 6167,
      "Ġsorry": 6168,
      "Ġpronounced": 6169,
      "Knowing": 6170,
      "ĠGreeks": 6171,
      "Ġimagination": 6172,
      "Ġbadgers": 6173,
      "ĠJeduthun": 6174,
      "ddo": 6175,
      "Ġevildo": 6176,
      "Ġwearied": 6177,
      "Ġquestions": 6178,
      "Ġsubjection": 6179,
      "Ġcolor": 6180,
      "ĠMedes": 6181,
      "Ġvexation": 6182,
      "ĠHushai": 6183,
      "Ġpsalteries": 6184,
      "ĠBela": 6185,
      "Ġfashion": 6186,
      "Ġmidnight": 6187,
      "ĠDebir": 6188,
      "Ġpowers": 6189,
      "Ġornaments": 6190,
      "Ġbeware": 6191,
      "Ġteachers": 6192,
      "ĠAholib": 6193,
      "ucees": 6194,
      "Ġcrooked": 6195,
      "Ġwrapped": 6196,
      "ĠSadducees": 6197,
      "Ġexpectation": 6198,
      "ĠJerubbaal": 6199,
      "ĠBethhoron": 6200,
      "ĠAhimaaz": 6201,
      "67": 6202,
      "Bless": 6203,
      "Com": 6204,
      "David": 6205,
      "Has": 6206,
      "IN": 6207,
      "LORD": 6208,
      "Six": 6209,
      "ahab": 6210,
      "cing": 6211,
      "cust": 6212,
      "hum": 6213,
      "king": 6214,
      "ns": 6215,
      "pan": 6216,
      "pents": 6217,
      "rough": 6218,
      "ura": 6219,
      "uck": 6220,
      "Ġiv": 6221,
      "Ĳì": 6222,
      "Ġtear": 6223,
      "hea": 6224,
      "Ġax": 6225,
      "Ġsom": 6226,
      "Ġoven": 6227,
      "Ġwol": 6228,
      "hara": 6229,
      "Ġbaked": 6230,
      "Ġmi": 6231,
      "Ġcake": 6232,
      "onor": 6233,
      "enai": 6234,
      "Ġdun": 6235,
      "Ġnets": 6236,
      "aned": 6237,
      "Ġbere": 6238,
      "ĠIth": 6239,
      "ĠIddo": 6240,
      "ĠJah": 6241,
      "uting": 6242,
      "utation": 6243,
      "Ġsad": 6244,
      "use": 6245,
      "aming": 6246,
      "ĠGe": 6247,
      "ĠGol": 6248,
      "ĠGitt": 6249,
      "ĠGezer": 6250,
      "ĠGrace": 6251,
      "verse": 6252,
      "erence": 6253,
      "ĠSit": 6254,
      "ĠSir": 6255,
      "ĠSend": 6256,
      "ĠSenn": 6257,
      "Ġmeal": 6258,
      "ural": 6259,
      "Ġthrice": 6260,
      "ĠMich": 6261,
      "ander": 6262,
      "ĠCall": 6263,
      "ĠJoppa": 6264,
      "Ġwhel": 6265,
      "Ġmantle": 6266,
      "Ġmanservant": 6267,
      "ĠDagon": 6268,
      "Ġalm": 6269,
      "Ġuphold": 6270,
      "ĠHinn": 6271,
      "Ġweek": 6272,
      "ĠBere": 6273,
      "estus": 6274,
      "acy": 6275,
      "ĠKareah": 6276,
      "sop": 6277,
      "Ġkneel": 6278,
      "ĠRib": 6279,
      "Ġliar": 6280,
      "assad": 6281,
      "Ġabs": 6282,
      "Ġplants": 6283,
      "Ġserpents": 6284,
      "Ġ79": 6285,
      "ĠOlives": 6286,
      "Ġ108": 6287,
      "Ġhole": 6288,
      "ĠAndrew": 6289,
      "Ġloops": 6290,
      "Ġ85": 6291,
      "Ġ96": 6292,
      "pphi": 6293,
      "Ġ140": 6294,
      "ĠWhom": 6295,
      "Ġlaug": 6296,
      "quare": 6297,
      "ĠProp": 6298,
      "Ġfierc": 6299,
      "Ġcommands": 6300,
      "ĠAbinadab": 6301,
      "Ġmightier": 6302,
      "Ġblast": 6303,
      "ĠAmoz": 6304,
      "Ġchain": 6305,
      "Ġchased": 6306,
      "Ġgiants": 6307,
      "Ġsmites": 6308,
      "Ġowner": 6309,
      "Ġext": 6310,
      "Ġotherwise": 6311,
      "ĠAsk": 6312,
      "Ġbetr": 6313,
      "azer": 6314,
      "ĠFestus": 6315,
      "ortal": 6316,
      "Ġfearful": 6317,
      "Ġcarved": 6318,
      "Ġcarpent": 6319,
      "Ġreigns": 6320,
      "Ġlights": 6321,
      "Ġlighted": 6322,
      "ĠShephat": 6323,
      "Ġdelivers": 6324,
      "Ġfully": 6325,
      "itude": 6326,
      "Ġlamp": 6327,
      "Ġpossessions": 6328,
      "Ġsubmit": 6329,
      "Ġpurge": 6330,
      "Ġconfirmed": 6331,
      "Ġgarrison": 6332,
      "ĠEphron": 6333,
      "Ġvinegar": 6334,
      "Ġruled": 6335,
      "Ġinstruct": 6336,
      "Ġcounselor": 6337,
      "Ġguilt": 6338,
      "ĠNebo": 6339,
      "Ġstripped": 6340,
      "ĠHamor": 6341,
      "Ġcompanion": 6342,
      "Ġpromises": 6343,
      "Ġafflictions": 6344,
      "Ġabundant": 6345,
      "Ġvanities": 6346,
      "ĠEdomites": 6347,
      "Ġshook": 6348,
      "ĠPharisee": 6349,
      "Ġprospered": 6350,
      "Ġdiscover": 6351,
      "ĠHannah": 6352,
      "ĠObed": 6353,
      "anks": 6354,
      "acherib": 6355,
      "Through": 6356,
      "Ġprofitable": 6357,
      "Ġheaviness": 6358,
      "Ġerror": 6359,
      "Ġcandlesticks": 6360,
      "Ġfornic": 6361,
      "ĠNetop": 6362,
      "ĠNethaneel": 6363,
      "artha": 6364,
      "Ġmelted": 6365,
      "Ġstoop": 6366,
      "Ġconsecrate": 6367,
      "ĠEthiopians": 6368,
      "ĠAmminadab": 6369,
      "Ġdiseases": 6370,
      "Ġnatural": 6371,
      "Ġhighest": 6372,
      "ĠJedaiah": 6373,
      "Ġboldly": 6374,
      "Ġbehalf": 6375,
      "Ġhewed": 6376,
      "ĠAgag": 6377,
      "Ġmeekness": 6378,
      "Ġcapital": 6379,
      "Ġturban": 6380,
      "Ġpsaltery": 6381,
      "Ġstrove": 6382,
      "ĠRemaliah": 6383,
      "Ġinclined": 6384,
      "ĠRabbah": 6385,
      "Ġmortar": 6386,
      "ission": 6387,
      "Ġambassad": 6388,
      "Ġrobbed": 6389,
      "ĠAssyrian": 6390,
      "ĠSilas": 6391,
      "Ġtroop": 6392,
      "Ġdisobedient": 6393,
      "ĠGeshur": 6394,
      "Ġmeditate": 6395,
      "Concerning": 6396,
      "Salute": 6397,
      "ĠMagdal": 6398,
      "ĠEglon": 6399,
      "Ġalien": 6400,
      "Ġsufficient": 6401,
      "Ġpetition": 6402,
      "ĠPashur": 6403,
      "Ġconsulted": 6404,
      "Ġpalsy": 6405,
      "ĠOphir": 6406,
      "Ġburial": 6407,
      "Ġcontroversy": 6408,
      "ĠMahanaim": 6409,
      "Ġreverence": 6410,
      "Ġivory": 6411,
      "Ġdungeon": 6412,
      "ĠSennacherib": 6413,
      "ĠMichm": 6414,
      "ĠHinnom": 6415,
      "Ġlaughed": 6416,
      "68": 6417,
      "Bet": 6418,
      "Brother": 6419,
      "Did": 6420,
      "El": 6421,
      "Jo": 6422,
      "baal": 6423,
      "fty": 6424,
      "fare": 6425,
      "gidd": 6426,
      "iles": 6427,
      "iation": 6428,
      "kk": 6429,
      "oves": 6430,
      "ssop": 6431,
      "tai": 6432,
      "vels": 6433,
      "yx": 6434,
      "zill": 6435,
      "·¸": 6436,
      "ìľ": 6437,
      "Ġaud": 6438,
      "iners": 6439,
      "hari": 6440,
      "Ġbount": 6441,
      "erves": 6442,
      "Ġmain": 6443,
      "Ġmist": 6444,
      "Ġtooth": 6445,
      "Ġchew": 6446,
      "oniah": 6447,
      "Ġheirs": 6448,
      "Ġhind": 6449,
      "Ġphy": 6450,
      "Ġbeams": 6451,
      "oman": 6452,
      "elon": 6453,
      "eloved": 6454,
      "ĠJas": 6455,
      "ĠJet": 6456,
      "ĠLame": 6457,
      "ĠListen": 6458,
      "Ġgnas": 6459,
      "Ġsaving": 6460,
      "Ġsadd": 6461,
      "Ġsapphi": 6462,
      "ody": 6463,
      "Ġhiss": 6464,
      "ĠGeba": 6465,
      "rippa": 6466,
      "alon": 6467,
      "ĠEber": 6468,
      "ĠPen": 6469,
      "ĠAfter": 6470,
      "adah": 6471,
      "ĠMi": 6472,
      "ĠMartha": 6473,
      "Ġunt": 6474,
      "Ġassu": 6475,
      "ĠDel": 6476,
      "Ġspy": 6477,
      "Ġspared": 6478,
      "ĠNep": 6479,
      "ĠNazar": 6480,
      "ume": 6481,
      "umph": 6482,
      "Ġweaned": 6483,
      "Ġdoves": 6484,
      "Ġvines": 6485,
      "Ġoffspring": 6486,
      "sol": 6487,
      "Ġrum": 6488,
      "ckled": 6489,
      "ĠRise": 6490,
      "ĠReturn": 6491,
      "Ġnose": 6492,
      "Ġsole": 6493,
      "elled": 6494,
      "Ġearrings": 6495,
      "Ġ76": 6496,
      "geons": 6497,
      "ĠExcept": 6498,
      "Ġlobe": 6499,
      "Ġlocust": 6500,
      "Ġ84": 6501,
      "Ġservile": 6502,
      "Ġ97": 6503,
      "ĠZab": 6504,
      "ĠZalm": 6505,
      "ĠZichri": 6506,
      "eches": 6507,
      "hub": 6508,
      "Ġpassing": 6509,
      "Ġ143": 6510,
      "Ġdirect": 6511,
      "Ġworkmen": 6512,
      "Ġwatered": 6513,
      "Ġwatched": 6514,
      "Ġspoon": 6515,
      "Ġspoons": 6516,
      "Ġarchers": 6517,
      "Ġunaw": 6518,
      "unna": 6519,
      "Ġprepar": 6520,
      "Ġbeget": 6521,
      "Ġbegun": 6522,
      "Ġflows": 6523,
      "arezer": 6524,
      "Ġclo": 6525,
      "Ġfailed": 6526,
      "Ġparted": 6527,
      "Ġreported": 6528,
      "ĠPharez": 6529,
      "Ġgrape": 6530,
      "Ġadmon": 6531,
      "ĠTimn": 6532,
      "Ġobedience": 6533,
      "Ġcursing": 6534,
      "Ġdevised": 6535,
      "Ġpitcher": 6536,
      "ĠJonas": 6537,
      "ĠJonadab": 6538,
      "Ġpierc": 6539,
      "Ġcamel": 6540,
      "Ġdivination": 6541,
      "Ġreproaches": 6542,
      "Ġcounsels": 6543,
      "Ġskirt": 6544,
      "Ġdraws": 6545,
      "opard": 6546,
      "Ġstrike": 6547,
      "Ġmourns": 6548,
      "Ġfootmen": 6549,
      "Ġstream": 6550,
      "Ġstreams": 6551,
      "Ġsickle": 6552,
      "Ġdeparting": 6553,
      "Ġforef": 6554,
      "Ġperfection": 6555,
      "Ġterrors": 6556,
      "Ġtrespasses": 6557,
      "ĠBarzill": 6558,
      "ĠAnah": 6559,
      "ĠAnani": 6560,
      "Ġgreet": 6561,
      "Ġuprightly": 6562,
      "ĠZebed": 6563,
      "ĠZebah": 6564,
      "Ġcreatures": 6565,
      "Ġwatchmen": 6566,
      "Ġreasoned": 6567,
      "Ġdelighted": 6568,
      "Ġfoolishly": 6569,
      "Ġdamn": 6570,
      "ĠSyrian": 6571,
      "Ġofficer": 6572,
      "Ġgardens": 6573,
      "Ġsojourned": 6574,
      "abbas": 6575,
      "Ġerred": 6576,
      "Ġhyssop": 6577,
      "Ġoverthrew": 6578,
      "Ġchasten": 6579,
      "Ġbelonged": 6580,
      "Ġpurified": 6581,
      "Ġpurifying": 6582,
      "Ġcrucify": 6583,
      "ĠHadarezer": 6584,
      "Ġencamp": 6585,
      "ĠAcha": 6586,
      "Ġrolled": 6587,
      "Ġflowing": 6588,
      "Ġmaker": 6589,
      "Ġhappened": 6590,
      "ĠEnoch": 6591,
      "Ġwaxen": 6592,
      "Ġsimil": 6593,
      "ĠGreek": 6594,
      "ĠAbihu": 6595,
      "Ġimagine": 6596,
      "Ġcondemnation": 6597,
      "Ġseasons": 6598,
      "Ġnature": 6599,
      "Ġê·¸": 6600,
      "Ġvictory": 6601,
      "Ġmerchant": 6602,
      "Ġbriers": 6603,
      "Ġcolors": 6604,
      "ĠAgrippa": 6605,
      "Ġrobber": 6606,
      "ĠMegidd": 6607,
      "Ġaccounted": 6608,
      "ĠKedar": 6609,
      "ollow": 6610,
      "Ġstroke": 6611,
      "Ġincline": 6612,
      "Ġmules": 6613,
      "ĠJabeshgilead": 6614,
      "Ġcoupled": 6615,
      "Ġinfirmities": 6616,
      "Ġtriumph": 6617,
      "Ġfainted": 6618,
      "Ġcenser": 6619,
      "ĠíķĺëĤ": 6620,
      "Ġseveral": 6621,
      "Ġplenteous": 6622,
      "Ġdishonor": 6623,
      "Ġdifference": 6624,
      "Ġbacksliding": 6625,
      "Ġacquaint": 6626,
      "repare": 6627,
      "ĠOrnan": 6628,
      "Ġevildoers": 6629,
      "ĠGehazi": 6630,
      "Ġfierceness": 6631,
      "ĠShephatiah": 6632,
      "ĠMagdalene": 6633,
      "Better": 6634,
      "Brothers": 6635,
      "Ġaudience": 6636,
      "ĠLamech": 6637,
      "ĠZalmunna": 6638,
      "Ġunawares": 6639,
      "ĠBarzillai": 6640,
      "ĠíķĺëĤĺëĭĺ": 6641,
      "69": 6642,
      "70": 6643,
      "Awake": 6644,
      "Bring": 6645,
      "Ex": 6646,
      "Eph": 6647,
      "Great": 6648,
      "Grace": 6649,
      "Here": 6650,
      "Je": 6651,
      "Men": 6652,
      "Pro": 6653,
      "Send": 6654,
      "Seven": 6655,
      "aws": 6656,
      "but": 6657,
      "cur": 6658,
      "chan": 6659,
      "cari": 6660,
      "di": 6661,
      "gad": 6662,
      "ium": 6663,
      "ially": 6664,
      "lers": 6665,
      "lies": 6666,
      "mave": 6667,
      "ration": 6668,
      "urim": 6669,
      "work": 6670,
      "zeb": 6671,
      "ìł": 6672,
      "Ġtale": 6673,
      "heme": 6674,
      "Ġsowed": 6675,
      "Ġod": 6676,
      "inoam": 6677,
      "Ġwants": 6678,
      "oura": 6679,
      "Ġben": 6680,
      "Ġborrow": 6681,
      "Ġbush": 6682,
      "hill": 6683,
      "Ġmoth": 6684,
      "Ġfatted": 6685,
      "Ġtops": 6686,
      "orts": 6687,
      "itions": 6688,
      "Ġcud": 6689,
      "ony": 6690,
      "edec": 6691,
      "Ġintent": 6692,
      "Ġpins": 6693,
      "Ġpenn": 6694,
      "isher": 6695,
      "ists": 6696,
      "isdom": 6697,
      "ang": 6698,
      "anna": 6699,
      "Ġbell": 6700,
      "Ġhal": 6701,
      "Ġlent": 6702,
      "Ġlev": 6703,
      "othite": 6704,
      "asing": 6705,
      "ĠJeth": 6706,
      "ĠJazer": 6707,
      "idron": 6708,
      "utish": 6709,
      "Ġere": 6710,
      "Ġwiz": 6711,
      "ĠPekah": 6712,
      "ĠPadan": 6713,
      "Ġreeds": 6714,
      "ades": 6715,
      "Ġhomer": 6716,
      "ĠIscari": 6717,
      "Ġseats": 6718,
      "Ġstep": 6719,
      "Ġstink": 6720,
      "Ġbrutish": 6721,
      "ĠDin": 6722,
      "ĠDepart": 6723,
      "udah": 6724,
      "ĠNot": 6725,
      "Ġalike": 6726,
      "ĠHod": 6727,
      "ĠHep": 6728,
      "Ġdemand": 6729,
      "took": 6730,
      "allat": 6731,
      "Ġhandle": 6732,
      "ĠKidron": 6733,
      "oking": 6734,
      "Ġrid": 6735,
      "Ġshining": 6736,
      "emuel": 6737,
      "ĠThom": 6738,
      "ĠTerah": 6739,
      "olk": 6740,
      "Ġripe": 6741,
      "avel": 6742,
      "ĠOur": 6743,
      "Ġholes": 6744,
      "Ġhoped": 6745,
      "Ġ95": 6746,
      "ĠZin": 6747,
      "ĠZobah": 6748,
      "ecl": 6749,
      "ecially": 6750,
      "ĠJerah": 6751,
      "hesy": 6752,
      "Ġcop": 6753,
      "Ġcost": 6754,
      "Ġswell": 6755,
      "Ġswears": 6756,
      "ĠAbiram": 6757,
      "Ġmightily": 6758,
      "ĠJeiel": 6759,
      "Ġarrayed": 6760,
      "Ġblock": 6761,
      "Ġspeckled": 6762,
      "ubal": 6763,
      "Ġsentence": 6764,
      "unished": 6765,
      "igned": 6766,
      "Ġprecept": 6767,
      "Ġexper": 6768,
      "Ġflax": 6769,
      "Ġscales": 6770,
      "Ġdissol": 6771,
      "Ġclosed": 6772,
      "Ġslumber": 6773,
      "Ġleaf": 6774,
      "Ġthirteenth": 6775,
      "Ġkeeping": 6776,
      "rung": 6777,
      "ullam": 6778,
      "Ġentrance": 6779,
      "ortion": 6780,
      "Ġblessings": 6781,
      "ething": 6782,
      "Ġcarnal": 6783,
      "Ġmoons": 6784,
      "ĠShelah": 6785,
      "Ġwarn": 6786,
      "Ġwaits": 6787,
      "Ġsang": 6788,
      "Ġwells": 6789,
      "Ġlaying": 6790,
      "Ġunderstands": 6791,
      "Ġasks": 6792,
      "Ġutmost": 6793,
      "Ġdesolations": 6794,
      "ĠGog": 6795,
      "Ġdivor": 6796,
      "Ġdivine": 6797,
      "Ġhelm": 6798,
      "Ġjustify": 6799,
      "Ġprovision": 6800,
      "Ġforgave": 6801,
      "ĠAram": 6802,
      "Ġgathering": 6803,
      "Ġmeasuring": 6804,
      "Ġrecovered": 6805,
      "Ġsignet": 6806,
      "Ġeighteenth": 6807,
      "ĠEsh": 6808,
      "Ġguile": 6809,
      "ĠAdullam": 6810,
      "Ġidle": 6811,
      "Ġprofess": 6812,
      "Ġgrind": 6813,
      "Ġidolat": 6814,
      "Ġresist": 6815,
      "Being": 6816,
      "Ġcorrection": 6817,
      "Ġjourneys": 6818,
      "ĠBarabbas": 6819,
      "Ġrewards": 6820,
      "Ġruns": 6821,
      "ĠHanun": 6822,
      "ĠHanani": 6823,
      "Ġpastures": 6824,
      "Ġplainly": 6825,
      "Ġintercess": 6826,
      "Ġstraightly": 6827,
      "Ġvirt": 6828,
      "Afterward": 6829,
      "Ġobserved": 6830,
      "ĠUzzi": 6831,
      "Ġdecre": 6832,
      "Ġafterwards": 6833,
      "Ġpollute": 6834,
      "Ġdeceitfully": 6835,
      "Ġlowest": 6836,
      "ĠMerib": 6837,
      "Ġsatisfy": 6838,
      "Ġfetters": 6839,
      "ĠAshtaroth": 6840,
      "Ġlamented": 6841,
      "Ġfinish": 6842,
      "Ġblaspheme": 6843,
      "Ġmarket": 6844,
      "Ġbracel": 6845,
      "ĠJair": 6846,
      "Ġdistressed": 6847,
      "Ġcareful": 6848,
      "ĠBoz": 6849,
      "Ġlacked": 6850,
      "Ġhypocrite": 6851,
      "Ġdispers": 6852,
      "Ġovercomes": 6853,
      "ĠAmmi": 6854,
      "Ġscorner": 6855,
      "Ġflying": 6856,
      "Ġspotted": 6857,
      "Ġproceeds": 6858,
      "Ġbesiege": 6859,
      "ĠKenaz": 6860,
      "Ġpublished": 6861,
      "Ġmurderers": 6862,
      "ĠShamm": 6863,
      "Ġrobes": 6864,
      "Ġconspir": 6865,
      "Ġcraft": 6866,
      "ĠApoll": 6867,
      "Ġrenown": 6868,
      "ĠHuram": 6869,
      "ĠKedesh": 6870,
      "ĠZachari": 6871,
      "ĠEbed": 6872,
      "Ġquench": 6873,
      "appy": 6874,
      "Ġmorsel": 6875,
      "Ġrobbers": 6876,
      "ĠUrijah": 6877,
      "Ġtradition": 6878,
      "Ġoverflowing": 6879,
      "Ġreconcil": 6880,
      "Ġdefended": 6881,
      "ĠParan": 6882,
      "ĠMelchis": 6883,
      "ĠMahli": 6884,
      "Ġunpunished": 6885,
      "Ġdesiring": 6886,
      "Ġesteemed": 6887,
      "ophehad": 6888,
      "ĠBilhah": 6889,
      "ĠShelom": 6890,
      "ĠIzhar": 6891,
      "ĠJapheth": 6892,
      "Ġbuckler": 6893,
      "Ġexercise": 6894,
      "Ġoversight": 6895,
      "Ġenlarged": 6896,
      "ìĹĲ": 6897,
      "ĠMilcah": 6898,
      "ĠRezin": 6899,
      "Ġscorp": 6900,
      "Ġlaborers": 6901,
      "ĠBethany": 6902,
      "ĠIshbosheth": 6903,
      "Ġinterpreted": 6904,
      "ĠZelophehad": 6905,
      "ĠRiblah": 6906,
      "Ġabsent": 6907,
      "ìľ¼": 6908,
      "Ġmaintain": 6909,
      "Ġphys": 6910,
      "ĠAnanias": 6911,
      "Ġdamnation": 6912,
      "ĠAchaia": 6913,
      "Ġsimilitude": 6914,
      "ĠMegiddo": 6915,
      "Ġacquaintance": 6916,
      "Ephraim": 6917,
      "maveth": 6918,
      "zebub": 6919,
      "ouraged": 6920,
      "Ġpenny": 6921,
      "ĠIscariot": 6922,
      "ĠThomas": 6923,
      "ĠZacharias": 6924,
      "71": 6925,
      "Bes": 6926,
      "Beloved": 6927,
      "Cast": 6928,
      "Consider": 6929,
      "Him": 6930,
      "Hold": 6931,
      "Put": 6932,
      "Peter": 6933,
      "Set": 6934,
      "Some": 6935,
      "Tr": 6936,
      "Two": 6937,
      "Wisdom": 6938,
      "ballat": 6939,
      "eg": 6940,
      "jalon": 6941,
      "judah": 6942,
      "kn": 6943,
      "ker": 6944,
      "lam": 6945,
      "lst": 6946,
      "much": 6947,
      "oham": 6948,
      "ss": 6949,
      "uries": 6950,
      "vah": 6951,
      "vings": 6952,
      "wed": 6953,
      "xad": 6954,
      "ze": 6955,
      "Ġven": 6956,
      "Ĥ¬": 6957,
      "Ġtail": 6958,
      "Ġtamb": 6959,
      "hek": 6960,
      "het": 6961,
      "hend": 6962,
      "Ġsust": 6963,
      "Ġwre": 6964,
      "reet": 6965,
      "rehend": 6966,
      "ouse": 6967,
      "Ġbake": 6968,
      "erable": 6969,
      "Ġmal": 6970,
      "Ġfer": 6971,
      "Ġcares": 6972,
      "Ġcurious": 6973,
      "Ġdet": 6974,
      "Ġpen": 6975,
      "Ġpom": 6976,
      "Ġpil": 6977,
      "Ġpott": 6978,
      "ishadd": 6979,
      "ators": 6980,
      "Ġnails": 6981,
      "aram": 6982,
      "arted": 6983,
      "arne": 6984,
      "omfit": 6985,
      "Ġlil": 6986,
      "Ġlake": 6987,
      "Ġloss": 6988,
      "Ġlick": 6989,
      "othed": 6990,
      "asps": 6991,
      "Ġgained": 6992,
      "ushing": 6993,
      "lex": 6994,
      "Ġew": 6995,
      "amre": 6996,
      "amah": 6997,
      "ĠGather": 6998,
      "Ġonyx": 6999,
      "Ġnotwithstanding": 7000,
      "Ġwithstand": 7001,
      "ethe": 7002,
      "ĠEd": 7003,
      "ĠEhud": 7004,
      "ĠSho": 7005,
      "ĠSet": 7006,
      "ĠSep": 7007,
      "Ġrevil": 7008,
      "Ġreared": 7009,
      "Ġwashing": 7010,
      "Ġwastes": 7011,
      "urther": 7012,
      "ĠMill": 7013,
      "ĠMamre": 7014,
      "thing": 7015,
      "ĠChi": 7016,
      "ĠCast": 7017,
      "ĠCorn": 7018,
      "ĠCushi": 7019,
      "venient": 7020,
      "ĠJoah": 7021,
      "ife": 7022,
      "ĠDathan": 7023,
      "ĠDedan": 7024,
      "Ġsplit": 7025,
      "ime": 7026,
      "Ġalarm": 7027,
      "Ġalmost": 7028,
      "Ġpear": 7029,
      "ĠHis": 7030,
      "ront": 7031,
      "Ġweigh": 7032,
      "ĠBaths": 7033,
      "Ġhearted": 7034,
      "ption": 7035,
      "Ġvom": 7036,
      "Ġvint": 7037,
      "athers": 7038,
      "Ġconstra": 7039,
      "Ġconvenient": 7040,
      "Ġbeforetime": 7041,
      "Ġmenservants": 7042,
      "Ġrotten": 7043,
      "Ġriding": 7044,
      "Ġattained": 7045,
      "ĠRahab": 7046,
      "Ġliers": 7047,
      "ĠJuda": 7048,
      "ĠTah": 7049,
      "ĠTro": 7050,
      "ĠTubal": 7051,
      "Ġearthen": 7052,
      "Ġ75": 7053,
      "Ġsup": 7054,
      "Ġ111": 7055,
      "Ġ112": 7056,
      "Ġovertook": 7057,
      "ĠZur": 7058,
      "ĠZidonians": 7059,
      "pping": 7060,
      "ĠJeroham": 7061,
      "arks": 7062,
      "Ġ141": 7063,
      "Ġ146": 7064,
      "Ġdip": 7065,
      "Ġdipped": 7066,
      "Ġworkman": 7067,
      "efully": 7068,
      "phrah": 7069,
      "Ġsettle": 7070,
      "Ġlifts": 7071,
      "Ġglass": 7072,
      "Ġremission": 7073,
      "unah": 7074,
      "Ġexact": 7075,
      "Ġclasps": 7076,
      "Ġburst": 7077,
      "Ġsling": 7078,
      "Ġfounded": 7079,
      "ĠNeither": 7080,
      "Ġfamous": 7081,
      "Ġpeaceably": 7082,
      "Ġhighways": 7083,
      "Ġpresents": 7084,
      "retch": 7085,
      "ĠShelemiah": 7086,
      "Ġwarned": 7087,
      "Ġcouple": 7088,
      "peor": 7089,
      "Ġsecrets": 7090,
      "Ġkinds": 7091,
      "Ġkindly": 7092,
      "Ġhereafter": 7093,
      "Ġdevice": 7094,
      "Ġaffright": 7095,
      "Ġpigeons": 7096,
      "ĠReuel": 7097,
      "Ġdivides": 7098,
      "Ġfinding": 7099,
      "Ġhonest": 7100,
      "Ġhonors": 7101,
      "ĠUz": 7102,
      "ĠArpha": 7103,
      "Ġreproved": 7104,
      "Ġhelper": 7105,
      "Ġbulls": 7106,
      "ĠBethuel": 7107,
      "ĠAdar": 7108,
      "Ġmindful": 7109,
      "ĠBeer": 7110,
      "ĠBeor": 7111,
      "ĠSamarit": 7112,
      "Ġredeemer": 7113,
      "Ġtreasuries": 7114,
      "ashti": 7115,
      "Ġceases": 7116,
      "Ġappears": 7117,
      "Ġbeds": 7118,
      "Ġsufferings": 7119,
      "Ġshoe": 7120,
      "Ġgreed": 7121,
      "Ġmaidservants": 7122,
      "Ġdiscomfit": 7123,
      "Ġhastens": 7124,
      "Ġdevours": 7125,
      "ĠMahal": 7126,
      "Ġvillage": 7127,
      "Ġcrowns": 7128,
      "Ġscatters": 7129,
      "Ġviolent": 7130,
      "Ġviolently": 7131,
      "Ġbaptize": 7132,
      "Ġsacks": 7133,
      "elius": 7134,
      "Ġgrassho": 7135,
      "Ġpours": 7136,
      "ĠUzza": 7137,
      "Ġnetwork": 7138,
      "Ġadversity": 7139,
      "Israel": 7140,
      "Ġmagist": 7141,
      "ìĿĦ": 7142,
      "ìĿĺ": 7143,
      "Ġdiligence": 7144,
      "Ġrecompensed": 7145,
      "ĠHarim": 7146,
      "Ġstairs": 7147,
      "Ġmanifested": 7148,
      "ĠBethlehemjudah": 7149,
      "Ġcleansing": 7150,
      "Ġaccusation": 7151,
      "Ġchastise": 7152,
      "Ġexpress": 7153,
      "Ġtreads": 7154,
      "eshbarne": 7155,
      "Ġquietness": 7156,
      "Ġpervert": 7157,
      "ĠStep": 7158,
      "ĠStretch": 7159,
      "Ġwandered": 7160,
      "Ġdedication": 7161,
      "ĠZipp": 7162,
      "ĠZiph": 7163,
      "Ġmiracle": 7164,
      "ĠKadeshbarne": 7165,
      "Ġequity": 7166,
      "Ġpersuade": 7167,
      "Ġboldness": 7168,
      "Ġbrick": 7169,
      "Ġreckon": 7170,
      "Ġancients": 7171,
      "Ġpomegranate": 7172,
      "ĠNeriah": 7173,
      "Ġexhortation": 7174,
      "Ġturtled": 7175,
      "Ġbirthright": 7176,
      "Ġzealous": 7177,
      "ĠCheret": 7178,
      "ĠBeltes": 7179,
      "ĠHoshea": 7180,
      "Ġowl": 7181,
      "Ġmidw": 7182,
      "ĠDeborah": 7183,
      "Ġpersecution": 7184,
      "ĠBeriah": 7185,
      "ĠZoar": 7186,
      "ĠAssyrians": 7187,
      "Ġsteadfastly": 7188,
      "Ġnecessity": 7189,
      "Ġcoupling": 7190,
      "Ġinfirmity": 7191,
      "ĠImmer": 7192,
      "ĠTabor": 7193,
      "Ġbalances": 7194,
      "Ġnourished": 7195,
      "ê³ł": 7196,
      "ĠVashti": 7197,
      "Ġhaughty": 7198,
      "Ġseventeen": 7199,
      "Ġrefreshed": 7200,
      "Ġwreathen": 7201,
      "ĠGerar": 7202,
      "Ġnurse": 7203,
      "altiel": 7204,
      "ĠSanballat": 7205,
      "Ġthunders": 7206,
      "Ġenchantments": 7207,
      "Ġmixed": 7208,
      "Ġwhelps": 7209,
      "Ġalmond": 7210,
      "ĠBerechiah": 7211,
      "Ġguiltless": 7212,
      "Ġsaddled": 7213,
      "Ġrumor": 7214,
      "Ġforefront": 7215,
      "ĠZebedee": 7216,
      "ĠJethro": 7217,
      "ĠPadanaram": 7218,
      "eclare": 7219,
      "Ġbracelets": 7220,
      "Ġdispersed": 7221,
      "ĠAmmihud": 7222,
      "Ġconspiracy": 7223,
      "ĠApollos": 7224,
      "Ġtambour": 7225,
      "Ġwrest": 7226,
      "ishaddai": 7227,
      "Ġlilies": 7228,
      "urthermore": 7229,
      "ĠMillo": 7230,
      "ĠCornelius": 7231,
      "Ġvintage": 7232,
      "ĠArphaxad": 7233,
      "ĠKadeshbarnea": 7234,
      "ĠBelteshazzar": 7235,
      "Beware": 7236,
      "Dan": 7237,
      "Furthermore": 7238,
      "Gather": 7239,
      "Happy": 7240,
      "Nor": 7241,
      "None": 7242,
      "Pilate": 7243,
      "Simon": 7244,
      "Since": 7245,
      "Te": 7246,
      "Tell": 7247,
      "Till": 7248,
      "Whether": 7249,
      "beth": 7250,
      "ding": 7251,
      "eis": 7252,
      "eus": 7253,
      "eek": 7254,
      "kelon": 7255,
      "lay": 7256,
      "lud": 7257,
      "miel": 7258,
      "mity": 7259,
      "niel": 7260,
      "nai": 7261,
      "onder": 7262,
      "pill": 7263,
      "rink": 7264,
      "sh": 7265,
      "shon": 7266,
      "tles": 7267,
      "ui": 7268,
      "uously": 7269,
      "vely": 7270,
      "wood": 7271,
      "worm": 7272,
      "¸ì": 7273,
      "ë¦": 7274,
      "ëĵ": 7275,
      "ìħ": 7276,
      "ĶĢ": 7277,
      "ŀĲ": 7278,
      "Ġtas": 7279,
      "Ġtip": 7280,
      "Ġwont": 7281,
      "hak": 7282,
      "rel": 7283,
      "Ġbul": 7284,
      "Ġbill": 7285,
      "Ġbaths": 7286,
      "hia": 7287,
      "llow": 7288,
      "Ġmat": 7289,
      "Ġfan": 7290,
      "Ġfret": 7291,
      "Ġfisher": 7292,
      "orrupt": 7293,
      "ited": 7294,
      "itish": 7295,
      "itute": 7296,
      "ithiah": 7297,
      "Ġcald": 7298,
      "Ġcater": 7299,
      "ences": 7300,
      "Ġdared": 7301,
      "Ġdens": 7302,
      "Ġhem": 7303,
      "Ġintend": 7304,
      "Ġpush": 7305,
      "athah": 7306,
      "Ġnaught": 7307,
      "Ġnail": 7308,
      "Ġbend": 7309,
      "eled": 7310,
      "elid": 7311,
      "asons": 7312,
      "asmuch": 7313,
      "ĠJec": 7314,
      "ĠJachin": 7315,
      "ĠLike": 7316,
      "Ġgent": 7317,
      "Ġgets": 7318,
      "Ġsail": 7319,
      "lech": 7320,
      "Ġeg": 7321,
      "amation": 7322,
      "ĠGam": 7323,
      "ĠGaal": 7324,
      "ĠGera": 7325,
      "Ġissu": 7326,
      "Ġwithhold": 7327,
      "almon": 7328,
      "ĠEng": 7329,
      "ĠElon": 7330,
      "ĠSion": 7331,
      "ĠSab": 7332,
      "ĠSeth": 7333,
      "ĠSib": 7334,
      "ĠPed": 7335,
      "ĠAlex": 7336,
      "rog": 7337,
      "rolo": 7338,
      "Ġthin": 7339,
      "Ġthumb": 7340,
      "ĠMisha": 7341,
      "ĠMakk": 7342,
      "Ġthereunto": 7343,
      "icia": 7344,
      "ĠChen": 7345,
      "ĠCai": 7346,
      "ĠChem": 7347,
      "ĠCursed": 7348,
      "Ġseethe": 7349,
      "ĠJozabad": 7350,
      "Ġstru": 7351,
      "Ġstirs": 7352,
      "Ġstocks": 7353,
      "ilight": 7354,
      "ifully": 7355,
      "ĠDor": 7356,
      "ĠDod": 7357,
      "Ġspan": 7358,
      "terday": 7359,
      "imoth": 7360,
      "Ġalthough": 7361,
      "ĠHen": 7362,
      "ĠHat": 7363,
      "ĠHav": 7364,
      "ĠHorm": 7365,
      "Ġdegre": 7366,
      "Ġbutter": 7367,
      "ĠBu": 7368,
      "ĠBig": 7369,
      "ĠBaanah": 7370,
      "Ġaged": 7371,
      "abeth": 7372,
      "Ġvale": 7373,
      "ouses": 7374,
      "Ġriddle": 7375,
      "Ġshines": 7376,
      "Ġshined": 7377,
      "Ġknops": 7378,
      "ĠRome": 7379,
      "Ġabiding": 7380,
      "ourner": 7381,
      "Ġnecked": 7382,
      "ĠTel": 7383,
      "ĠTophe": 7384,
      "Ġworth": 7385,
      "Ġserves": 7386,
      "adezer": 7387,
      "Ġsheaves": 7388,
      "Ġsheaf": 7389,
      "ola": 7390,
      "Ġtwilight": 7391,
      "avan": 7392,
      "Ġproverbs": 7393,
      "ĠOF": 7394,
      "Ġ113": 7395,
      "Ġhollow": 7396,
      "Ġ98": 7397,
      "Ġ99": 7398,
      "ĠJobab": 7399,
      "ppim": 7400,
      "Ġ149": 7401,
      "ĠWell": 7402,
      "ĠWhose": 7403,
      "ĠWrite": 7404,
      "ĠWoman": 7405,
      "Ġ137": 7406,
      "Ġ122": 7407,
      "Ġyearly": 7408,
      "Ġwhereupon": 7409,
      "avement": 7410,
      "eful": 7411,
      "Ġbloss": 7412,
      "Ġfeel": 7413,
      "Ġfever": 7414,
      "Ġfeeding": 7415,
      "Ġthrow": 7416,
      "swer": 7417,
      "Ġperishes": 7418,
      "Ġsmo": 7419,
      "Ġunic": 7420,
      "Ġencl": 7421,
      "Ġeyelid": 7422,
      "Ġevils": 7423,
      "Ġflaming": 7424,
      "Ġdisgu": 7425,
      "Ġdrought": 7426,
      "Ġcastle": 7427,
      "Ġslack": 7428,
      "Ġboasting": 7429,
      "Ġbooths": 7430,
      "Ġthirtieth": 7431,
      "Ġparched": 7432,
      "aphas": 7433,
      "Ġrained": 7434,
      "Ġpoint": 7435,
      "Ġpoison": 7436,
      "ossible": 7437,
      "Ġrepay": 7438,
      "ĠFeli": 7439,
      "ĠFollow": 7440,
      "Ġsilent": 7441,
      "Ġincorrupt": 7442,
      "retion": 7443,
      "Ġtemples": 7444,
      "ĠShealtiel": 7445,
      "Ġwarm": 7446,
      "Ġwarp": 7447,
      "Ġwarred": 7448,
      "Ġhart": 7449,
      "Ġcontention": 7450,
      "Ġdeliverer": 7451,
      "Ġcouch": 7452,
      "Ġshowers": 7453,
      "Ġpraising": 7454,
      "ĠElihu": 7455,
      "Ġlonged": 7456,
      "Ġsubtle": 7457,
      "Ġwitch": 7458,
      "Ġsaluted": 7459,
      "Ġobeis": 7460,
      "Ġbuilds": 7461,
      "Ġdevout": 7462,
      "Ġutters": 7463,
      "Ġspoils": 7464,
      "Ġspoiler": 7465,
      "Ġhonored": 7466,
      "Ġthrones": 7467,
      "Ġprovided": 7468,
      "ĠUp": 7469,
      "Ġforgot": 7470,
      "Ġdefiles": 7471,
      "ĠAdaiah": 7472,
      "Ġcruse": 7473,
      "ĠNahash": 7474,
      "Ġcovert": 7475,
      "Ġneedlew": 7476,
      "ĠAmmonite": 7477,
      "ukk": 7478,
      "Ġtreasury": 7479,
      "Ġflees": 7480,
      "Ġterrif": 7481,
      "ĠGileadite": 7482,
      "Ġfleece": 7483,
      "Ġministering": 7484,
      "ĠAnak": 7485,
      "ĠAnakim": 7486,
      "Ġshovels": 7487,
      "ĠAlpha": 7488,
      "Ġtravel": 7489,
      "Ġmaids": 7490,
      "Ġlifting": 7491,
      "ĠJehoiachin": 7492,
      "Ġexalts": 7493,
      "Ġastrolo": 7494,
      "Ġchance": 7495,
      "Ġchanges": 7496,
      "ĠZebadiah": 7497,
      "Ġhasty": 7498,
      "Ġhasten": 7499,
      "Ġrequite": 7500,
      "Ġsnared": 7501,
      "Ġsnuff": 7502,
      "Ġtalking": 7503,
      "ĠMalchi": 7504,
      "ĠMalchiah": 7505,
      "Ġdeeper": 7506,
      "Whatever": 7507,
      "Ġrebellion": 7508,
      "Ġwoof": 7509,
      "ĠNahshon": 7510,
      "Ġbitterly": 7511,
      "Wherein": 7512,
      "Ġrefuses": 7513,
      "Ġhoneycom": 7514,
      "Ġhungered": 7515,
      "formed": 7516,
      "Ġpuff": 7517,
      "Ġposterity": 7518,
      "Ġlearning": 7519,
      "Ġbinds": 7520,
      "Ġproudly": 7521,
      "Ġreapers": 7522,
      "Ġbestow": 7523,
      "Ġexpired": 7524,
      "Against": 7525,
      "Ġproclamation": 7526,
      "ĠHadadezer": 7527,
      "Ġfoursquare": 7528,
      "Ġcheek": 7529,
      "Ġmurder": 7530,
      "Ġregarded": 7531,
      "Ġrecorder": 7532,
      "Ġvirginity": 7533,
      "ĠPeradventure": 7534,
      "Ġconsecration": 7535,
      "Ġmedd": 7536,
      "Ġsharpen": 7537,
      "Ġsorce": 7538,
      "Ġrevelation": 7539,
      "Ġimpossible": 7540,
      "uffer": 7541,
      "Ġshortened": 7542,
      "ĠRedeem": 7543,
      "Ġproceeded": 7544,
      "Ġeagles": 7545,
      "ĠAraunah": 7546,
      "Ġhireling": 7547,
      "Ġenlarge": 7548,
      "Ġtreacherous": 7549,
      "Ġbehaved": 7550,
      "ĠElisabeth": 7551,
      "Ġmadness": 7552,
      "Ġpartaker": 7553,
      "Ġavenger": 7554,
      "Ġhewers": 7555,
      "ĠGershonites": 7556,
      "Ġcrafts": 7557,
      "ĠPelet": 7558,
      "ĠAphek": 7559,
      "Ġadvice": 7560,
      "ĠHivite": 7561,
      "Ġprolonged": 7562,
      "Ġconsiders": 7563,
      "Ġmule": 7564,
      "Ġambush": 7565,
      "Ġquarters": 7566,
      "Judah": 7567,
      "Ġpangs": 7568,
      "Ġwithdraw": 7569,
      "Ġbruised": 7570,
      "Ġnecessary": 7571,
      "ĠShebna": 7572,
      "ìĭľ": 7573,
      "ìĭł": 7574,
      "Ġadulterers": 7575,
      "Ġgroaning": 7576,
      "Among": 7577,
      "cribe": 7578,
      "ĠShobal": 7579,
      "Ġmurmurings": 7580,
      "Ġhedge": 7581,
      "Should": 7582,
      "Ġensign": 7583,
      "Ġprevented": 7584,
      "Ġpurchased": 7585,
      "Ġdreadful": 7586,
      "ê²ĥ": 7587,
      "Ġmillstone": 7588,
      "Ġdaub": 7589,
      "Ġbabes": 7590,
      "Ġstamped": 7591,
      "ĠBezaleel": 7592,
      "Ġchamberlains": 7593,
      "Ġdiminish": 7594,
      "Ġwagons": 7595,
      "Ġbridle": 7596,
      "ĠDibon": 7597,
      "Ġconverted": 7598,
      "Ġforeskin": 7599,
      "Ġë§Ĳì": 7600,
      "Command": 7601,
      "ĠProphesy": 7602,
      "Ġbetrothed": 7603,
      "Ġcarpenters": 7604,
      "ĠMichmash": 7605,
      "Ġmistress": 7606,
      "Ġsapphire": 7607,
      "Ġassured": 7608,
      "ĠNazarite": 7609,
      "Ġpreparation": 7610,
      "ĠTimnath": 7611,
      "Jeho": 7612,
      "Ġbenef": 7613,
      "Ġwizards": 7614,
      "Ġstepped": 7615,
      "ĠHepher": 7616,
      "ĠJerahmeel": 7617,
      "Ġcopy": 7618,
      "Ġintercession": 7619,
      "ĠBozrah": 7620,
      "ĠMelchisedec": 7621,
      "ĠShelomith": 7622,
      "Ġscorpions": 7623,
      "ìľ¼ë": 7624,
      "Beside": 7625,
      "Ġfervent": 7626,
      "ĠBathsheba": 7627,
      "Ġaffrighted": 7628,
      "Ġdiscomfited": 7629,
      "ĠCherethites": 7630,
      "Teach": 7631,
      "Ġtask": 7632,
      "Ġcaldron": 7633,
      "Ġcaterpill": 7634,
      "ĠMakkedah": 7635,
      "ĠCaiaphas": 7636,
      "ĠHormah": 7637,
      "Ġdegrees": 7638,
      "ĠTophet": 7639,
      "Ġblossom": 7640,
      "Ġeyelids": 7641,
      "ĠFelix": 7642,
      "Ġobeisance": 7643,
      "Ġneedlework": 7644,
      "ĠAnakims": 7645,
      "Ġhoneycomb": 7646,
      "Ġë§ĲìĶĢ": 7647,
      "72": 7648,
      "Both": 7649,
      "Duke": 7650,
      "Honor": 7651,
      "Open": 7652,
      "Return": 7653,
      "Seek": 7654,
      "Watch": 7655,
      "ahem": 7656,
      "airs": 7657,
      "ahiah": 7658,
      "boa": 7659,
      "cce": 7660,
      "cra": 7661,
      "col": 7662,
      "cham": 7663,
      "ded": 7664,
      "dition": 7665,
      "ga": 7666,
      "gree": 7667,
      "gments": 7668,
      "iece": 7669,
      "len": 7670,
      "lings": 7671,
      "lations": 7672,
      "lai": 7673,
      "mith": 7674,
      "oenai": 7675,
      "prus": 7676,
      "rod": 7677,
      "ties": 7678,
      "ua": 7679,
      "uches": 7680,
      "ually": 7681,
      "vo": 7682,
      "word": 7683,
      "whel": 7684,
      "yed": 7685,
      "zib": 7686,
      "¡ľ": 7687,
      "¬ì": 7688,
      "ëı": 7689,
      "Ġíķ": 7690,
      "Īì": 7691,
      "Ġtren": 7692,
      "Ġtied": 7693,
      "Ġtares": 7694,
      "hement": 7695,
      "Ġsine": 7696,
      "Ġsower": 7697,
      "Ġouches": 7698,
      "inth": 7699,
      "inate": 7700,
      "Ġwed": 7701,
      "rei": 7702,
      "ouch": 7703,
      "Ġbent": 7704,
      "Ġbery": 7705,
      "Ġbaker": 7706,
      "Ġfra": 7707,
      "iture": 7708,
      "Ġcase": 7709,
      "enses": 7710,
      "Ġdough": 7711,
      "Ġdance": 7712,
      "Ġdross": 7713,
      "Ġduty": 7714,
      "Ġinvent": 7715,
      "Ġpans": 7716,
      "Ġpine": 7717,
      "Ġpits": 7718,
      "Ġpavement": 7719,
      "isgah": 7720,
      "arim": 7721,
      "Ġbeck": 7722,
      "ĠIc": 7723,
      "Ġlace": 7724,
      "Ġsham": 7725,
      "Ġshaking": 7726,
      "ashed": 7727,
      "ĠJam": 7728,
      "ĠLod": 7729,
      "ĠLuz": 7730,
      "idered": 7731,
      "Ġevent": 7732,
      "ammite": 7733,
      "ods": 7734,
      "Ġhissing": 7735,
      "aying": 7736,
      "ethus": 7737,
      "Ġwipe": 7738,
      "ĠSy": 7739,
      "ĠShis": 7740,
      "ĠSmite": 7741,
      "stones": 7742,
      "ĠAri": 7743,
      "ĠAkk": 7744,
      "Ġreached": 7745,
      "Ġwhilst": 7746,
      "roar": 7747,
      "rofit": 7748,
      "Ġhum": 7749,
      "ĠMad": 7750,
      "ĠMig": 7751,
      "ĠMach": 7752,
      "ĠMushi": 7753,
      "ĠMaker": 7754,
      "ĠMethus": 7755,
      "ician": 7756,
      "ĠCil": 7757,
      "Ġseals": 7758,
      "ĠJoi": 7759,
      "Ġstall": 7760,
      "Ġstock": 7761,
      "ilae": 7762,
      "Ġthist": 7763,
      "Ġsport": 7764,
      "Ġsprung": 7765,
      "Ġoutgo": 7766,
      "Ġoutside": 7767,
      "umpt": 7768,
      "Ġuproar": 7769,
      "ĠHash": 7770,
      "Ġdecked": 7771,
      "Ġbutler": 7772,
      "ĠBichri": 7773,
      "estroy": 7774,
      "Ġdoer": 7775,
      "tofore": 7776,
      "Ġvap": 7777,
      "Ġvip": 7778,
      "aking": 7779,
      "allu": 7780,
      "Ġcontain": 7781,
      "Ġrud": 7782,
      "Ġrushing": 7783,
      "Ġattent": 7784,
      "ĠRock": 7785,
      "Ġliars": 7786,
      "ĠEzer": 7787,
      "Ġuses": 7788,
      "Ġsolit": 7789,
      "Ġsooths": 7790,
      "ĠTib": 7791,
      "Ġworms": 7792,
      "Ġsheath": 7793,
      "olted": 7794,
      "olished": 7795,
      "Ġprot": 7796,
      "reshah": 7797,
      "ĠOth": 7798,
      "ĠOphrah": 7799,
      "Ġ114": 7800,
      "Ġ101": 7801,
      "Ġoverwhel": 7802,
      "Ġlofty": 7803,
      "Ġ82": 7804,
      "ĠZop": 7805,
      "ĠZorah": 7806,
      "ĠZabad": 7807,
      "ĠMattithiah": 7808,
      "ĠJerimoth": 7809,
      "ĠWhich": 7810,
      "Ġ130": 7811,
      "Ġ138": 7812,
      "Ġ121": 7813,
      "Ġ124": 7814,
      "Ġ129": 7815,
      "quiet": 7816,
      "Ġswarm": 7817,
      "Ġsinful": 7818,
      "Ġdiverse": 7819,
      "Ġwatches": 7820,
      "ĠAbdon": 7821,
      "ĠJeush": 7822,
      "Ġspend": 7823,
      "Ġperple": 7824,
      "Ġperils": 7825,
      "Ġperdition": 7826,
      "Ġgiant": 7827,
      "Ġunf": 7828,
      "Ġunkn": 7829,
      "Ġenmity": 7830,
      "Ġroast": 7831,
      "Ġkey": 7832,
      "Ġpreacher": 7833,
      "Ġprefer": 7834,
      "Ġbegu": 7835,
      "ctify": 7836,
      "Ġflight": 7837,
      "Ġlawy": 7838,
      "Ġdisquiet": 7839,
      "Ġdestitute": 7840,
      "Ġrighteously": 7841,
      "elshazzar": 7842,
      "cia": 7843,
      "Ġendured": 7844,
      "Ġbox": 7845,
      "Ġdestroys": 7846,
      "aphim": 7847,
      "Ġpeaceable": 7848,
      "Ġraises": 7849,
      "Ġgrain": 7850,
      "Ġrestrained": 7851,
      "Ġfearing": 7852,
      "Ġblesses": 7853,
      "Ġbroidered": 7854,
      "Ġfaithfully": 7855,
      "Ġdeparts": 7856,
      "Ġgray": 7857,
      "Ġimm": 7858,
      "Ġpreserves": 7859,
      "Ġmothers": 7860,
      "Ġmoves": 7861,
      "Ġtemper": 7862,
      "ĠShereb": 7863,
      "Ġwarning": 7864,
      "ĠElioenai": 7865,
      "Ġfifties": 7866,
      "Ġprophetess": 7867,
      "Ġwiser": 7868,
      "Ġyesterday": 7869,
      "Ġheretofore": 7870,
      "ĠGalilae": 7871,
      "ĠEln": 7872,
      "ĠEliel": 7873,
      "Ġdevises": 7874,
      "Ġaffection": 7875,
      "Ġaffairs": 7876,
      "ĠMolech": 7877,
      "Ġperfected": 7878,
      "Ġpleasing": 7879,
      "Ġpleasures": 7880,
      "Ġbooks": 7881,
      "Ġprovide": 7882,
      "Ġprovocation": 7883,
      "ĠBenjamites": 7884,
      "ĠBenjamite": 7885,
      "ĠArchi": 7886,
      "Ġinstant": 7887,
      "Ġhelpers": 7888,
      "Ġbelieving": 7889,
      "ĠIttai": 7890,
      "ĠShaul": 7891,
      "ĠShaphat": 7892,
      "Ġdeclined": 7893,
      "Ġdeceiver": 7894,
      "ĠAdah": 7895,
      "Ġwaiting": 7896,
      "Ġstrip": 7897,
      "Ġgladly": 7898,
      "Ġfollowers": 7899,
      "Ġoppressors": 7900,
      "Ġfurrows": 7901,
      "Ġshuts": 7902,
      "Ġsuppose": 7903,
      "Ġsupposed": 7904,
      "Ġbounds": 7905,
      "Ġapple": 7906,
      "Ġapiece": 7907,
      "iousness": 7908,
      "Ġvehement": 7909,
      "Ġvial": 7910,
      "Ġview": 7911,
      "Ġmaiden": 7912,
      "Ġdiscretion": 7913,
      "Ġcarrying": 7914,
      "Ġhastily": 7915,
      "ogies": 7916,
      "Ġì£": 7917,
      "Ġìķ": 7918,
      "Ġìĺ": 7919,
      "Ġpastors": 7920,
      "ĠMareshah": 7921,
      "Ġfeeds": 7922,
      "perse": 7923,
      "Ġedifying": 7924,
      "Ġcircumcise": 7925,
      "Ġsearches": 7926,
      "Ġsycom": 7927,
      "Ġprosperous": 7928,
      "Ġsojourner": 7929,
      "Whereas": 7930,
      "Whereupon": 7931,
      "Ġtemptations": 7932,
      "Ġkids": 7933,
      "Ġreveal": 7934,
      "bearer": 7935,
      "Ġhardly": 7936,
      "Ġfillets": 7937,
      "Ġmanifold": 7938,
      "ĠAshkelon": 7939,
      "Ġpursues": 7940,
      "Ġpursuing": 7941,
      "Ġinstrument": 7942,
      "Ġhandmaids": 7943,
      "Ġawoke": 7944,
      "Ġawaked": 7945,
      "ĠEthan": 7946,
      "ĠGilboa": 7947,
      "ĠJahath": 7948,
      "Remove": 7949,
      "Ġaccusers": 7950,
      "Ġdistresses": 7951,
      "Ġfurniture": 7952,
      "Ġchastened": 7953,
      "Ġpurification": 7954,
      "Ġforgiveness": 7955,
      "Ġyielded": 7956,
      "Ġvalue": 7957,
      "ĠJezreelite": 7958,
      "Ġlanguishes": 7959,
      "Ġemptied": 7960,
      "Ġwanting": 7961,
      "Ġconfident": 7962,
      "Ġcareless": 7963,
      "Ġcommunic": 7964,
      "Ġchest": 7965,
      "ĠCarmi": 7966,
      "Ġherdsmen": 7967,
      "Ġlacking": 7968,
      "ĠJabin": 7969,
      "ĠCyren": 7970,
      "ĠCyprus": 7971,
      "ĠEthiopian": 7972,
      "Ġrevive": 7973,
      "Ġdescending": 7974,
      "Ġapproved": 7975,
      "Ġimputed": 7976,
      "Ġliberal": 7977,
      "Ġdiseased": 7978,
      "Ġdunghill": 7979,
      "ĠKadmiel": 7980,
      "Ġkindreds": 7981,
      "Ġê³": 7982,
      "ĠOnan": 7983,
      "Ġenlight": 7984,
      "ĠKenites": 7985,
      "Ġsubdue": 7986,
      "Ġtumors": 7987,
      "Ġtasted": 7988,
      "Ġgallows": 7989,
      "ĠShin": 7990,
      "ĠShould": 7991,
      "Ġweapon": 7992,
      "Ġoverturn": 7993,
      "athaim": 7994,
      "ĠEbal": 7995,
      "ĠZibeon": 7996,
      "ĠChebar": 7997,
      "ĠRabbi": 7998,
      "appuah": 7999,
      "Ġbaldness": 8000,
      "Ġembrace": 8001,
      "Ġforeheads": 8002,
      "Ġpersecutors": 8003,
      "Ġpowder": 8004,
      "Ġdearth": 8005,
      "Ġdearly": 8006,
      "Ġquarter": 8007,
      "Ġgenealogies": 8008,
      "Ġbruise": 8009,
      "Ġwormwood": 8010,
      "Ġdanger": 8011,
      "Ġleaped": 8012,
      "Ġstraitened": 8013,
      "Ġcensers": 8014,
      "Ġunprofit": 8015,
      "Ġexample": 8016,
      "Ġtormented": 8017,
      "Ġbalance": 8018,
      "ê³¼": 8019,
      "ĠMenahem": 8020,
      "Ġcomplain": 8021,
      "Ġpurchase": 8022,
      "Ġsurname": 8023,
      "Ġsurnamed": 8024,
      "Ġsavior": 8025,
      "ummim": 8026,
      "Ġagreed": 8027,
      "Ġskillful": 8028,
      "Ġflattering": 8029,
      "Ġeasier": 8030,
      "ĠShunammite": 8031,
      "Ġpertaining": 8032,
      "ĠMeshech": 8033,
      "ĠAholibamah": 8034,
      "ING": 8035,
      "urable": 8036,
      "ĠGittite": 8037,
      "Ġkneeled": 8038,
      "Ġextortion": 8039,
      "ĠNetophathite": 8040,
      "Ġambassadors": 8041,
      "Ġchews": 8042,
      "ĠJether": 8043,
      "ĠPenuel": 8044,
      "Ġpierced": 8045,
      "ĠDinah": 8046,
      "Ġdissolved": 8047,
      "Ġhelmet": 8048,
      "Ġreconciliation": 8049,
      "Ġvenison": 8050,
      "ĠEdrei": 8051,
      "ĠSephar": 8052,
      "Ġpearls": 8053,
      "Ġvomit": 8054,
      "Ġmagistrates": 8055,
      "Ġalmonds": 8056,
      "ĠPedaiah": 8057,
      "ĠMishael": 8058,
      "ĠChemosh": 8059,
      "Ġstruck": 8060,
      "Ġenclosed": 8061,
      "Ġastrologers": 8062,
      "ĠRedeemer": 8063,
      "ëıĦ": 8064,
      "Ġtrench": 8065,
      "Ġberyl": 8066,
      "ĠAkkub": 8067,
      "ĠCilicia": 8068,
      "Ġoutgoings": 8069,
      "Ġunknown": 8070,
      "ĠSherebiah": 8071,
      "Ġsycomore": 8072,
      "Declare": 8073,
      "En": 8074,
      "Get": 8075,
      "US": 8076,
      "aver": 8077,
      "aol": 8078,
      "bor": 8079,
      "bite": 8080,
      "cent": 8081,
      "cul": 8082,
      "cted": 8083,
      "casts": 8084,
      "ciled": 8085,
      "cript": 8086,
      "cerity": 8087,
      "de": 8088,
      "diel": 8089,
      "ea": 8090,
      "faring": 8091,
      "gas": 8092,
      "gion": 8093,
      "gard": 8094,
      "giver": 8095,
      "hb": 8096,
      "kind": 8097,
      "mar": 8098,
      "mans": 8099,
      "oi": 8100,
      "oot": 8101,
      "rate": 8102,
      "rarch": 8103,
      "ssed": 8104,
      "smith": 8105,
      "ta": 8106,
      "tan": 8107,
      "tah": 8108,
      "uit": 8109,
      "va": 8110,
      "vished": 8111,
      "vaim": 8112,
      "za": 8113,
      "zor": 8114,
      "zan": 8115,
      "zad": 8116,
      "zeel": 8117,
      "§Ģ": 8118,
      "©´": 8119,
      "°Ģ": 8120,
      "ì¡": 8121,
      "Ġver": 8122,
      "Ġtet": 8123,
      "hean": 8124,
      "helet": 8125,
      "hearted": 8126,
      "Ġafore": 8127,
      "Ġaxes": 8128,
      "Ġails": 8129,
      "inations": 8130,
      "inner": 8131,
      "Ġwel": 8132,
      "Ġwish": 8133,
      "hand": 8134,
      "haven": 8135,
      "hail": 8136,
      "Ġbatt": 8137,
      "Ġbite": 8138,
      "hid": 8139,
      "erred": 8140,
      "Ġmaim": 8141,
      "Ġmortal": 8142,
      "Ġmasons": 8143,
      "Ġfou": 8144,
      "Ġfades": 8145,
      "Ġyonder": 8146,
      "Ġtoes": 8147,
      "Ġtossed": 8148,
      "iter": 8149,
      "Ġcow": 8150,
      "Ġcrow": 8151,
      "Ġcrim": 8152,
      "Ġcert": 8153,
      "Ġdit": 8154,
      "Ġdash": 8155,
      "Ġdyed": 8156,
      "Ġhinds": 8157,
      "Ġink": 8158,
      "Ġins": 8159,
      "Ġinasmuch": 8160,
      "Ġpav": 8161,
      "ator": 8162,
      "ating": 8163,
      "athites": 8164,
      "ann": 8165,
      "arite": 8166,
      "arned": 8167,
      "Ġbehead": 8168,
      "Ġbeeves": 8169,
      "Ġbemo": 8170,
      "omed": 8171,
      "elzebub": 8172,
      "Ġhap": 8173,
      "Ġlump": 8174,
      "Ġshaven": 8175,
      "Ġshakes": 8176,
      "otam": 8177,
      "asper": 8178,
      "ĠJabb": 8179,
      "ĠLe": 8180,
      "ĠLest": 8181,
      "Ġsaves": 8182,
      "Ġforced": 8183,
      "lee": 8184,
      "odice": 8185,
      "ĠGa": 8186,
      "ĠGir": 8187,
      "ĠGab": 8188,
      "irts": 8189,
      "alah": 8190,
      "aliel": 8191,
      "eresh": 8192,
      "ĠPath": 8193,
      "ĠPrepare": 8194,
      "Ġrealm": 8195,
      "Ġwhiles": 8196,
      "roat": 8197,
      "urance": 8198,
      "Ġthorn": 8199,
      "Ġthread": 8200,
      "Ġthrew": 8201,
      "Ġthroat": 8202,
      "Ġant": 8203,
      "ĠMere": 8204,
      "ĠMall": 8205,
      "ĠMol": 8206,
      "ĠIshi": 8207,
      "ĠCom": 8208,
      "ĠCher": 8209,
      "ĠCush": 8210,
      "Ġcompar": 8211,
      "Ġstout": 8212,
      "Ġstub": 8213,
      "Ġstop": 8214,
      "Ġstuck": 8215,
      "Ġstony": 8216,
      "ilpah": 8217,
      "ĠDis": 8218,
      "ĠDishon": 8219,
      "ĠDraw": 8220,
      "Ġspran": 8221,
      "Ġoutcasts": 8222,
      "ĠNic": 8223,
      "ĠNim": 8224,
      "umah": 8225,
      "umerable": 8226,
      "Ġpecul": 8227,
      "ĠHu": 8228,
      "Ġdegree": 8229,
      "Ġweaver": 8230,
      "ĠBinn": 8231,
      "Ġdoers": 8232,
      "Ġhearth": 8233,
      "Ġvol": 8234,
      "Ġoffenses": 8235,
      "allowed": 8236,
      "Ġchildless": 8237,
      "ĠKor": 8238,
      "okes": 8239,
      "Ġrough": 8240,
      "Ġrider": 8241,
      "Ġrides": 8242,
      "Ġshone": 8243,
      "Ġknead": 8244,
      "ĠRaam": 8245,
      "ĠEzion": 8246,
      "Ġability": 8247,
      "Ġnoond": 8248,
      "Ġplot": 8249,
      "Ġplaster": 8250,
      "Ġsoles": 8251,
      "Ġneg": 8252,
      "ĠTO": 8253,
      "ĠTem": 8254,
      "ĠTaan": 8255,
      "ĠTarry": 8256,
      "ĠTola": 8257,
      "Ġjaw": 8258,
      "Ġjavel": 8259,
      "Ġjasper": 8260,
      "olis": 8261,
      "Ġ67": 8262,
      "Ġriot": 8263,
      "Ġprun": 8264,
      "resh": 8265,
      "Ġsucc": 8266,
      "Ġsunder": 8267,
      "ĠOut": 8268,
      "ĠOreb": 8269,
      "Ġ110": 8270,
      "illa": 8271,
      "Ġ87": 8272,
      "athp": 8273,
      "hni": 8274,
      "ĠZar": 8275,
      "ĠZilpah": 8276,
      "pper": 8277,
      "Ġ142": 8278,
      "ĠWord": 8279,
      "Ġ120": 8280,
      "Ġlaught": 8281,
      "Ġcoll": 8282,
      "Ġswim": 8283,
      "Ġsincerity": 8284,
      "Ġworkmans": 8285,
      "ĠAbid": 8286,
      "efiled": 8287,
      "ustus": 8288,
      "usters": 8289,
      "Ġsettled": 8290,
      "Ġspeeches": 8291,
      "Ġfeathers": 8292,
      "Ġglitter": 8293,
      "Ġpertains": 8294,
      "Ġsmith": 8295,
      "Ġfoes": 8296,
      "Ġfoxes": 8297,
      "Ġremai": 8298,
      "Ġunse": 8299,
      "Ġdeser": 8300,
      "Ġroe": 8301,
      "Ġexped": 8302,
      "Ġexchan": 8303,
      "Ġflag": 8304,
      "Ġscab": 8305,
      "Ġscour": 8306,
      "Ġlawgiver": 8307,
      "Ġdisperse": 8308,
      "Ġclim": 8309,
      "Ġclusters": 8310,
      "Ġdrown": 8311,
      "Ġprays": 8312,
      "Ġretain": 8313,
      "Ġdestroyer": 8314,
      "hable": 8315,
      "Ġcanker": 8316,
      "Ġreturns": 8317,
      "Ġraw": 8318,
      "Ġravished": 8319,
      "Ġrazor": 8320,
      "Ġreplen": 8321,
      "Ġdeadly": 8322,
      "Ġlighten": 8323,
      "Ġlightly": 8324,
      "Ġpresumpt": 8325,
      "Ġmeats": 8326,
      "Ġquite": 8327,
      "Ġquiver": 8328,
      "Ġsecure": 8329,
      "ĠWhatever": 8330,
      "Ġadj": 8331,
      "Ġadm": 8332,
      "Ġpract": 8333,
      "Ġbesides": 8334,
      "Ġasking": 8335,
      "Ġcertainty": 8336,
      "Ġdevoted": 8337,
      "Ġgarris": 8338,
      "Ask": 8339,
      "aida": 8340,
      "Ġcamps": 8341,
      "Ġfarmer": 8342,
      "Ġspoilers": 8343,
      "Ġdividing": 8344,
      "Ġdiviners": 8345,
      "Ġtells": 8346,
      "Ġcornet": 8347,
      "Ġsuffice": 8348,
      "ĠUrim": 8349,
      "Ġsunk": 8350,
      "Ġdefraud": 8351,
      "hars": 8352,
      "Ġsky": 8353,
      "Ġskirts": 8354,
      "Ġrefrained": 8355,
      "Ġrefrain": 8356,
      "ĠShal": 8357,
      "ĠSharon": 8358,
      "opotam": 8359,
      "Howl": 8360,
      "Ġprophesies": 8361,
      "Ġslaying": 8362,
      "Ġcrushed": 8363,
      "ĠBeelzebub": 8364,
      "Ġfooted": 8365,
      "ĠShilon": 8366,
      "Ġfeasting": 8367,
      "ĠNoph": 8368,
      "Ġresc": 8369,
      "Ġmessage": 8370,
      "Ġcomforts": 8371,
      "semble": 8372,
      "Ġstretches": 8373,
      "Ġsounding": 8374,
      "Ġsoldier": 8375,
      "Ġperfectly": 8376,
      "Ġceasing": 8377,
      "Ġsupposing": 8378,
      "Ġassurance": 8379,
      "iator": 8380,
      "ĠBethaven": 8381,
      "ĠAnswer": 8382,
      "Ġsleeps": 8383,
      "Ġblindness": 8384,
      "Ġcreate": 8385,
      "Ġhastened": 8386,
      "Ġministration": 8387,
      "ĠìĤ¬": 8388,
      "Ġgrievously": 8389,
      "Ġworshippers": 8390,
      "ĠChaldea": 8391,
      "ĠMaon": 8392,
      "Ġcrowned": 8393,
      "Ġstrengthens": 8394,
      "ĠShema": 8395,
      "Ġcorruptible": 8396,
      "Ġdamage": 8397,
      "Ġmisery": 8398,
      "armuth": 8399,
      "ĠShechaniah": 8400,
      "Ġhouseholds": 8401,
      "ĠMesopotam": 8402,
      "Ġtempting": 8403,
      "Three": 8404,
      "Ġninet": 8405,
      "Ġweakness": 8406,
      "ìĿĢ": 8407,
      "Ġhardness": 8408,
      "ĠAzekah": 8409,
      "ĠAzmaveth": 8410,
      "Ġhumbles": 8411,
      "Ġinnumerable": 8412,
      "Ġdropped": 8413,
      "Ġladen": 8414,
      "ĠDoes": 8415,
      "Ġfigure": 8416,
      "Ġrooted": 8417,
      "Ġyielding": 8418,
      "Ġharlots": 8419,
      "Ġlanguages": 8420,
      "Ġë³": 8421,
      "ĠGedor": 8422,
      "Ġtravails": 8423,
      "Ġsells": 8424,
      "Ġconfessed": 8425,
      "Ġcommune": 8426,
      "ĠLotan": 8427,
      "Ġpalms": 8428,
      "Ġmelts": 8429,
      "Ġdrunkard": 8430,
      "Ġrooms": 8431,
      "Ġnoble": 8432,
      "ĠBethsaida": 8433,
      "Ġdrunkenness": 8434,
      "Ġhypocris": 8435,
      "Ġmediator": 8436,
      "ĠEnos": 8437,
      "Ġsorts": 8438,
      "Ġrevolted": 8439,
      "Ġwrongfully": 8440,
      "Ġnativity": 8441,
      "Ġrebukes": 8442,
      "Ġselves": 8443,
      "Ġstoreh": 8444,
      "ìĿ´ëĭ¤": 8445,
      "Ġmentioned": 8446,
      "Ġprovender": 8447,
      "ĠPeleg": 8448,
      "Ġplaying": 8449,
      "ĠZaccur": 8450,
      "Ġbottomless": 8451,
      "ĠAhinoam": 8452,
      "Ġcustoms": 8453,
      "Ġkinsmen": 8454,
      "ĠCainan": 8455,
      "Ġprincipalities": 8456,
      "ĠLaish": 8457,
      "ĠLaodice": 8458,
      "ĠAchbor": 8459,
      "ĠMichaiah": 8460,
      "Ġfashioned": 8461,
      "Ġcontentions": 8462,
      "Ġacknowled": 8463,
      "Ġpulled": 8464,
      "straked": 8465,
      "ĠZoan": 8466,
      "Ġreconciled": 8467,
      "Judge": 8468,
      "Ġwithdra": 8469,
      "ĠShebaniah": 8470,
      "Ġtokens": 8471,
      "Ġdancing": 8472,
      "Ġornament": 8473,
      "Ġtroops": 8474,
      "Ġstewards": 8475,
      "cribed": 8476,
      "Ġdressed": 8477,
      "Ġrevenger": 8478,
      "Ġringstraked": 8479,
      "Ġhoofs": 8480,
      "Ġquickened": 8481,
      "ĠArabia": 8482,
      "Ġbefallen": 8483,
      "Show": 8484,
      "Ġrelieve": 8485,
      "Ġcomplaint": 8486,
      "Ġdawn": 8487,
      "Ġislands": 8488,
      "Ġundefiled": 8489,
      "Ġsighing": 8490,
      "ĠEshtaol": 8491,
      "Ġevidence": 8492,
      "ĠĠĠĠĠĠĠĠĠĠĠĠĠĠĠĠĠĠĠĠĠĠĠĠĠĠĠĠĠĠĠĠ": 8493,
      "Ġsoftly": 8494,
      "Ġoverseer": 8495,
      "Ġoccupied": 8496,
      "Ġpsalms": 8497,
      "Ġhammer": 8498,
      "Ġhousetop": 8499,
      "Ġhousetops": 8500,
      "Ġsomething": 8501,
      "Ġwolves": 8502,
      "Ġfornicators": 8503,
      "Ġstooped": 8504,
      "Ġalienated": 8505,
      "Ġgnashing": 8506,
      "Ġcloak": 8507,
      "Ġrobbery": 8508,
      "Ġodors": 8509,
      "Ġdemanded": 8510,
      "Ġswelling": 8511,
      "Ġdivorce": 8512,
      "Ġvirtue": 8513,
      "ĠMeribah": 8514,
      "Trust": 8515,
      "Ġdetest": 8516,
      "Ġpomp": 8517,
      "Ġpottage": 8518,
      "Ġewe": 8519,
      "ĠSamaritans": 8520,
      "ĠMahalaleel": 8521,
      "Ġgrasshoppers": 8522,
      "ĠStephen": 8523,
      "ĠZippor": 8524,
      "Ġturtledoves": 8525,
      "Ġmidwives": 8526,
      "ìħ¨": 8527,
      "Ġfishers": 8528,
      "ĠJeconiah": 8529,
      "Ġeggs": 8530,
      "ĠGamaliel": 8531,
      "Ġissued": 8532,
      "ĠHavilah": 8533,
      "Ġwitchcra": 8534,
      "Ġcraftsmen": 8535,
      "ĠPelethites": 8536,
      "Ġdaubed": 8537,
      "Ġwedding": 8538,
      "Ġfragments": 8539,
      "ĠJamin": 8540,
      "ĠShishak": 8541,
      "ĠArioch": 8542,
      "Ġhumility": 8543,
      "Ġattentive": 8544,
      "Ġsolitary": 8545,
      "Ġsoothsay": 8546,
      "Ġprotest": 8547,
      "ĠOthniel": 8548,
      "Ġoverwhelmed": 8549,
      "ĠElnathan": 8550,
      "ĠShinar": 8551,
      "Ġunprofitable": 8552,
      "cription": 8553,
      "zadak": 8554,
      "Ġtetrarch": 8555,
      "Ġaforetime": 8556,
      "Ġwelfare": 8557,
      "Ġmaimed": 8558,
      "Ġpavil": 8559,
      "Ġbeheaded": 8560,
      "ĠJabbok": 8561,
      "ĠGirgas": 8562,
      "Ġstubborn": 8563,
      "Ġsprang": 8564,
      "Ġpeculiar": 8565,
      "ĠBinnui": 8566,
      "Ġnoonday": 8567,
      "Ġjavelin": 8568,
      "Ġlaughter": 8569,
      "Ġworkmanship": 8570,
      "Ġremainder": 8571,
      "Ġexpedient": 8572,
      "Ġgarrisons": 8573,
      "ĠMesopotamia": 8574,
      "73": 8575,
      "Ben": 8576,
      "Draw": 8577,
      "Depart": 8578,
      "ES": 8579,
      "Eli": 8580,
      "Either": 8581,
      "Fin": 8582,
      "Flee": 8583,
      "Greet": 8584,
      "Hel": 8585,
      "Jos": 8586,
      "Mo": 8587,
      "Mar": 8588,
      "Other": 8589,
      "Pr": 8590,
      "Per": 8591,
      "Pass": 8592,
      "Pray": 8593,
      "Right": 8594,
      "Rep": 8595,
      "SUS": 8596,
      "Was": 8597,
      "bon": 8598,
      "bed": 8599,
      "bah": 8600,
      "buk": 8601,
      "dish": 8602,
      "eeb": 8603,
      "eopard": 8604,
      "fers": 8605,
      "fted": 8606,
      "grim": 8607,
      "glah": 8608,
      "ik": 8609,
      "iath": 8610,
      "iph": 8611,
      "lor": 8612,
      "lory": 8613,
      "mbs": 8614,
      "masters": 8615,
      "nets": 8616,
      "oes": 8617,
      "pelah": 8618,
      "roth": 8619,
      "rowed": 8620,
      "sah": 8621,
      "tings": 8622,
      "ups": 8623,
      "vai": 8624,
      "viousness": 8625,
      "wear": 8626,
      "which": 8627,
      "zap": 8628,
      "»ĺ": 8629,
      "ê»ĺ": 8630,
      "Ħľ": 8631,
      "Ġta": 8632,
      "Ġtall": 8633,
      "Ġtails": 8634,
      "Ġact": 8635,
      "Ġavo": 8636,
      "Ġsard": 8637,
      "Ġsodden": 8638,
      "inates": 8639,
      "Ġwet": 8640,
      "Ġwake": 8641,
      "Ġware": 8642,
      "Ġwaved": 8643,
      "reason": 8644,
      "rers": 8645,
      "Ġbon": 8646,
      "Ġbay": 8647,
      "Ġbol": 8648,
      "Ġbath": 8649,
      "Ġbrib": 8650,
      "Ġbalm": 8651,
      "himon": 8652,
      "erate": 8653,
      "Ġmand": 8654,
      "Ġmote": 8655,
      "Ġfade": 8656,
      "Ġfug": 8657,
      "Ġfurious": 8658,
      "Ġfolk": 8659,
      "Ġtoe": 8660,
      "Ġtoler": 8661,
      "Ġtombs": 8662,
      "orter": 8663,
      "ita": 8664,
      "ital": 8665,
      "itful": 8666,
      "Ġcister": 8667,
      "Ġcaves": 8668,
      "Ġcups": 8669,
      "onic": 8670,
      "onium": 8671,
      "edi": 8672,
      "edech": 8673,
      "Ġdying": 8674,
      "Ġdances": 8675,
      "Ġdoted": 8676,
      "Ġheel": 8677,
      "Ġinformed": 8678,
      "Ġpaid": 8679,
      "isho": 8680,
      "isement": 8681,
      "atah": 8682,
      "atiah": 8683,
      "athar": 8684,
      "Ġnav": 8685,
      "anoah": 8686,
      "arn": 8687,
      "ĠIb": 8688,
      "ĠId": 8689,
      "Ġhaven": 8690,
      "Ġlas": 8691,
      "Ġlain": 8692,
      "Ġluc": 8693,
      "asah": 8694,
      "ĠJar": 8695,
      "ĠJek": 8696,
      "ĠJared": 8697,
      "ĠJaal": 8698,
      "ĠJael": 8699,
      "ĠJavan": 8700,
      "ĠLud": 8701,
      "Ġgour": 8702,
      "ution": 8703,
      "Ġforts": 8704,
      "lect": 8705,
      "Ġemer": 8706,
      "ample": 8707,
      "ldren": 8708,
      "ĠGem": 8709,
      "ĠGidd": 8710,
      "ĠGihon": 8711,
      "ays": 8712,
      "Ġisle": 8713,
      "cho": 8714,
      "chol": 8715,
      "Ġwithstood": 8716,
      "irath": 8717,
      "entimes": 8718,
      "hol": 8719,
      "riages": 8720,
      "rikam": 8721,
      "eted": 8722,
      "rakes": 8723,
      "ereth": 8724,
      "ĠEm": 8725,
      "ĠEnt": 8726,
      "ĠShed": 8727,
      "ĠShur": 8728,
      "ĠSirs": 8729,
      "ĠSuffer": 8730,
      "ĠPot": 8731,
      "ĠPray": 8732,
      "ĠPris": 8733,
      "ĠPahath": 8734,
      "ĠPirath": 8735,
      "ster": 8736,
      "stain": 8737,
      "ĠAv": 8738,
      "ĠAqu": 8739,
      "ĠAthen": 8740,
      "ĠAriel": 8741,
      "Ġrehe": 8742,
      "Ġrear": 8743,
      "Ġwhisp": 8744,
      "Ġthreat": 8745,
      "Ġhun": 8746,
      "ĠMis": 8747,
      "ĠMar": 8748,
      "ĠMass": 8749,
      "ĠCep": 8750,
      "ĠChittim": 8751,
      "Ġseers": 8752,
      "ila": 8753,
      "iln": 8754,
      "Ġmanag": 8755,
      "Ġmanners": 8756,
      "Ġmankind": 8757,
      "ific": 8758,
      "ifter": 8759,
      "Ġbrink": 8760,
      "ĠDrink": 8761,
      "ĠDestroy": 8762,
      "Ġspied": 8763,
      "Ġspouse": 8764,
      "ĠNob": 8765,
      "ĠNaioth": 8766,
      "ĠHatt": 8767,
      "ĠHig": 8768,
      "Ġbyword": 8769,
      "ĠBes": 8770,
      "ĠBak": 8771,
      "ĠBeb": 8772,
      "ĠBuz": 8773,
      "ĠBukk": 8774,
      "ĠBelshazzar": 8775,
      "Ġagree": 8776,
      "aber": 8777,
      "tol": 8778,
      "ĠKib": 8779,
      "ĠKishon": 8780,
      "ĠKING": 8781,
      "ekod": 8782,
      "eving": 8783,
      "Ġamend": 8784,
      "Ġbeforehand": 8785,
      "Ġrub": 8786,
      "Ġrank": 8787,
      "Ġroughly": 8788,
      "Ġattain": 8789,
      "Ġknit": 8790,
      "Ġknee": 8791,
      "Ġknife": 8792,
      "Ġlice": 8793,
      "Ġabated": 8794,
      "emp": 8795,
      "emoth": 8796,
      "emned": 8797,
      "Ġplates": 8798,
      "oury": 8799,
      "ĠTish": 8800,
      "ĠTalm": 8801,
      "ĠTappuah": 8802,
      "Ġjaws": 8803,
      "Ġjeopard": 8804,
      "Ġshearers": 8805,
      "Ġtwins": 8806,
      "avah": 8807,
      "Ġproof": 8808,
      "Ġsuper": 8809,
      "Ġsucce": 8810,
      "Ġloat": 8811,
      "Ġserving": 8812,
      "Ġours": 8813,
      "ĠZeeb": 8814,
      "echer": 8815,
      "ĠJeshimon": 8816,
      "ĠWould": 8817,
      "Ġ126": 8818,
      "Ġ128": 8819,
      "Ġbrotherly": 8820,
      "ĠJoses": 8821,
      "ĠJosedech": 8822,
      "Ġswifter": 8823,
      "Ġsink": 8824,
      "Ġdire": 8825,
      "Ġwayfaring": 8826,
      "Ġbund": 8827,
      "Ġ150": 8828,
      "ĠAbib": 8829,
      "ĠJehon": 8830,
      "ĠJehud": 8831,
      "Ġart": 8832,
      "phy": 8833,
      "ĠCorinth": 8834,
      "Ġchase": 8835,
      "Ġperce": 8836,
      "Ġpervers": 8837,
      "Ġunless": 8838,
      "Ġropes": 8839,
      "unity": 8840,
      "Ġexcus": 8841,
      "Ġexcel": 8842,
      "Ġflint": 8843,
      "Ġflatters": 8844,
      "Ġflanks": 8845,
      "Ġscra": 8846,
      "areel": 8847,
      "aged": 8848,
      "agger": 8849,
      "evers": 8850,
      "Ġclap": 8851,
      "Ġclods": 8852,
      "Ġdrams": 8853,
      "Ġcastles": 8854,
      "Ġfaire": 8855,
      "Ġfairs": 8856,
      "Ġslug": 8857,
      "ĠAsaiah": 8858,
      "civiousness": 8859,
      "Ġgoldsmith": 8860,
      "Ġjudging": 8861,
      "Ġboat": 8862,
      "Ġleopard": 8863,
      "Ġretained": 8864,
      "Ġsevenfold": 8865,
      "Ġparcel": 8866,
      "ruitful": 8867,
      "Ġhighly": 8868,
      "Ġhowling": 8869,
      "Ġentice": 8870,
      "Ġreputation": 8871,
      "ĠFriend": 8872,
      "ortunity": 8873,
      "Ġrestitut": 8874,
      "Ġreceiving": 8875,
      "Ġgrate": 8876,
      "Ġcuts": 8877,
      "Ġincurable": 8878,
      "retched": 8879,
      "Ġcompel": 8880,
      "Ġcompelled": 8881,
      "iael": 8882,
      "Ġelection": 8883,
      "Ġwarmed": 8884,
      "Ġinherited": 8885,
      "Ġopening": 8886,
      "Ġstrang": 8887,
      "Ġquit": 8888,
      "Ġado": 8889,
      "Ġadorn": 8890,
      "Ġtenons": 8891,
      "Ġhiding": 8892,
      "Ġsalutation": 8893,
      "Ġbeset": 8894,
      "ĠJehohanan": 8895,
      "hemath": 8896,
      "Ġconfed": 8897,
      "ĠElim": 8898,
      "ĠElimelech": 8899,
      "Ġgarn": 8900,
      "Ġcharges": 8901,
      "Ġchoked": 8902,
      "Ġpitied": 8903,
      "Ġpipes": 8904,
      "ĠRejoice": 8905,
      "ĠRehum": 8906,
      "Ġpleases": 8907,
      "Ġdivision": 8908,
      "ĠMoabitess": 8909,
      "Ġhelps": 8910,
      "Ġreddish": 8911,
      "Ġreading": 8912,
      "ĠManass": 8913,
      "Ġprovoking": 8914,
      "ĠUn": 8915,
      "ĠUr": 8916,
      "Ġrebels": 8917,
      "ĠArp": 8918,
      "Ġreprob": 8919,
      "Ġtongs": 8920,
      "aachah": 8921,
      "Ġdefied": 8922,
      "Ġcloudy": 8923,
      "ĠAsshur": 8924,
      "ĠGalatia": 8925,
      "Ġdeceives": 8926,
      "Ġguests": 8927,
      "Ġfasten": 8928,
      "ĠThessalonic": 8929,
      "Ġprophesying": 8930,
      "Ġforsakes": 8931,
      "ĠBeeroth": 8932,
      "Ġprofits": 8933,
      "Ġstrewed": 8934,
      "Ġneedful": 8935,
      "ocations": 8936,
      "ĠBaalpeor": 8937,
      "Ġplagued": 8938,
      "Ġescapes": 8939,
      "Ġhorrible": 8940,
      "Ġterrib": 8941,
      "Ġteraphim": 8942,
      "Ġfurb": 8943,
      "Ġcorrect": 8944,
      "Ġapothe": 8945,
      "ĠPhilippi": 8946,
      "Ġappearing": 8947,
      "Ġbedcham": 8948,
      "ĠAhio": 8949,
      "ĠAhiezer": 8950,
      "Ġassemblies": 8951,
      "ĠEdomite": 8952,
      "Ġsuffering": 8953,
      "Ġgirdles": 8954,
      "ĠGibbeth": 8955,
      "Ġprospect": 8956,
      "Ġtraff": 8957,
      "Ġsleeping": 8958,
      "Ġseparates": 8959,
      "Ġdiscouraged": 8960,
      "Ġì°": 8961,
      "ĠìĦ": 8962,
      "Ġwatching": 8963,
      "Ġworships": 8964,
      "Ġcalm": 8965,
      "Ġdevouring": 8966,
      "Ġclefts": 8967,
      "Ġtarget": 8968,
      "Ġjoints": 8969,
      "ĠHebronites": 8970,
      "Ġwoolen": 8971,
      "Ġthinks": 8972,
      "ĠWherein": 8973,
      "rimmon": 8974,
      "Ġlepers": 8975,
      "Ġleprous": 8976,
      "Ġpolls": 8977,
      "Ġlowly": 8978,
      "Ġreveals": 8979,
      "Ġweights": 8980,
      "ĠBashemath": 8981,
      "Ġunlearned": 8982,
      "Ġprofited": 8983,
      "ĠHazars": 8984,
      "ĠHazeroth": 8985,
      "Ġexecutes": 8986,
      "Ġfills": 8987,
      "Ġcreation": 8988,
      "ĠAzel": 8989,
      "ĠAzrikam": 8990,
      "Ġpurposes": 8991,
      "aeus": 8992,
      "Without": 8993,
      "Ġmarked": 8994,
      "Ġdrops": 8995,
      "Ġdign": 8996,
      "Ġlodging": 8997,
      "Ġmete": 8998,
      "ĠHerodias": 8999,
      "ĠEliasaph": 9000,
      "Ġfurnished": 9001,
      "Ġchastised": 9002,
      "rezer": 9003,
      "Ġlikened": 9004,
      "Ġexpounded": 9005,
      "Ġlanguish": 9006,
      "Ġstumbled": 9007,
      "Ġblasphemies": 9008,
      "Ġporter": 9009,
      "Ġaccompan": 9010,
      "Ġfrost": 9011,
      "Ġconfession": 9012,
      "Ġcommunication": 9013,
      "ĠAchan": 9014,
      "ĠAijalon": 9015,
      "ĠGibeonites": 9016,
      "Ġdrunkards": 9017,
      "Ġstole": 9018,
      "Ġwanders": 9019,
      "Ġwandering": 9020,
      "Ġhappens": 9021,
      "ĠBethshean": 9022,
      "Ġvaliantly": 9023,
      "Ġsorc": 9024,
      "Ġoftentimes": 9025,
      "Ġrevived": 9026,
      "Ġmember": 9027,
      "Ġmemory": 9028,
      "ĠAbiezer": 9029,
      "ĠAbihail": 9030,
      "Ġenvied": 9031,
      "Ġimaginations": 9032,
      "ĠKirjathar": 9033,
      "Ġfortify": 9034,
      "ĠSalah": 9035,
      "ĠSalmon": 9036,
      "Ġbehave": 9037,
      "ĠMedia": 9038,
      "Ġuppermost": 9039,
      "ĠKenite": 9040,
      "ĠShammah": 9041,
      "Ġpools": 9042,
      "ĠKeep": 9043,
      "ĠRemember": 9044,
      "ĠRephaim": 9045,
      "Ġblackness": 9046,
      "Ġunbelieving": 9047,
      "Ġadvant": 9048,
      "Ġpublican": 9049,
      "ĠLaadan": 9050,
      "ĠHosanna": 9051,
      "Ġcontended": 9052,
      "Ġleaned": 9053,
      "Ġowls": 9054,
      "Ġgleaned": 9055,
      "Ġmyrtle": 9056,
      "Ġwithdrew": 9057,
      "Ġeffectual": 9058,
      "Ġtrial": 9059,
      "Ġoaks": 9060,
      "Ġdanced": 9061,
      "ĠLystra": 9062,
      "Ġcommended": 9063,
      "Ġdesirous": 9064,
      "Ġexamined": 9065,
      "Ġdisobedience": 9066,
      "Stand": 9067,
      "Ġnourish": 9068,
      "ĠJoktan": 9069,
      "Ġblotted": 9070,
      "Ġfolds": 9071,
      "Ġmeditation": 9072,
      "ĠArabians": 9073,
      "Ġhedges": 9074,
      "Ġconceal": 9075,
      "ĠTemanite": 9076,
      "moab": 9077,
      "Ġurged": 9078,
      "Ġurinates": 9079,
      "Ġexercised": 9080,
      "ĠShimron": 9081,
      "Ġengravings": 9082,
      "ê²Į": 9083,
      "Ġsavoury": 9084,
      "Ġagreement": 9085,
      "Ġseventeenth": 9086,
      "ĠEshtem": 9087,
      "Ġrenewed": 9088,
      "Ġbabe": 9089,
      "Ġoverseers": 9090,
      "Ġchamberlain": 9091,
      "Ġpatiently": 9092,
      "ĠJahaziel": 9093,
      "Ġdiminished": 9094,
      "ĠJESUS": 9095,
      "ĠTekoa": 9096,
      "Ġdistributed": 9097,
      "ĠAholibah": 9098,
      "Ġwolf": 9099,
      "Ġbereave": 9100,
      "Ġbereaved": 9101,
      "ĠGoliath": 9102,
      "John": 9103,
      "Ġbountifully": 9104,
      "ĠDelaiah": 9105,
      "ĠZabdi": 9106,
      "Ġchastening": 9107,
      "Ġê·¸ë¦": 9108,
      "ìłģ": 9109,
      "Ġtalebearer": 9110,
      "Ġhalt": 9111,
      "Ġlevy": 9112,
      "Ġcostly": 9113,
      "Ġexpert": 9114,
      "ĠEshcol": 9115,
      "ĠShammai": 9116,
      "Ġphysicians": 9117,
      "rehended": 9118,
      "Ġmalice": 9119,
      "Ġpilgrim": 9120,
      "Ġreviled": 9121,
      "Ġconstrained": 9122,
      "ĠTroas": 9123,
      "Ġgreedy": 9124,
      "Ġexpressed": 9125,
      "ĠEngedi": 9126,
      "ĠBuy": 9127,
      "ĠBigvai": 9128,
      "Ġsmooth": 9129,
      "Ġunicorn": 9130,
      "Ġsubtlety": 9131,
      "Ġsnuffers": 9132,
      "Ġpuffed": 9133,
      "Ġsorcerers": 9134,
      "Ġassuredly": 9135,
      "Ġtaskmasters": 9136,
      "ĪìĪ": 9137,
      "Ġbeckoned": 9138,
      "ĠIconium": 9139,
      "ĠMachpelah": 9140,
      "ĠMethuselah": 9141,
      "Ġunfruitful": 9142,
      "Ġdisquieted": 9143,
      "Ġimmortal": 9144,
[...]
